#include <stdint.h>

#include "fomo_model_data.h"

const unsigned char g_fomo_model_data[] = {
0x1c, 0x00, 0x00, 0x00, 0x54, 0x46, 0x4c, 0x33, 0x00, 0x00, 0x00, 0x00, 0x00, 0x00, 0x0e, 0x00, 0x18, 0x00, 
0x0c, 0x00, 0x08, 0x00, 0x04, 0x00, 0x10, 0x00, 0x14, 0x00, 0x0e, 0x00, 0x00, 0x00, 0x38, 0x00, 0x00, 0x00, 
0x3c, 0x00, 0x00, 0x00, 0x03, 0x00, 0x00, 0x00, 0x08, 0x00, 0x00, 0x00, 0x6c, 0x00, 0x00, 0x00, 0x1c, 0x00, 
0x00, 0x00, 0x54, 0x69, 0x6e, 0x79, 0x4e, 0x65, 0x75, 0x72, 0x61, 0x6c, 0x4e, 0x65, 0x74, 0x77, 0x6f, 0x72, 
0x6b, 0x20, 0x43, 0x6f, 0x6e, 0x76, 0x65, 0x72, 0x74, 0x65, 0x64, 0x2e, 0x00, 0x00, 0x00, 0x00, 0x01, 0x00, 
0x00, 0x00, 0xb4, 0x00, 0x00, 0x00, 0x0e, 0x00, 0x00, 0x00, 0xdc, 0x27, 0x00, 0x00, 0xc4, 0x27, 0x00, 0x00, 
0xac, 0x27, 0x00, 0x00, 0x9c, 0x27, 0x00, 0x00, 0x8c, 0x27, 0x00, 0x00, 0x7c, 0x27, 0x00, 0x00, 0x6c, 0x27, 
0x00, 0x00, 0x5c, 0x27, 0x00, 0x00, 0x4c, 0x27, 0x00, 0x00, 0x3c, 0x27, 0x00, 0x00, 0x2c, 0x27, 0x00, 0x00, 
0x1c, 0x27, 0x00, 0x00, 0x0c, 0x27, 0x00, 0x00, 0xfc, 0x26, 0x00, 0x00, 0x18, 0x00, 0x00, 0x00, 0xf0, 0x26, 
0x00, 0x00, 0x30, 0x25, 0x00, 0x00, 0x00, 0x25, 0x00, 0x00, 0x60, 0x24, 0x00, 0x00, 0x10, 0x24, 0x00, 0x00, 
0xc0, 0x23, 0x00, 0x00, 0x20, 0x23, 0x00, 0x00, 0x80, 0x22, 0x00, 0x00, 0xe0, 0x21, 0x00, 0x00, 0x40, 0x21, 
0x00, 0x00, 0xa0, 0x20, 0x00, 0x00, 0x50, 0x20, 0x00, 0x00, 0x80, 0x1f, 0x00, 0x00, 0x70, 0x04, 0x00, 0x00, 
0x54, 0x04, 0x00, 0x00, 0x04, 0x04, 0x00, 0x00, 0xd4, 0x03, 0x00, 0x00, 0x84, 0x03, 0x00, 0x00, 0xe4, 0x02, 
0x00, 0x00, 0x44, 0x02, 0x00, 0x00, 0x14, 0x02, 0x00, 0x00, 0xc4, 0x01, 0x00, 0x00, 0x74, 0x01, 0x00, 0x00, 
0x24, 0x01, 0x00, 0x00, 0x00, 0x00, 0x0e, 0x00, 0x18, 0x00, 0x08, 0x00, 0x14, 0x00, 0x10, 0x00, 0x04, 0x00, 
0x0c, 0x00, 0x0e, 0x00, 0x00, 0x00, 0xc0, 0x00, 0x00, 0x00, 0x20, 0x00, 0x00, 0x00, 0x0c, 0x00, 0x00, 0x00, 
0xf0, 0x00, 0x00, 0x00, 0xf4, 0x00, 0x00, 0x00, 0x0a, 0x00, 0x00, 0x00, 0x6d, 0x61, 0x69, 0x6e, 0x5f, 0x67, 
0x72, 0x61, 0x70, 0x68, 0x00, 0x00, 0x26, 0x00, 0x00, 0x00, 0x10, 0x48, 0x00, 0x00, 0xb8, 0x47, 0x00, 0x00, 
0x7c, 0x46, 0x00, 0x00, 0x14, 0x46, 0x00, 0x00, 0xa0, 0x45, 0x00, 0x00, 0x90, 0x44, 0x00, 0x00, 0x28, 0x44, 
0x00, 0x00, 0x18, 0x43, 0x00, 0x00, 0xf8, 0x41, 0x00, 0x00, 0x78, 0x41, 0x00, 0x00, 0x60, 0x40, 0x00, 0x00, 
0x44, 0x3f, 0x00, 0x00, 0xd8, 0x3e, 0x00, 0x00, 0xbc, 0x3d, 0x00, 0x00, 0x40, 0x3d, 0x00, 0x00, 0xd4, 0x3c, 
0x00, 0x00, 0xc4, 0x3b, 0x00, 0x00, 0x38, 0x39, 0x00, 0x00, 0x9c, 0x36, 0x00, 0x00, 0x34, 0x36, 0x00, 0x00, 
0xd0, 0x35, 0x00, 0x00, 0x60, 0x35, 0x00, 0x00, 0x54, 0x34, 0x00, 0x00, 0x08, 0x34, 0x00, 0x00, 0xfc, 0x32, 
0x00, 0x00, 0x84, 0x32, 0x00, 0x00, 0x08, 0x32, 0x00, 0x00, 0xa4, 0x31, 0x00, 0x00, 0x88, 0x30, 0x00, 0x00, 
0x6c, 0x2f, 0x00, 0x00, 0x20, 0x2f, 0x00, 0x00, 0xb4, 0x2e, 0x00, 0x00, 0x48, 0x2e, 0x00, 0x00, 0x38, 0x2d, 
0x00, 0x00, 0x2c, 0x2c, 0x00, 0x00, 0x20, 0x2b, 0x00, 0x00, 0xb8, 0x2a, 0x00, 0x00, 0x4c, 0x2a, 0x00, 0x00, 
0x0e, 0x00, 0x00, 0x00, 0x14, 0x2a, 0x00, 0x00, 0xb4, 0x29, 0x00, 0x00, 0x4c, 0x29, 0x00, 0x00, 0x04, 0x29, 
0x00, 0x00, 0xd0, 0x28, 0x00, 0x00, 0x74, 0x28, 0x00, 0x00, 0x2c, 0x28, 0x00, 0x00, 0xf8, 0x27, 0x00, 0x00, 
0xac, 0x27, 0x00, 0x00, 0x64, 0x27, 0x00, 0x00, 0x1c, 0x27, 0x00, 0x00, 0xcc, 0x26, 0x00, 0x00, 0x7c, 0x26, 
0x00, 0x00, 0x40, 0x26, 0x00, 0x00, 0x01, 0x00, 0x00, 0x00, 0x1b, 0x00, 0x00, 0x00, 0x01, 0x00, 0x00, 0x00, 
0x03, 0x00, 0x00, 0x00, 0xaa, 0xd9, 0xff, 0xff, 0x04, 0x00, 0x00, 0x00, 0x40, 0x00, 0x00, 0x00, 0x84, 0xf2, 
0xff, 0xff, 0xf8, 0x02, 0x00, 0x00, 0xf1, 0x0c, 0x00, 0x00, 0x26, 0xf6, 0xff, 0xff, 0x41, 0x38, 0x00, 0x00, 
0xe1, 0xff, 0xff, 0xff, 0x84, 0xf0, 0xff, 0xff, 0x8f, 0xfe, 0xff, 0xff, 0xfc, 0xf6, 0xff, 0xff, 0x5d, 0x03, 
0x00, 0x00, 0x14, 0x04, 0x00, 0x00, 0xf3, 0x05, 0x00, 0x00, 0xd8, 0xf6, 0xff, 0xff, 0xf7, 0xfe, 0xff, 0xff, 
0xb5, 0x0a, 0x00, 0x00, 0x4b, 0x0a, 0x00, 0x00, 0xf6, 0xd9, 0xff, 0xff, 0x04, 0x00, 0x00, 0x00, 0x40, 0x00, 
0x00, 0x00, 0xd9, 0xfa, 0x00, 0x00, 0x8b, 0xef, 0xff, 0xff, 0x0f, 0x6f, 0x00, 0x00, 0xa8, 0xe9, 0xff, 0xff, 
0x76, 0x30, 0x01, 0x00, 0x77, 0x51, 0x00, 0x00, 0xbd, 0x03, 0xfe, 0xff, 0xb5, 0x06, 0x00, 0x00, 0xb7, 0xa1, 
0xfe, 0xff, 0xbb, 0x0f, 0x00, 0x00, 0xbc, 0xac, 0xff, 0xff, 0x5f, 0x29, 0x00, 0x00, 0x3b, 0x0b, 0x04, 0x00, 
0x2d, 0x15, 0x01, 0x00, 0xba, 0xa2, 0x00, 0x00, 0xfe, 0xb4, 0x02, 0x00, 0x42, 0xda, 0xff, 0xff, 0x04, 0x00, 
0x00, 0x00, 0x40, 0x00, 0x00, 0x00, 0x02, 0xfe, 0xff, 0xff, 0xb1, 0xfe, 0xff, 0xff, 0xdb, 0xfe, 0xff, 0xff, 
0x33, 0x0b, 0x00, 0x00, 0x78, 0xfe, 0xff, 0xff, 0x33, 0xfe, 0xff, 0xff, 0xcd, 0x03, 0x00, 0x00, 0xef, 0xfd, 
0xff, 0xff, 0x5b, 0x03, 0x00, 0x00, 0x04, 0xff, 0xff, 0xff, 0x0f, 0x03, 0x00, 0x00, 0x27, 0x03, 0x00, 0x00, 
0x12, 0xfd, 0xff, 0xff, 0x84, 0xf0, 0xff, 0xff, 0xcb, 0x02, 0x00, 0x00, 0x2f, 0xff, 0xff, 0xff, 0x8e, 0xda, 
0xff, 0xff, 0x04, 0x00, 0x00, 0x00, 0x20, 0x00, 0x00, 0x00, 0x00, 0x00, 0x00, 0x00, 0x00, 0x00, 0x00, 0x00, 
0x01, 0x00, 0x00, 0x00, 0x01, 0x00, 0x00, 0x00, 0x01, 0x00, 0x00, 0x00, 0x01, 0x00, 0x00, 0x00, 0x00, 0x00, 
0x00, 0x00, 0x00, 0x00, 0x00, 0x00, 0xba, 0xda, 0xff, 0xff, 0x04, 0x00, 0x00, 0x00, 0x90, 0x00, 0x00, 0x00, 
0x08, 0xad, 0x7f, 0x7f, 0x3f, 0x3c, 0x81, 0x96, 0x81, 0xf0, 0xbf, 0xc9, 0x1c, 0x89, 0x22, 0xbc, 0x55, 0xc2, 
0x5d, 0x07, 0xda, 0x7f, 0xb7, 0x01, 0xd4, 0xea, 0xd0, 0xd2, 0x1e, 0xa3, 0x26, 0xe2, 0x3e, 0x7f, 0x12, 0x58, 
0x0b, 0x42, 0xd4, 0x81, 0xf6, 0xf6, 0xe7, 0x1b, 0x0d, 0xa9, 0xc9, 0x20, 0x23, 0xb3, 0x4d, 0x79, 0x06, 0x49, 
0x90, 0xe3, 0xd8, 0xee, 0xa3, 0x17, 0x42, 0x97, 0x65, 0x98, 0xc2, 0xeb, 0x51, 0x26, 0x81, 0x58, 0x6a, 0xa4, 
0xe3, 0xe4, 0x7f, 0x53, 0x39, 0xe7, 0xc3, 0x2f, 0x02, 0x30, 0x1b, 0xf8, 0x21, 0x48, 0x3f, 0xc5, 0x15, 0xf3, 
0x20, 0x30, 0x53, 0xb0, 0x81, 0x2a, 0xe9, 0xeb, 0xd7, 0x54, 0x0c, 0x3b, 0xd5, 0x10, 0x0d, 0x7f, 0x94, 0xff, 
0x53, 0xdb, 0x62, 0x17, 0x81, 0x0f, 0xed, 0xd4, 0x70, 0x02, 0x7f, 0x56, 0x1d, 0x6f, 0xf9, 0x09, 0x44, 0x81, 
0x16, 0x7f, 0xdf, 0x63, 0x4a, 0x0d, 0x51, 0x08, 0x1f, 0x34, 0x25, 0xd3, 0x10, 0x7f, 0x7f, 0x87, 0xa8, 0x1b, 
0x56, 0xdb, 0xff, 0xff, 0x04, 0x00, 0x00, 0x00, 0x90, 0x00, 0x00, 0x00, 0x1d, 0x23, 0x52, 0xf4, 0x13, 0xb5, 
0xb3, 0xee, 0x7f, 0xf8, 0x14, 0xaa, 0x0d, 0xac, 0x0f, 0x14, 0x4a, 0x41, 0x7f, 0xdb, 0xf9, 0xd4, 0x13, 0xe8, 
0x3a, 0x08, 0x22, 0x21, 0xc9, 0xd5, 0x32, 0x1d, 0x36, 0x3b, 0x10, 0xe8, 0x2f, 0xf7, 0x6d, 0xf8, 0x37, 0x24, 
0x1a, 0x72, 0x3d, 0x13, 0x81, 0x17, 0x48, 0x5d, 0x3c, 0xc4, 0x3d, 0xd5, 0xfa, 0xf2, 0x2b, 0x3f, 0x0d, 0x50, 
0xd7, 0x97, 0x70, 0x1e, 0x7f, 0x7f, 0xe4, 0x81, 0x4c, 0x81, 0x73, 0x81, 0xf9, 0x68, 0x7f, 0x7b, 0x16, 0xd1, 
0x5f, 0x7f, 0x02, 0x5f, 0xc2, 0xb4, 0x35, 0xe5, 0x7f, 0xf3, 0xd7, 0x58, 0x2d, 0x7f, 0x15, 0x7f, 0x06, 0x3c, 
0xf9, 0x03, 0x02, 0xc7, 0x7f, 0x50, 0xc4, 0xfa, 0x3f, 0x69, 0x09, 0x7e, 0xaf, 0xcc, 0xe8, 0x35, 0x11, 0x26, 
0xbb, 0xcd, 0x4c, 0x17, 0x5a, 0xf4, 0xdc, 0x7f, 0x37, 0x71, 0x81, 0x18, 0x0f, 0x2d, 0xda, 0x41, 0xa5, 0xe9, 
0x43, 0xbc, 0x66, 0xf3, 0x04, 0x64, 0x49, 0x6e, 0x06, 0x38, 0xfd, 0x14, 0xf2, 0xdb, 0xff, 0xff, 0x04, 0x00, 
0x00, 0x00, 0x40, 0x00, 0x00, 0x00, 0xf6, 0x01, 0x00, 0x00, 0x53, 0xf7, 0xff, 0xff, 0xd2, 0x0a, 0x00, 0x00, 
0xe2, 0xfe, 0xff, 0xff, 0x91, 0xff, 0xff, 0xff, 0x3c, 0x02, 0x00, 0x00, 0x53, 0x04, 0x00, 0x00, 0x0c, 0x07, 
0x00, 0x00, 0xd6, 0x02, 0x00, 0x00, 0xb0, 0xfe, 0xff, 0xff, 0x37, 0xfb, 0xff, 0xff, 0x81, 0x02, 0x00, 0x00, 
0xb0, 0xfc, 0xff, 0xff, 0x4b, 0xfd, 0xff, 0xff, 0x61, 0xe7, 0xff, 0xff, 0xd1, 0xfb, 0xff, 0xff, 0x3e, 0xdc, 
0xff, 0xff, 0x04, 0x00, 0x00, 0x00, 0x20, 0x00, 0x00, 0x00, 0x00, 0x00, 0x00, 0x00, 0x00, 0x00, 0x00, 0x00, 
0x01, 0x00, 0x00, 0x00, 0x01, 0x00, 0x00, 0x00, 0x01, 0x00, 0x00, 0x00, 0x01, 0x00, 0x00, 0x00, 0x00, 0x00, 
0x00, 0x00, 0x00, 0x00, 0x00, 0x00, 0x6a, 0xdc, 0xff, 0xff, 0x04, 0x00, 0x00, 0x00, 0x40, 0x00, 0x00, 0x00, 
0xb2, 0xff, 0xff, 0xff, 0x15, 0xf8, 0xff, 0xff, 0x7c, 0x01, 0x00, 0x00, 0xf3, 0x1c, 0x00, 0x00, 0x3f, 0xfa, 
0xff, 0xff, 0x5b, 0x16, 0x00, 0x00, 0xb7, 0x04, 0x00, 0x00, 0x4e, 0x15, 0x00, 0x00, 0x01, 0xfd, 0xff, 0xff, 
0x66, 0x01, 0x00, 0x00, 0x8d, 0xfa, 0xff, 0xff, 0x41, 0xfa, 0xff, 0xff, 0x8e, 0x06, 0x00, 0x00, 0xbd, 0x16, 
0x00, 0x00, 0xa7, 0x01, 0x00, 0x00, 0xd7, 0x01, 0x00, 0x00, 0xb6, 0xdc, 0xff, 0xff, 0x04, 0x00, 0x00, 0x00, 
0x0c, 0x00, 0x00, 0x00, 0x7c, 0x1b, 0x00, 0x00, 0x6c, 0xfc, 0xff, 0xff, 0x34, 0x00, 0x00, 0x00, 0xce, 0xdc, 
0xff, 0xff, 0x04, 0x00, 0x00, 0x00, 0x00, 0x1b, 0x00, 0x00, 0x15, 0xcc, 0xe0, 0xf7, 0x03, 0xe0, 0x0c, 0xba, 
0x16, 0xd7, 0x07, 0xf1, 0xfc, 0xad, 0x02, 0x0e, 0x06, 0xaf, 0x0e, 0x95, 0x10, 0x96, 0x22, 0x08, 0xe7, 0xe9, 
0x45, 0xdb, 0xef, 0xcb, 0x06, 0x24, 0x1a, 0xd6, 0x28, 0xfe, 0x2b, 0x01, 0xfa, 0x2c, 0xc5, 0x01, 0x3d, 0xb3, 
0x00, 0x36, 0xf0, 0x19, 0x22, 0xf8, 0xec, 0x07, 0xda, 0xf9, 0xf0, 0xe7, 0x31, 0xe5, 0x15, 0xe7, 0x06, 0xb9, 
0xff, 0x0e, 0x01, 0xe9, 0x00, 0xfb, 0x1e, 0xc4, 0x08, 0xe5, 0xed, 0x00, 0x41, 0xa7, 0xf3, 0xad, 0xff, 0x13, 
0x24, 0xe5, 0xf3, 0x08, 0x17, 0x1a, 0xf3, 0xea, 0xc5, 0x1c, 0x39, 0xd4, 0x0a, 0x21, 0xee, 0xf6, 0x1e, 0x00, 
0x15, 0xf8, 0x07, 0xee, 0xf9, 0xe3, 0x5d, 0x24, 0x09, 0xf3, 0x32, 0xc9, 0x00, 0xf9, 0xbd, 0xe9, 0xeb, 0xfc, 
0x27, 0xf1, 0x09, 0x1a, 0x1b, 0x3c, 0x08, 0xc6, 0x1a, 0x81, 0x01, 0x0e, 0xff, 0xff, 0xf9, 0xf6, 0x2f, 0x04, 
0xe2, 0x20, 0xfe, 0x19, 0x04, 0xf5, 0x2c, 0x27, 0xf1, 0x01, 0x19, 0xdc, 0xc6, 0x00, 0xf5, 0xe5, 0x0e, 0xb2, 
0xfc, 0xa7, 0xfa, 0x29, 0x0d, 0x81, 0x01, 0x13, 0xf8, 0xac, 0xf4, 0xd1, 0x12, 0x92, 0x25, 0xe8, 0xec, 0xa5, 
0x49, 0xb3, 0xfb, 0x99, 0x03, 0x32, 0x38, 0xb5, 0x2d, 0xdb, 0x21, 0xd9, 0x09, 0x14, 0xc9, 0x01, 0x3d, 0x04, 
0x0f, 0xda, 0xef, 0x19, 0xf3, 0xf4, 0xd6, 0x08, 0xcb, 0x14, 0xfa, 0xed, 0x26, 0xc6, 0xf6, 0x0c, 0x16, 0xc2, 
0x00, 0x1b, 0xdf, 0xe6, 0xff, 0x09, 0xf8, 0xec, 0x14, 0xee, 0xf9, 0xcb, 0x31, 0x91, 0xfe, 0xb4, 0xff, 0x0a, 
0x2b, 0xe4, 0x15, 0xf5, 0x34, 0x2b, 0xf2, 0x01, 0xd1, 0xff, 0x31, 0xfa, 0x18, 0xf8, 0xee, 0xe8, 0xff, 0x06, 
0x13, 0xe5, 0x32, 0xe1, 0x0b, 0xde, 0x7b, 0xec, 0x0b, 0xdf, 0x46, 0xbd, 0x00, 0x04, 0xd5, 0xfc, 0x0b, 0xf3, 
0x0f, 0xec, 0x09, 0xfa, 0x42, 0x20, 0xf1, 0xc4, 0x36, 0x97, 0x00, 0x03, 0x13, 0x09, 0x17, 0xd5, 0x1d, 0xf5, 
0xdd, 0x13, 0x2d, 0x23, 0x08, 0xb2, 0x48, 0x06, 0xf0, 0xfc, 0xf6, 0x12, 0xe3, 0x5d, 0x26, 0x23, 0x06, 0x19, 
0xf3, 0xf0, 0x0e, 0xda, 0xfa, 0x37, 0x02, 0xf8, 0xea, 0x30, 0xf2, 0xee, 0x2c, 0x17, 0x0d, 0xeb, 0x1c, 0xcf, 
0xf6, 0x29, 0x06, 0xf1, 0xf9, 0xf2, 0xf6, 0xed, 0xf9, 0xf7, 0x0c, 0x38, 0x0a, 0xfe, 0x38, 0xc7, 0xe4, 0xfe, 
0x00, 0xcf, 0x07, 0xf4, 0xf4, 0x0c, 0xf4, 0x04, 0x0f, 0x04, 0x0b, 0x20, 0xe7, 0xd8, 0x00, 0x05, 0x01, 0x2c, 
0x01, 0x08, 0xe3, 0x28, 0x09, 0xc9, 0xe0, 0xef, 0x12, 0x0c, 0xf8, 0x9c, 0x28, 0x40, 0x0b, 0xf9, 0xf7, 0x0f, 
0xf3, 0x23, 0x0b, 0xfd, 0x0a, 0xe7, 0x08, 0x03, 0x0a, 0xd4, 0xff, 0xeb, 0x06, 0xf4, 0x07, 0x0a, 0x0d, 0x02, 
0x11, 0x0c, 0xe2, 0xff, 0x01, 0x0d, 0xc6, 0xe2, 0xe7, 0xe6, 0x09, 0x24, 0x00, 0x13, 0xf0, 0x05, 0xf3, 0xfa, 
0xfa, 0x2d, 0xfa, 0x03, 0xe1, 0x81, 0x0c, 0x0d, 0x1e, 0xfb, 0xf5, 0x1b, 0x23, 0x3e, 0xf6, 0x24, 0x0f, 0x06, 
0xf3, 0xe7, 0x01, 0xdb, 0x01, 0xf3, 0x1f, 0x00, 0x06, 0x20, 0x19, 0x38, 0xa9, 0x2f, 0x3d, 0x6e, 0x0e, 0xf7, 
0xd7, 0x31, 0xe3, 0xe4, 0x0b, 0x79, 0x02, 0xed, 0xc5, 0xde, 0xc4, 0x97, 0x2e, 0x2e, 0x12, 0xf5, 0xfc, 0xf2, 
0xd3, 0x32, 0xe6, 0x08, 0x07, 0x06, 0x0a, 0xa6, 0xf8, 0xaa, 0xf5, 0x4c, 0x03, 0xeb, 0x14, 0xdf, 0x05, 0x49, 
0xe4, 0xb2, 0xe3, 0xf4, 0x00, 0x07, 0xbc, 0x08, 0x4f, 0x19, 0x0a, 0xeb, 0xcb, 0x28, 0xf5, 0x39, 0x0e, 0x5a, 
0x01, 0x06, 0xc3, 0xe3, 0xf1, 0x99, 0xf8, 0xa9, 0x12, 0xef, 0xca, 0xc1, 0x12, 0x7f, 0xec, 0xcf, 0x09, 0x0d, 
0xf3, 0xe5, 0x34, 0xb7, 0x1e, 0xb0, 0x16, 0xd9, 0xe0, 0xe1, 0x0a, 0xf3, 0xf3, 0xa7, 0xeb, 0x24, 0xfa, 0x08, 
0xc5, 0x30, 0x0a, 0x24, 0xff, 0xec, 0xcc, 0xe9, 0xe4, 0x2e, 0x35, 0x43, 0x00, 0x10, 0x00, 0x02, 0xb7, 0xe4, 
0x1a, 0x15, 0x0d, 0xe6, 0xe0, 0xe5, 0xef, 0x4d, 0x24, 0x9d, 0x07, 0x46, 0x17, 0x0f, 0x20, 0x0d, 0x43, 0xd7, 
0xfe, 0xdd, 0xfa, 0xee, 0x03, 0x08, 0x31, 0x9e, 0xe9, 0x51, 0x1b, 0x32, 0xbc, 0x37, 0x0e, 0x3e, 0x17, 0xda, 
0xd3, 0xc6, 0xff, 0x08, 0x01, 0xfa, 0x01, 0x0c, 0x1e, 0xf0, 0xea, 0xd0, 0x0a, 0xdd, 0x10, 0xe6, 0x08, 0xae, 
0x20, 0x14, 0xf0, 0xb3, 0xff, 0x0b, 0x53, 0xc0, 0x0d, 0xec, 0x16, 0xce, 0xfd, 0x08, 0xfc, 0xcd, 0x21, 0x0b, 
0x06, 0x91, 0xee, 0xfb, 0xfa, 0x1f, 0xd8, 0x1a, 0xf0, 0x2b, 0x10, 0xe9, 0xef, 0xd0, 0xfc, 0x3e, 0x08, 0x04, 
0x00, 0x1b, 0xe8, 0xe4, 0x02, 0xf0, 0xd2, 0xf4, 0x13, 0xf3, 0x07, 0x81, 0x27, 0xfb, 0xf3, 0xc3, 0xfd, 0x00, 
0x16, 0xca, 0x24, 0x09, 0x08, 0xf7, 0xf5, 0x04, 0x03, 0xf4, 0x0b, 0xfd, 0x0d, 0xba, 0xeb, 0xf5, 0x08, 0x1e, 
0xfb, 0x02, 0xe7, 0xfd, 0x0c, 0x0e, 0x16, 0x11, 0xf9, 0x1f, 0x0f, 0x1b, 0x00, 0x20, 0xef, 0xfe, 0xf8, 0xea, 
0xe3, 0x12, 0x01, 0xf6, 0x37, 0xd3, 0x08, 0x13, 0x09, 0xc2, 0xfe, 0x12, 0x13, 0xed, 0x1e, 0xfd, 0x0b, 0xcd, 
0xef, 0xf6, 0x47, 0x10, 0x00, 0x08, 0x24, 0xc8, 0xed, 0x1a, 0x1a, 0x44, 0xc1, 0x3d, 0x45, 0x29, 0x20, 0x0c, 
0xc6, 0xdc, 0xe7, 0xd1, 0xea, 0x75, 0x02, 0xf8, 0x17, 0x19, 0xec, 0xbf, 0x27, 0xde, 0x08, 0xdb, 0xd2, 0x94, 
0x0d, 0x3b, 0xeb, 0xb9, 0xfe, 0xf7, 0x1e, 0xc5, 0xf6, 0xc1, 0x09, 0xe5, 0x1e, 0x01, 0xeb, 0xd2, 0x13, 0xff, 
0x0c, 0x8e, 0xfb, 0xfc, 0x35, 0x09, 0xd2, 0x19, 0x11, 0x26, 0x15, 0xe0, 0xfd, 0x1a, 0xe6, 0x24, 0xf0, 0x45, 
0x00, 0x1f, 0xff, 0x1b, 0xfc, 0xf1, 0xde, 0xf3, 0x13, 0xd7, 0xea, 0x81, 0x13, 0x28, 0xef, 0x96, 0xf9, 0x0a, 
0x17, 0xf0, 0x1e, 0x08, 0x11, 0xd1, 0x19, 0xea, 0xf8, 0x03, 0xf8, 0xeb, 0x1a, 0xb1, 0xf7, 0x21, 0xfc, 0xe7, 
0xeb, 0x1d, 0x17, 0x11, 0x11, 0x25, 0x0f, 0x2a, 0xe7, 0x26, 0x02, 0x43, 0x00, 0x14, 0xf6, 0xe0, 0xe5, 0x0e, 
0xe7, 0x31, 0x07, 0xf0, 0x06, 0xde, 0xf4, 0x40, 0x11, 0x8a, 0xf8, 0x08, 0x1b, 0xee, 0x1f, 0x02, 0x1d, 0xc2, 
0x10, 0xdd, 0x1f, 0x11, 0xff, 0x07, 0x41, 0xd3, 0xf7, 0x29, 0x05, 0xe3, 0xfe, 0x82, 0x48, 0x02, 0x11, 0xf1, 
0x37, 0x59, 0x1c, 0x43, 0x04, 0xda, 0x00, 0x19, 0xc2, 0x8e, 0xf4, 0xd0, 0x3f, 0xed, 0x17, 0x27, 0x4e, 0x13, 
0x01, 0xec, 0x06, 0x25, 0x09, 0x17, 0x3b, 0x94, 0x22, 0xab, 0xfc, 0x59, 0xf7, 0x13, 0x2a, 0x07, 0x21, 0x7d, 
0x04, 0xea, 0x07, 0xf1, 0x82, 0x07, 0xeb, 0xda, 0x25, 0xb1, 0x02, 0xff, 0x2f, 0x03, 0x41, 0xf9, 0x07, 0xd3, 
0xff, 0x25, 0x81, 0xbf, 0x28, 0xf3, 0xdd, 0xa7, 0x11, 0x0f, 0x28, 0xc8, 0x1b, 0xd7, 0x03, 0x24, 0x07, 0xf6, 
0xbc, 0xf5, 0x3e, 0x9e, 0x1c, 0xb9, 0x02, 0x1a, 0x08, 0xc4, 0x0a, 0x1f, 0x09, 0xf5, 0x08, 0xde, 0x14, 0x29, 
0xf5, 0x06, 0x30, 0x1b, 0xfb, 0xaa, 0x37, 0xf5, 0x2b, 0xd9, 0x5b, 0xaa, 0x00, 0x28, 0x37, 0xf2, 0x03, 0x2b, 
0x0c, 0x17, 0x00, 0xcc, 0x36, 0xfa, 0xe9, 0xcc, 0x56, 0x09, 0x08, 0x23, 0x28, 0x1a, 0x34, 0x4d, 0x2d, 0xea, 
0xe8, 0x0d, 0x19, 0x91, 0xe3, 0xdd, 0x57, 0xec, 0x0a, 0x3e, 0x35, 0x57, 0xa6, 0x24, 0x4c, 0x7b, 0x16, 0xcf, 
0x82, 0x3e, 0xd2, 0xe1, 0x08, 0x76, 0x01, 0xfb, 0xdb, 0xd1, 0xb7, 0x81, 0x35, 0x23, 0x11, 0xe2, 0xd5, 0x11, 
0xe7, 0x09, 0xd8, 0x14, 0x03, 0x13, 0x3f, 0xa7, 0x09, 0x8e, 0x15, 0x4c, 0xf5, 0xd7, 0xe1, 0xff, 0x13, 0x62, 
0xdc, 0xb1, 0xc9, 0xe7, 0x16, 0x19, 0xb0, 0x10, 0x30, 0x20, 0x05, 0xc8, 0xa4, 0x30, 0xea, 0x42, 0x13, 0x56, 
0x01, 0x17, 0xbc, 0xd7, 0x04, 0xae, 0xd3, 0xad, 0x16, 0xb8, 0xd1, 0xc3, 0x1d, 0x59, 0xe1, 0xd3, 0x07, 0x0e, 
0xef, 0xd1, 0x42, 0xcc, 0x28, 0xaa, 0x12, 0xc3, 0xda, 0xdd, 0x1a, 0x0d, 0xe9, 0xb1, 0xd4, 0x24, 0x27, 0x08, 
0xba, 0x1f, 0x1d, 0x26, 0xf8, 0xc7, 0xec, 0xff, 0xdc, 0x5b, 0x4e, 0x1b, 0x00, 0x11, 0x29, 0xf7, 0x9e, 0xdd, 
0xec, 0x1f, 0x1a, 0xb1, 0x1a, 0xca, 0xe7, 0x2b, 0x2b, 0x82, 0x06, 0x43, 0x11, 0xeb, 0x24, 0x05, 0x2a, 0xdd, 
0xfc, 0xb2, 0x19, 0xd7, 0x09, 0x18, 0x33, 0x9b, 0xd3, 0x59, 0x18, 0x35, 0xf6, 0x30, 0xe3, 0x2e, 0x12, 0xa9, 
0x1e, 0xac, 0xff, 0x1f, 0xed, 0xbd, 0x01, 0xff, 0x10, 0xbe, 0x0b, 0xdd, 0xec, 0xc7, 0x13, 0xe9, 0xea, 0x97, 
0x42, 0xc8, 0xdd, 0x8c, 0xfe, 0x25, 0x47, 0x93, 0x13, 0x19, 0x0f, 0x00, 0xf2, 0x30, 0xd8, 0xde, 0x14, 0xc9, 
0xfb, 0xc8, 0xf2, 0x0f, 0xe6, 0x18, 0xec, 0x25, 0xcf, 0x44, 0xfd, 0xe8, 0x36, 0xe6, 0xe8, 0x29, 0xf0, 0xeb, 
0xff, 0x0f, 0xe6, 0xe5, 0xfd, 0x1e, 0xe7, 0xea, 0xfa, 0xd2, 0xe9, 0xde, 0x28, 0x81, 0xd9, 0xb0, 0xf7, 0x00, 
0x45, 0xc1, 0x09, 0x17, 0x13, 0x37, 0xe1, 0xed, 0xd8, 0x0a, 0x14, 0xe3, 0x01, 0xe1, 0xed, 0xe0, 0xf6, 0x22, 
0xed, 0xe4, 0xf8, 0xf9, 0x08, 0xf2, 0x7a, 0x12, 0xe8, 0xfa, 0xfd, 0xf8, 0x00, 0xfc, 0xc3, 0x0d, 0xed, 0xfa, 
0xfa, 0xe2, 0xfc, 0x00, 0x29, 0x28, 0xd5, 0xcc, 0xee, 0x82, 0xfa, 0xfa, 0x0a, 0x00, 0x1f, 0xe5, 0x09, 0xbb, 
0xe0, 0x09, 0x1f, 0x3a, 0xef, 0xc0, 0x11, 0xe6, 0xf0, 0xf3, 0x1b, 0x12, 0xd4, 0x44, 0x07, 0x2b, 0x1b, 0xec, 
0xe0, 0x17, 0x22, 0x08, 0xf5, 0x09, 0x01, 0x0b, 0x03, 0x81, 0xe5, 0xc1, 0xf4, 0xea, 0x21, 0x0f, 0xdb, 0x05, 
0x31, 0x05, 0xcf, 0xd7, 0x02, 0x1f, 0x4d, 0x87, 0x32, 0xf4, 0xf5, 0x28, 0xfd, 0x3a, 0xc0, 0x17, 0x17, 0x15, 
0xe7, 0xe2, 0xe2, 0x0d, 0xfe, 0xf3, 0xb8, 0x1a, 0xf2, 0x25, 0xfc, 0xf3, 0xfc, 0x20, 0x09, 0x2a, 0x01, 0xf8, 
0x00, 0x15, 0xe4, 0x9e, 0x0b, 0xe2, 0xed, 0xb3, 0x11, 0xf9, 0xd7, 0xfb, 0x26, 0x08, 0xda, 0xb4, 0xff, 0x13, 
0x23, 0x95, 0x48, 0x05, 0x2d, 0xdf, 0x07, 0x1d, 0xc0, 0x0e, 0x1c, 0xf4, 0xf3, 0xe6, 0xe1, 0xff, 0xfd, 0x0c, 
0xe2, 0xe8, 0xf1, 0x17, 0x00, 0xcc, 0x3c, 0xeb, 0x0d, 0x27, 0x2d, 0xe3, 0x00, 0x11, 0xe9, 0xdd, 0xfc, 0xcf, 
0x08, 0x07, 0x17, 0xfe, 0x1c, 0xda, 0xf7, 0xd9, 0x0e, 0x8d, 0x00, 0x2c, 0xf8, 0xb2, 0x1d, 0xfe, 0x24, 0xf4, 
0xea, 0x26, 0x0d, 0x2a, 0xfe, 0xdc, 0x23, 0xf0, 0xe3, 0x2c, 0xf5, 0xc9, 0xe4, 0xd9, 0x40, 0xfb, 0x0a, 0xc8, 
0x2c, 0xcf, 0xfb, 0xf5, 0x16, 0xd0, 0x01, 0x0b, 0xda, 0xd8, 0xed, 0xfb, 0x49, 0xf6, 0x09, 0xf5, 0x4d, 0x81, 
0x12, 0xef, 0x28, 0x0d, 0x06, 0x0b, 0x04, 0xd2, 0x1f, 0xe5, 0x27, 0x20, 0xf2, 0x24, 0x3e, 0x92, 0x03, 0x13, 
0x2a, 0xfc, 0x0a, 0xfc, 0xc3, 0xf2, 0xee, 0xf8, 0x1c, 0xed, 0x06, 0xea, 0x24, 0xa8, 0x18, 0x05, 0x0b, 0xf2, 
0x00, 0x10, 0xc0, 0xea, 0x0f, 0x15, 0xd6, 0xee, 0x14, 0xf4, 0x2e, 0x8a, 0x38, 0xd8, 0x18, 0x2d, 0x06, 0xf9, 
0xef, 0xec, 0x2a, 0xdd, 0x20, 0x01, 0xff, 0xfe, 0x24, 0xad, 0x03, 0x00, 0x23, 0x19, 0x0c, 0xec, 0xfe, 0x1e, 
0x20, 0x0c, 0x37, 0xfb, 0x02, 0xea, 0x0b, 0xfd, 0x15, 0xbc, 0x45, 0xe2, 0x00, 0x0b, 0xfb, 0x06, 0x1a, 0x3b, 
0x15, 0xe4, 0xfd, 0xf8, 0x14, 0x14, 0x03, 0x09, 0x51, 0x1c, 0x05, 0x0c, 0x28, 0x12, 0x15, 0x4a, 0x26, 0xb2, 
0xe9, 0x0f, 0x12, 0xd9, 0xfb, 0xd0, 0x58, 0x06, 0x0d, 0x13, 0xf5, 0xd8, 0xbd, 0x1b, 0x2c, 0x15, 0x0c, 0xd2, 
0x56, 0xf3, 0xff, 0x18, 0x17, 0xa5, 0x01, 0x0f, 0x19, 0x25, 0xf1, 0xe4, 0x5f, 0xf1, 0x2d, 0xfe, 0x7f, 0xbc, 
0xfc, 0xba, 0x0f, 0xcb, 0x01, 0x35, 0x1d, 0x08, 0x17, 0xb7, 0x2e, 0x22, 0x0c, 0x04, 0x42, 0xc4, 0x2e, 0x03, 
0xfa, 0x07, 0x01, 0x28, 0xfa, 0x47, 0x13, 0x10, 0xf8, 0xd8, 0x09, 0x13, 0x2d, 0xbe, 0x1e, 0xae, 0x1b, 0xeb, 
0x00, 0x1b, 0xfc, 0x4f, 0x14, 0x22, 0xf4, 0xbf, 0x1f, 0x2b, 0x42, 0x8f, 0x38, 0x89, 0x0f, 0x12, 0xff, 0x21, 
0x35, 0x50, 0xf1, 0xfd, 0xfc, 0xf4, 0xf8, 0x00, 0x0b, 0xce, 0x2c, 0x02, 0xfa, 0x21, 0x01, 0xf1, 0x62, 0x45, 
0x2c, 0x14, 0xbe, 0xfd, 0xfa, 0xec, 0x07, 0x02, 0xe7, 0x8f, 0x31, 0xef, 0x00, 0x13, 0x2c, 0x37, 0xef, 0x54, 
0xd8, 0x2d, 0x05, 0xfb, 0x26, 0x2f, 0xe2, 0xb7, 0x24, 0x0a, 0xfd, 0x1b, 0x6a, 0x78, 0xfd, 0x3c, 0xed, 0x03, 
0xf9, 0xf9, 0x13, 0x22, 0x00, 0xbc, 0x11, 0x24, 0x00, 0x0c, 0x08, 0xdf, 0xc2, 0x00, 0x09, 0xdb, 0x0c, 0xc5, 
0xff, 0xbd, 0xf5, 0x2a, 0x07, 0x94, 0x01, 0x15, 0xed, 0xb6, 0xe8, 0xd9, 0x16, 0x8d, 0x20, 0xf4, 0xef, 0xbe, 
0x3d, 0xbd, 0xfb, 0xa1, 0x04, 0x38, 0x2f, 0xab, 0x2d, 0xd7, 0x2c, 0xd9, 0x0a, 0x17, 0xce, 0x04, 0x2a, 0x0f, 
0x11, 0xe1, 0xf0, 0x1b, 0xf3, 0xef, 0xd0, 0x15, 0xce, 0x05, 0xfd, 0xeb, 0x2c, 0xce, 0x05, 0xfe, 0x13, 0xd1, 
0x00, 0x16, 0xdb, 0xef, 0x02, 0x12, 0x09, 0xeb, 0x12, 0xe9, 0x02, 0xc9, 0x27, 0x91, 0x01, 0xb5, 0x01, 0x0d, 
0x20, 0xe1, 0x1a, 0xdf, 0x39, 0x2a, 0xf2, 0x00, 0xdc, 0xf9, 0x26, 0xf9, 0x1d, 0xf6, 0xef, 0xe8, 0x22, 0xf7, 
0x0f, 0xea, 0x15, 0xd4, 0x06, 0xe2, 0x7f, 0xf2, 0x0e, 0xd9, 0x44, 0xce, 0x00, 0x0a, 0xe7, 0xef, 0x10, 0xfa, 
0x16, 0xe9, 0x01, 0xfd, 0x4d, 0x0b, 0xf0, 0xce, 0x39, 0x94, 0x02, 0x09, 0x08, 0x01, 0x16, 0xd6, 0x1c, 0xf8, 
0xd6, 0x1f, 0x28, 0x24, 0x00, 0xc1, 0x4a, 0x00, 0xf1, 0x03, 0x09, 0x11, 0xd7, 0x4d, 0x25, 0x3c, 0x0e, 0xee, 
0xf4, 0xc0, 0x03, 0x04, 0x00, 0x17, 0x01, 0x03, 0x06, 0x15, 0xf1, 0xe2, 0x27, 0x06, 0x16, 0xe5, 0x36, 0xc0, 
0x00, 0x14, 0x06, 0xdf, 0xfe, 0x05, 0x13, 0xe6, 0x08, 0xef, 0x13, 0x10, 0x03, 0xf7, 0x2f, 0xd6, 0xef, 0x05, 
0x0c, 0xc1, 0x01, 0xf5, 0x02, 0x21, 0xfa, 0x10, 0x04, 0x15, 0x0e, 0x05, 0xf2, 0xbf, 0xfb, 0x19, 0x06, 0x1b, 
0x00, 0x07, 0xf3, 0x1f, 0x03, 0xe6, 0xd9, 0xea, 0x11, 0x04, 0x19, 0x81, 0x1e, 0x17, 0x07, 0xf9, 0xfd, 0x05, 
0x0e, 0x03, 0x16, 0x01, 0x00, 0xe1, 0xf8, 0xfa, 0x14, 0xd5, 0xfe, 0x0a, 0x0e, 0xe5, 0x00, 0xfc, 0x24, 0x1a, 
0x1b, 0x0c, 0xcb, 0x0b, 0x00, 0x08, 0xde, 0xf5, 0xea, 0xfc, 0x14, 0x18, 0x00, 0x11, 0x11, 0x1a, 0x07, 0x17, 
0xeb, 0x33, 0xfd, 0x05, 0x0e, 0xab, 0xfb, 0xf9, 0x1b, 0xfb, 0xfd, 0x18, 0x31, 0x26, 0x0f, 0x29, 0x0e, 0xe5, 
0xee, 0xf3, 0x15, 0xf7, 0xf9, 0x0d, 0x24, 0xe9, 0x00, 0x18, 0xff, 0xbf, 0xd7, 0xd5, 0x29, 0xe2, 0x09, 0xc8, 
0x39, 0xd9, 0x18, 0xf3, 0x14, 0xc4, 0x01, 0x11, 0xcb, 0xcf, 0xd4, 0xf6, 0x36, 0xed, 0x08, 0xf1, 0x5b, 0x8a, 
0x00, 0xd3, 0x34, 0xf6, 0x03, 0x16, 0x01, 0xd1, 0x09, 0xff, 0x0c, 0x0e, 0xfa, 0x15, 0x6a, 0xa3, 0xfa, 0x1a, 
0x2b, 0xdd, 0x0f, 0xec, 0xd3, 0xfe, 0xf1, 0xe0, 0x14, 0xe8, 0x09, 0xf1, 0x18, 0xac, 0x1c, 0xef, 0x0f, 0xf9, 
0x00, 0x12, 0xc4, 0xef, 0xf4, 0x14, 0xda, 0xf3, 0x0e, 0xee, 0x26, 0x81, 0x36, 0xef, 0x2b, 0x2b, 0x03, 0xfc, 
0xe9, 0x09, 0x1a, 0xe0, 0xf8, 0x03, 0x0c, 0x0a, 0x23, 0x95, 0x10, 0x06, 0x28, 0xff, 0x12, 0xe0, 0xe3, 0x26, 
0x1c, 0x15, 0x32, 0xf2, 0x0a, 0xe6, 0x06, 0xd9, 0x01, 0xc3, 0x51, 0xe8, 0x00, 0x13, 0xe5, 0x1a, 0x0a, 0x59, 
0x30, 0xf3, 0x0b, 0xe8, 0x15, 0x17, 0x04, 0xe3, 0x68, 0x18, 0x03, 0x0e, 0x06, 0x37, 0x27, 0x4b, 0x1a, 0xac, 
0xfa, 0xfe, 0x1a, 0xdd, 0xff, 0xde, 0x64, 0x00, 0x13, 0x0b, 0x0b, 0xbf, 0xd3, 0x2f, 0x18, 0x13, 0x08, 0xbe, 
0x65, 0xd5, 0xf5, 0xfb, 0x1c, 0xb4, 0x01, 0x08, 0xf6, 0xfd, 0x10, 0xdc, 0x3a, 0xd6, 0x1d, 0xfc, 0x56, 0xba, 
0x25, 0xb3, 0x18, 0xba, 0x0b, 0x1d, 0x0e, 0xf6, 0x1c, 0xed, 0x2e, 0x0a, 0x00, 0xfd, 0x33, 0xe0, 0x19, 0xcb, 
0xfa, 0x12, 0xfc, 0x15, 0xfb, 0x0d, 0x19, 0x0d, 0xe7, 0xf0, 0xf9, 0xf3, 0x47, 0xc6, 0x0c, 0xcd, 0x24, 0xe5, 
0x00, 0x11, 0xee, 0x29, 0x0f, 0x16, 0x09, 0xd7, 0x15, 0x01, 0x21, 0xc5, 0x39, 0xa2, 0x1d, 0xec, 0x0b, 0x0c, 
0x1f, 0x42, 0xed, 0x10, 0x1a, 0x12, 0xee, 0xe7, 0xfb, 0xf5, 0x3a, 0xc2, 0x01, 0x25, 0xfe, 0xea, 0x2c, 0x2f, 
0x34, 0x00, 0xd3, 0xf9, 0xf5, 0xdf, 0x42, 0x10, 0xf1, 0x99, 0x32, 0xd7, 0x00, 0x07, 0xf2, 0x20, 0xfa, 0x45, 
0xf1, 0x06, 0x05, 0xfc, 0x22, 0x33, 0xec, 0x91, 0x29, 0xda, 0x0a, 0x09, 0x39, 0x45, 0xe5, 0x4a, 0xf2, 0xfb, 
0xe9, 0xeb, 0x0f, 0x11, 0x0c, 0x81, 0x12, 0x2a, 0xfe, 0x03, 0x00, 0x9b, 0xf4, 0x39, 0x1e, 0x01, 0x0f, 0xb8, 
0x6a, 0xda, 0xfa, 0xfb, 0x13, 0xb5, 0x03, 0x10, 0x03, 0xed, 0x3e, 0xb0, 0x33, 0xcd, 0x27, 0x0e, 0x4c, 0xc6, 
0x40, 0xc1, 0x00, 0xc9, 0x06, 0x31, 0x12, 0xf4, 0x33, 0xfe, 0x2b, 0x44, 0x05, 0x22, 0x23, 0xd2, 0x24, 0xa3, 
0xe6, 0x47, 0xfe, 0x26, 0x28, 0x08, 0x32, 0xfe, 0xbe, 0xed, 0xfb, 0xff, 0x4b, 0xc9, 0x16, 0xb6, 0x1d, 0xec, 
0x01, 0x0e, 0xf1, 0x37, 0x38, 0xfd, 0x13, 0xc6, 0x14, 0x05, 0x18, 0x0a, 0x5c, 0x88, 0x04, 0x04, 0x04, 0x0c, 
0x2b, 0x3c, 0xd9, 0x0d, 0x15, 0x24, 0xe7, 0xec, 0xf9, 0xf4, 0x5e, 0xc8, 0xf1, 0x5a, 0xff, 0xec, 0x5c, 0x21, 
0x62, 0xea, 0x9d, 0xe8, 0xf6, 0xe7, 0x3f, 0xf2, 0xff, 0x85, 0x43, 0xde, 0xff, 0x09, 0xd2, 0x0e, 0x12, 0x2c, 
0x03, 0x0d, 0xfd, 0x27, 0x1a, 0x28, 0xde, 0x81, 0x24, 0xe0, 0x01, 0x14, 0x38, 0x43, 0xeb, 0x40, 0xf8, 0x18, 
0xd5, 0x08, 0x0b, 0x0a, 0xfd, 0xb7, 0x11, 0x55, 0xfe, 0x10, 0x33, 0x0d, 0xa2, 0x5b, 0x07, 0x48, 0x13, 0xa4, 
0x45, 0xc9, 0x04, 0x2f, 0x02, 0xb9, 0x01, 0xff, 0x27, 0xec, 0xfa, 0xd2, 0x22, 0xf2, 0x1c, 0xce, 0x3c, 0x95, 
0x26, 0xbf, 0xff, 0x81, 0x05, 0x1c, 0x27, 0xfe, 0x13, 0x07, 0x13, 0xf9, 0xf9, 0xef, 0x38, 0xbe, 0x0a, 0xd2, 
0xff, 0xb8, 0xf5, 0x10, 0x05, 0x36, 0x07, 0x26, 0xe8, 0x25, 0x08, 0xef, 0x37, 0xee, 0xf9, 0x18, 0x0c, 0xdd, 
0x00, 0x09, 0xe3, 0x1b, 0x1e, 0x01, 0xe8, 0xe8, 0x0e, 0xfd, 0x0d, 0xa3, 0x3a, 0x8a, 0x07, 0xbb, 0x02, 0x0d, 
0x1a, 0x3a, 0x04, 0x42, 0x07, 0xf4, 0xd2, 0xf1, 0x01, 0xbe, 0x0d, 0xb0, 0x0d, 0xed, 0xf4, 0xf1, 0x2a, 0x3c, 
0x3d, 0xfa, 0xb6, 0x04, 0x0a, 0xfd, 0x21, 0x13, 0xd7, 0xd2, 0x08, 0xe8, 0x00, 0x0d, 0x0d, 0x37, 0xf7, 0x1d, 
0xde, 0x2c, 0xf6, 0x04, 0xf9, 0x3d, 0xef, 0x95, 0x0d, 0xb3, 0x02, 0x0f, 0x50, 0x57, 0x01, 0x3c, 0xe9, 0xd1, 
0xd5, 0xf1, 0x0c, 0xff, 0x02, 0xae, 0x14, 0x08, 0xf5, 0x02, 0x12, 0x07, 0xf3, 0x0b, 0x14, 0x2f, 0x05, 0xd5, 
0xd4, 0x22, 0xe7, 0xdb, 0xf8, 0x12, 0x00, 0xeb, 0xea, 0x84, 0x09, 0xcc, 0x06, 0xf3, 0x10, 0x06, 0xad, 0x11, 
0x26, 0x26, 0xd1, 0xea, 0xfe, 0x15, 0x33, 0xaf, 0x28, 0xfc, 0xf6, 0x47, 0xfc, 0x25, 0x9d, 0x1a, 0xfd, 0x0b, 
0xe0, 0x06, 0xdf, 0x06, 0x0d, 0xf1, 0xc7, 0xfb, 0x01, 0x35, 0xec, 0xd4, 0x0e, 0x20, 0xf3, 0x22, 0x05, 0xfd, 
0x01, 0x01, 0xec, 0xbb, 0x03, 0xfd, 0x26, 0xb8, 0x01, 0xd8, 0xd2, 0x15, 0x1d, 0x0e, 0xdd, 0xc9, 0xfe, 0x12, 
0x15, 0xc5, 0x33, 0xfe, 0x3f, 0xe5, 0x0d, 0xf6, 0xbb, 0x23, 0x18, 0xe7, 0xf0, 0x0a, 0xe6, 0x1d, 0xf7, 0x02, 
0xca, 0xf8, 0x02, 0x0f, 0xee, 0xb8, 0x3f, 0xf7, 0xf8, 0x2e, 0x29, 0xd0, 0x00, 0xf9, 0xde, 0xda, 0xce, 0xfd, 
0x27, 0xe3, 0x06, 0xe9, 0xfd, 0xec, 0xf0, 0xdd, 0x07, 0x81, 0xfe, 0x2d, 0xf9, 0xcf, 0x09, 0xf5, 0x2f, 0xd7, 
0xf7, 0x03, 0xd4, 0x14, 0xf9, 0xd6, 0x18, 0xfe, 0xe7, 0x34, 0x28, 0x0b, 0xc7, 0x10, 0x0a, 0x2a, 0x0c, 0xdb, 
0xcf, 0x11, 0x0c, 0x18, 0xf9, 0x10, 0x01, 0x06, 0x0e, 0x81, 0xdb, 0xc2, 0xf5, 0xf5, 0x14, 0xfd, 0xd6, 0x06, 
0x30, 0xfc, 0xd7, 0xed, 0x01, 0x19, 0x54, 0x92, 0x18, 0xca, 0xf7, 0x39, 0xf7, 0x2a, 0xbf, 0x22, 0x10, 0x1a, 
0xe9, 0xf5, 0xe3, 0xfb, 0x0f, 0xf3, 0xb7, 0xe9, 0xeb, 0x0b, 0xf5, 0xef, 0xf6, 0x2c, 0x0e, 0x3c, 0x02, 0xf3, 
0x00, 0x18, 0xeb, 0xa6, 0xf2, 0xdd, 0xef, 0xba, 0x09, 0xf1, 0xe9, 0x02, 0x11, 0xec, 0xe0, 0xc8, 0xfe, 0x0e, 
0x1f, 0x99, 0x31, 0xd5, 0x31, 0xea, 0x01, 0x0c, 0xd2, 0x1c, 0x13, 0xee, 0xf4, 0xf3, 0xe4, 0xf7, 0xde, 0x09, 
0xd7, 0xe0, 0x05, 0xf3, 0xfe, 0xcb, 0x3b, 0xf0, 0x1b, 0x28, 0x2f, 0xd5, 0x00, 0x17, 0xe0, 0xe6, 0xf3, 0xea, 
0x0d, 0xf9, 0x13, 0xf7, 0x28, 0xc9, 0xeb, 0xd3, 0x13, 0xa1, 0xff, 0x25, 0xfa, 0xcb, 0x16, 0x05, 0x23, 0xe9, 
0xf0, 0x12, 0x13, 0x13, 0xf6, 0xf0, 0x22, 0xee, 0xe5, 0x2b, 0xbc, 0x08, 0x24, 0xdc, 0x03, 0xae, 0x03, 0x1c, 
0xc4, 0xfe, 0xfc, 0x05, 0xeb, 0x28, 0xf8, 0xf7, 0xc3, 0x41, 0x15, 0x3f, 0x16, 0xf6, 0xbd, 0x04, 0xbf, 0xed, 
0x00, 0xdf, 0xf6, 0x2f, 0xee, 0xe2, 0xea, 0x13, 0x0b, 0x19, 0x30, 0x07, 0xff, 0xf9, 0xc3, 0xf9, 0x47, 0xec, 
0xd6, 0x1c, 0xf2, 0x02, 0xb2, 0xe7, 0x1c, 0xc6, 0x10, 0xee, 0x14, 0xe9, 0xd1, 0xd6, 0x09, 0x00, 0xe3, 0x00, 
0x00, 0x19, 0xc5, 0xfa, 0xfd, 0x3a, 0x38, 0x4f, 0xe3, 0xd7, 0xda, 0x0a, 0xe3, 0xf5, 0xfe, 0xfb, 0xf6, 0xe2, 
0xb7, 0x1e, 0xe7, 0x3a, 0xf0, 0x19, 0x08, 0x04, 0xd9, 0x19, 0x07, 0x19, 0xe4, 0xf6, 0xff, 0xec, 0xc7, 0x19, 
0xfe, 0xf5, 0x7f, 0xdb, 0x30, 0x1c, 0xf7, 0xc4, 0x55, 0x1c, 0xc4, 0xf5, 0x0d, 0xdf, 0xa6, 0xe4, 0xd6, 0xe3, 
0x0e, 0xec, 0xfc, 0xee, 0x08, 0xd6, 0x0e, 0x1d, 0xd8, 0x3f, 0xf7, 0xbe, 0xd9, 0xef, 0xf5, 0xc6, 0xc7, 0x1b, 
0x0f, 0x0b, 0xe5, 0x94, 0xeb, 0x2b, 0xd6, 0x2d, 0xfe, 0xd6, 0x0c, 0x1d, 0xc7, 0x7f, 0x3d, 0x5c, 0x11, 0x07, 
0xfa, 0x28, 0x02, 0xe9, 0x01, 0x61, 0x03, 0xec, 0xf6, 0x10, 0xef, 0xc2, 0x3f, 0x26, 0x0c, 0xdc, 0x04, 0xe4, 
0x04, 0x45, 0xf1, 0xf2, 0x04, 0xeb, 0xf8, 0xef, 0x11, 0xd0, 0xfa, 0x4e, 0x0a, 0xdc, 0x27, 0xef, 0xf6, 0x09, 
0xf6, 0xd6, 0xf3, 0x00, 0x12, 0x0d, 0xf5, 0x13, 0x1d, 0x12, 0x0e, 0xe9, 0xd8, 0x22, 0xfb, 0x0b, 0x02, 0x39, 
0x02, 0x0a, 0xea, 0x22, 0x16, 0xbf, 0xeb, 0xab, 0x07, 0xe3, 0xc7, 0x96, 0x2b, 0x4f, 0xf4, 0xdc, 0x03, 0x02, 
0xf4, 0x2d, 0x2b, 0x0b, 0x09, 0xaf, 0x01, 0xd1, 0xe1, 0xda, 0x1b, 0xe3, 0x04, 0xe8, 0xf5, 0x1f, 0x3a, 0x16, 
0xfe, 0x2d, 0xf3, 0x1d, 0xfc, 0xf9, 0xdb, 0x11, 0xeb, 0x02, 0x1d, 0x28, 0x00, 0x0e, 0x09, 0x06, 0xd0, 0x06, 
0xea, 0x41, 0xeb, 0xfb, 0xcf, 0xe6, 0xf8, 0xf0, 0x19, 0xc3, 0x00, 0x18, 0x48, 0x3b, 0xf5, 0x1d, 0x14, 0x12, 
0xf5, 0xd9, 0xe8, 0xf0, 0xfe, 0xe2, 0x28, 0xee, 0xf3, 0x2c, 0x07, 0xd1, 0xdc, 0xc4, 0x3c, 0x17, 0x0d, 0xdb, 
0x41, 0xf4, 0x1c, 0x0a, 0x1c, 0xbc, 0x01, 0x18, 0xce, 0xeb, 0xeb, 0xf0, 0x46, 0x0c, 0x24, 0x00, 0x77, 0xc4, 
0x03, 0xaf, 0x39, 0xfd, 0x09, 0x0e, 0xec, 0xc0, 0xfb, 0xd9, 0x1a, 0x02, 0xfa, 0x26, 0x7f, 0xb1, 0x0f, 0x0d, 
0x2c, 0xd1, 0x12, 0xf2, 0xc2, 0x1b, 0xf2, 0xd6, 0x2b, 0xec, 0x02, 0xf8, 0x18, 0xce, 0x2e, 0xee, 0x19, 0xfe, 
0x00, 0x28, 0xcc, 0xfd, 0xee, 0x14, 0xd9, 0xea, 0x1a, 0xfe, 0x33, 0xa5, 0x2b, 0xc7, 0x34, 0x36, 0x09, 0x10, 
0xef, 0xf7, 0x14, 0xde, 0x06, 0xeb, 0xfe, 0x02, 0x35, 0x8f, 0x0b, 0x0e, 0x2d, 0xf5, 0x13, 0xf8, 0xf0, 0x43, 
0x20, 0x04, 0x30, 0x1b, 0xf4, 0xdb, 0xfb, 0xdd, 0x13, 0xc8, 0x55, 0xf9, 0x00, 0x1c, 0xe2, 0x2b, 0xf6, 0x75, 
0x01, 0x15, 0x02, 0xd6, 0x1c, 0x19, 0x02, 0xca, 0x72, 0x2b, 0x08, 0x17, 0x01, 0x3f, 0x1f, 0x5f, 0x08, 0xae, 
0xe4, 0xfa, 0x35, 0xcc, 0x03, 0xc2, 0x6c, 0xe5, 0x14, 0x19, 0x01, 0xdf, 0xbb, 0xe9, 0x1c, 0x3b, 0x07, 0xf0, 
0x11, 0x53, 0x05, 0x32, 0x15, 0xe4, 0x03, 0x11, 0xdb, 0xea, 0xed, 0xcc, 0x39, 0x02, 0x27, 0x08, 0x26, 0x2a, 
0x02, 0xf0, 0x07, 0x19, 0x10, 0x13, 0x1d, 0x04, 0x1f, 0xd8, 0xff, 0x42, 0x0b, 0xf3, 0x13, 0x05, 0x06, 0x4c, 
0xef, 0x0f, 0xf5, 0x0c, 0xc3, 0x19, 0xf6, 0xe5, 0x0e, 0xc0, 0x05, 0x10, 0xee, 0x0f, 0x21, 0xf8, 0x16, 0xdc, 
0x01, 0x0b, 0xa7, 0x18, 0x17, 0xdd, 0xfb, 0x81, 0x0d, 0x13, 0xf1, 0xf2, 0x2e, 0x01, 0x06, 0x17, 0x0f, 0x0a, 
0xcd, 0x46, 0x10, 0xf4, 0x1c, 0x95, 0x00, 0x01, 0xdb, 0xc2, 0x2d, 0xfc, 0xf5, 0x07, 0xf7, 0x00, 0x64, 0x10, 
0xef, 0xf2, 0xeb, 0xfc, 0xf2, 0xb3, 0xf3, 0xe0, 0xef, 0xe3, 0x43, 0xb3, 0x00, 0x1c, 0x45, 0xfe, 0xd1, 0xf7, 
0xfd, 0x3d, 0xed, 0xdf, 0xf6, 0x09, 0xe5, 0xc8, 0x33, 0xe7, 0x0e, 0x27, 0x10, 0x4b, 0x07, 0x34, 0x1e, 0x46, 
0xfc, 0xea, 0xfb, 0xd1, 0xf8, 0xe1, 0x20, 0x06, 0xf7, 0x2e, 0x2f, 0x22, 0xc3, 0x65, 0x16, 0x41, 0x16, 0xd2, 
0x2b, 0xd1, 0x0e, 0x1d, 0xff, 0xed, 0x01, 0xfe, 0x1e, 0x08, 0xf9, 0xee, 0x1b, 0x00, 0x0a, 0xce, 0x22, 0xa7, 
0x10, 0x02, 0xff, 0xa1, 0x02, 0xfe, 0x13, 0xe6, 0x0b, 0x04, 0x0a, 0xf6, 0xf8, 0xe5, 0x1f, 0xc9, 0xff, 0xf3, 
0x02, 0xb4, 0xfb, 0x06, 0x19, 0x3c, 0x01, 0x2a, 0x00, 0x31, 0x0f, 0x04, 0x21, 0xe5, 0x00, 0x27, 0x03, 0x01, 
0x00, 0x08, 0xea, 0x24, 0x16, 0x06, 0xea, 0xf1, 0x01, 0x02, 0x02, 0x81, 0x25, 0xeb, 0x01, 0xc9, 0x00, 0xfe, 
0x0e, 0x1a, 0x0e, 0x2d, 0xfb, 0xe1, 0xe7, 0xeb, 0xff, 0xe4, 0x02, 0xf5, 0x06, 0xe0, 0xf9, 0xfc, 0x26, 0x41, 
0x29, 0x06, 0xc2, 0x0c, 0x09, 0x0f, 0x1e, 0x0e, 0xe8, 0x04, 0xf9, 0x0e, 0x00, 0x0a, 0x0b, 0x2e, 0x02, 0x1f, 
0xd3, 0x24, 0xf7, 0xff, 0x01, 0xf3, 0xed, 0xdf, 0xfe, 0xcf, 0x00, 0x04, 0x3a, 0x39, 0xf1, 0x35, 0xf1, 0xdc, 
0xe7, 0xe7, 0x0b, 0x04, 0xfd, 0xdf, 0x04, 0xee, 0xfa, 0x02, 0x00, 0xfc, 0xcb, 0x81, 0x3a, 0xfe, 0x17, 0xf1, 
0xda, 0x47, 0x09, 0x4a, 0x0b, 0xc9, 0x01, 0x27, 0xd3, 0xad, 0xdc, 0xe2, 0x1c, 0xd2, 0x1a, 0x13, 0xeb, 0x07, 
0xfd, 0xe5, 0xff, 0xfc, 0x07, 0x1f, 0x51, 0xa2, 0x17, 0xbe, 0x25, 0x2a, 0x00, 0x09, 0xd2, 0x05, 0x2e, 0x66, 
0x14, 0xc9, 0xec, 0xf5, 0x9a, 0xfe, 0xd0, 0xbf, 0x15, 0xde, 0x01, 0x08, 0x02, 0x05, 0x33, 0x23, 0x15, 0xcc, 
0xff, 0x2d, 0x98, 0xd1, 0x12, 0xf9, 0xd8, 0xd6, 0x10, 0xf7, 0x00, 0xbf, 0x11, 0xd3, 0x08, 0xea, 0x04, 0xfc, 
0xc7, 0xd4, 0x34, 0x9b, 0x38, 0xd6, 0x02, 0x0a, 0xec, 0xb8, 0x15, 0xf6, 0x20, 0xd3, 0xec, 0xe4, 0x37, 0xf0, 
0xe4, 0xd2, 0x2c, 0xed, 0x08, 0xbb, 0x3d, 0xef, 0x1c, 0xee, 0x57, 0xbb, 0x00, 0x23, 0x31, 0xd5, 0xf5, 0xf4, 
0x09, 0x10, 0x0d, 0xc8, 0x47, 0xfa, 0xe8, 0xdb, 0x51, 0xde, 0x05, 0x1b, 0x24, 0xdc, 0x39, 0xfb, 0x2f, 0xe1, 
0xf0, 0x08, 0x3c, 0xb1, 0xe1, 0x08, 0x5e, 0xca, 0xef, 0x24, 0x03, 0xa1, 0xea, 0x16, 0x24, 0x12, 0x0a, 0xc2, 
0x7c, 0xcb, 0x09, 0xe5, 0x1d, 0xaf, 0x01, 0x0f, 0x02, 0xd8, 0x2b, 0x9d, 0x39, 0xe2, 0x27, 0x15, 0x5e, 0x13, 
0x31, 0xa1, 0xfd, 0xde, 0x04, 0x2c, 0x3b, 0xeb, 0x39, 0xef, 0x2b, 0x5c, 0x07, 0x2b, 0x2e, 0x03, 0x08, 0xce, 
0xe3, 0x6c, 0xef, 0x1a, 0xeb, 0x18, 0x0e, 0xf8, 0xc4, 0xe7, 0xf2, 0x04, 0x5a, 0xb7, 0x2f, 0xb8, 0x1c, 0xee, 
0x01, 0x09, 0xdb, 0x1b, 0x2e, 0xe6, 0x05, 0xb3, 0x15, 0x10, 0x2c, 0x0b, 0x5b, 0x8b, 0xfa, 0x12, 0x04, 0x0d, 
0x18, 0x3c, 0xf3, 0xfa, 0x23, 0x0f, 0xf6, 0x00, 0x01, 0x07, 0x4a, 0xf8, 0xe3, 0x72, 0xf2, 0xf3, 0x49, 0x31, 
0x40, 0xee, 0x9c, 0xe3, 0xf1, 0xc5, 0x47, 0xe7, 0x12, 0x9f, 0x40, 0xc7, 0x00, 0x01, 0xdb, 0x03, 0x03, 0x29, 
0xfd, 0xf5, 0xfe, 0x0e, 0x29, 0x1c, 0xdc, 0x81, 0x1c, 0xdc, 0x02, 0x1c, 0x33, 0x3d, 0xf0, 0x54, 0xff, 0x14, 
0xe1, 0x1b, 0x1e, 0x0f, 0xfc, 0xcc, 0x06, 0x57, 0xf1, 0x1e, 0x54, 0x0e, 0xd2, 0x45, 0x11, 0x7f, 0x0a, 0xfd, 
0x1f, 0x34, 0x0c, 0x00, 0xfa, 0xf3, 0x00, 0x05, 0x28, 0xd2, 0xe4, 0xf4, 0x09, 0x40, 0x24, 0x0a, 0x33, 0x2d, 
0x03, 0x24, 0xdd, 0xf0, 0x07, 0x17, 0x2a, 0xe6, 0x08, 0x02, 0xda, 0x1d, 0xfc, 0x08, 0x22, 0x22, 0xfa, 0x3f, 
0xdd, 0xec, 0xe7, 0x10, 0x15, 0x15, 0xf1, 0x1f, 0xfb, 0x29, 0xfb, 0x27, 0x25, 0x21, 0xea, 0x22, 0x07, 0x07, 
0x00, 0xfc, 0xed, 0xf5, 0x16, 0xe4, 0xf4, 0xa2, 0x12, 0x25, 0x1b, 0xe5, 0x13, 0x48, 0xe7, 0x02, 0x05, 0x19, 
0xf7, 0xfa, 0x35, 0x03, 0x2d, 0xa3, 0xfd, 0xff, 0x12, 0x0b, 0xfd, 0x1e, 0xe4, 0x0e, 0xe6, 0x13, 0x24, 0x26, 
0x19, 0xf9, 0xbb, 0x32, 0xf8, 0xfe, 0x26, 0xc8, 0xeb, 0x2c, 0x1d, 0x0b, 0x00, 0x19, 0x35, 0x28, 0x17, 0x13, 
0xfa, 0x34, 0x05, 0xfe, 0x24, 0xd4, 0xf6, 0xfc, 0xfe, 0xed, 0x06, 0x36, 0x0d, 0x32, 0x15, 0x3c, 0x23, 0x02, 
0xf3, 0xf3, 0x2c, 0x08, 0x02, 0xc8, 0xfb, 0xfb, 0xe8, 0x2f, 0x0b, 0xd3, 0xf1, 0xf2, 0x1f, 0xd7, 0x07, 0xcf, 
0xe2, 0xd1, 0x1a, 0x16, 0x07, 0xa4, 0x00, 0x25, 0xf2, 0xe0, 0x07, 0x21, 0x27, 0xbe, 0x17, 0xe5, 0xf0, 0x81, 
0x21, 0x00, 0x14, 0xc2, 0x0a, 0x1e, 0x25, 0xbe, 0x35, 0xfa, 0x30, 0xeb, 0xfb, 0x12, 0xcf, 0xa3, 0x2c, 0x22, 
0x32, 0xc0, 0xff, 0xfd, 0xdb, 0xe0, 0x03, 0xe8, 0xf6, 0x01, 0x0b, 0x06, 0x23, 0xca, 0x1f, 0x23, 0x05, 0xd8, 
0xff, 0x24, 0xd1, 0xee, 0x28, 0x1c, 0xc9, 0x0a, 0x15, 0x13, 0x19, 0x94, 0x35, 0xb1, 0x09, 0xe0, 0x07, 0xfd, 
0x00, 0xfe, 0x34, 0xed, 0xf8, 0x11, 0xfe, 0x11, 0xfd, 0xab, 0x22, 0x0e, 0x2d, 0xee, 0xfe, 0xe1, 0x03, 0xf4, 
0x2d, 0xec, 0x3a, 0xd5, 0x16, 0xf2, 0x3e, 0xf5, 0x10, 0xb3, 0x4e, 0xcb, 0x00, 0x05, 0xf3, 0xe7, 0x24, 0x0b, 
0x22, 0xf4, 0x02, 0xf6, 0x33, 0x1a, 0x0f, 0xf4, 0x56, 0xd5, 0x09, 0xf3, 0x0f, 0x04, 0x2a, 0xfc, 0x31, 0xc6, 
0xe5, 0x1a, 0x2b, 0xdb, 0xfc, 0xdc, 0x74, 0xfe, 0x01, 0xf7, 0x04, 0xe5, 0x08, 0xd5, 0x16, 0x05, 0xe9, 0xc5, 
0xea, 0x28, 0xea, 0x11, 0x03, 0xe4, 0x00, 0xde, 0xd5, 0x81, 0xfb, 0xd9, 0x1b, 0xda, 0x17, 0x1d, 0xd8, 0x1c, 
0x0a, 0xf7, 0xd1, 0x04, 0x00, 0x1d, 0x2d, 0xcb, 0x17, 0x10, 0x1d, 0x57, 0x0a, 0x36, 0xac, 0x1b, 0x17, 0x20, 
0xe5, 0x35, 0xd7, 0x0d, 0x07, 0x06, 0xed, 0x01, 0x0b, 0xfb, 0xd4, 0xdd, 0x0b, 0x00, 0x04, 0x04, 0x16, 0xd1, 
0x00, 0xec, 0xd4, 0xd5, 0x03, 0x10, 0x42, 0xa2, 0x0c, 0xea, 0xda, 0x21, 0x1a, 0xfc, 0xe4, 0xd8, 0x00, 0x19, 
0x00, 0xe0, 0x16, 0xfe, 0x42, 0xf8, 0x0d, 0x05, 0xa9, 0x16, 0x32, 0xef, 0xfb, 0x24, 0xdd, 0x0d, 0x23, 0x0d, 
0xe0, 0x03, 0x06, 0xde, 0xd7, 0xb0, 0x44, 0xe7, 0xfb, 0xee, 0x39, 0xae, 0x00, 0xec, 0xe3, 0xe9, 0xc5, 0x06, 
0x49, 0xc9, 0xfa, 0xf5, 0x0d, 0x17, 0xdc, 0xd5, 0x07, 0x8c, 0x00, 0x31, 0xfc, 0xe2, 0x18, 0xf7, 0x2e, 0x03, 
0xf0, 0x16, 0xce, 0x17, 0xe8, 0xd7, 0x14, 0x1c, 0xdd, 0x37, 0xfa, 0xbd, 0xf8, 0xdd, 0x1b, 0xd6, 0x05, 0xa5, 
0x27, 0x09, 0x09, 0x0e, 0x11, 0xc4, 0xfe, 0xf5, 0xe3, 0x81, 0x0b, 0xb0, 0x1f, 0xb7, 0x1b, 0x12, 0x0a, 0x15, 
0x26, 0xb8, 0xe6, 0xfe, 0x02, 0x0e, 0x34, 0xba, 0x20, 0x0c, 0x2f, 0x49, 0x03, 0x47, 0xdf, 0x0b, 0x39, 0xf3, 
0xd6, 0x6a, 0xdb, 0x09, 0xff, 0x04, 0xe8, 0xfd, 0xf7, 0xdd, 0xed, 0xc9, 0x24, 0xca, 0x25, 0x00, 0x24, 0xd6, 
0x00, 0x02, 0xe8, 0xc8, 0x13, 0xf7, 0x36, 0xa6, 0x0c, 0xe0, 0xf4, 0x1f, 0x2d, 0xdb, 0xf5, 0xee, 0x05, 0x02, 
0x0b, 0x04, 0x09, 0x06, 0x48, 0x04, 0xfb, 0x01, 0xcb, 0x11, 0x47, 0xe8, 0xe3, 0x5a, 0xe2, 0xfa, 0x1e, 0x1f, 
0xff, 0xe0, 0xfb, 0xbe, 0xef, 0xbc, 0x3e, 0xee, 0x1b, 0x03, 0x51, 0xad, 0x00, 0xfb, 0xd7, 0xef, 0xed, 0x14, 
0x3c, 0xc4, 0x06, 0x01, 0x08, 0x1a, 0xdf, 0xd4, 0x1b, 0x9a, 0x05, 0x15, 0x0a, 0x20, 0x18, 0x36, 0x36, 0xe7, 
0xef, 0x12, 0xef, 0x05, 0xfa, 0xec, 0xfd, 0x58, 0xe3, 0x32, 0x20, 0x12, 0xbd, 0x23, 0x24, 0x49, 0xff, 0xd8, 
0xa8, 0x1b, 0xf0, 0xdd, 0xfb, 0x3e, 0xff, 0xe2, 0xdd, 0x81, 0xe1, 0x95, 0x0e, 0x05, 0x17, 0x0a, 0xaf, 0x13, 
0x0c, 0x15, 0xc0, 0x0c, 0xf8, 0x0f, 0x32, 0xa6, 0x1a, 0xd9, 0x05, 0x5e, 0xf9, 0x28, 0xa3, 0x32, 0x08, 0x15, 
0xd0, 0xfe, 0xca, 0xf3, 0x2d, 0xf3, 0xaa, 0x06, 0x0c, 0x34, 0xf1, 0xc2, 0xff, 0x35, 0xf9, 0x3d, 0x0f, 0x1e, 
0x00, 0xfc, 0xec, 0xbd, 0xee, 0xc6, 0x15, 0xb0, 0x0c, 0xcd, 0xe1, 0x0f, 0x2a, 0x30, 0xcd, 0xda, 0xfb, 0x1e, 
0x15, 0xb0, 0x1e, 0xcf, 0x3a, 0xe8, 0x18, 0xf3, 0xd0, 0x36, 0x2a, 0x00, 0xe0, 0xfb, 0xd3, 0x26, 0xef, 0x09, 
0xc7, 0x0c, 0xf4, 0x1d, 0xea, 0xac, 0x21, 0x01, 0xf0, 0x54, 0x34, 0xe8, 0x00, 0x08, 0xd9, 0xf8, 0xa9, 0xee, 
0x19, 0x04, 0x0d, 0xf1, 0x05, 0xc0, 0xfb, 0xd4, 0xfb, 0x86, 0xfc, 0x54, 0xec, 0xea, 0x14, 0xf9, 0x29, 0xe5, 
0xfe, 0x07, 0xee, 0x2b, 0x0e, 0x0c, 0x0b, 0xdd, 0xd5, 0x55, 0x0e, 0xa8, 0xd9, 0xfa, 0xfd, 0xd0, 0x0b, 0xb9, 
0x24, 0xd1, 0x09, 0x05, 0x09, 0xbe, 0x01, 0x0a, 0xff, 0xba, 0x05, 0xc3, 0x0f, 0xba, 0x1a, 0x0b, 0x0d, 0xd0, 
0x2b, 0xdc, 0x01, 0xda, 0x06, 0x19, 0x15, 0xde, 0x21, 0x0b, 0x2c, 0x18, 0xfb, 0x29, 0xf5, 0xf6, 0x29, 0x98, 
0x07, 0x1b, 0xfb, 0x09, 0x23, 0xdb, 0xe2, 0x0c, 0xd6, 0x01, 0xf7, 0xed, 0x2d, 0xe5, 0x0a, 0xe1, 0x13, 0xde, 
0x00, 0x02, 0xf6, 0xed, 0x0a, 0x01, 0x24, 0xeb, 0x0d, 0xfd, 0x03, 0xf9, 0x33, 0xa6, 0x04, 0xe1, 0x02, 0x02, 
0x10, 0x18, 0xf4, 0x07, 0x32, 0x42, 0xf1, 0x01, 0xe1, 0x10, 0x2f, 0xcb, 0x0e, 0x2d, 0xfb, 0xea, 0x14, 0xf0, 
0x1f, 0xfc, 0xf6, 0xda, 0x00, 0xea, 0x45, 0x06, 0xfd, 0xcc, 0x40, 0xdb, 0x00, 0xf6, 0xc5, 0xf6, 0x1b, 0x0a, 
0x09, 0xe1, 0x07, 0x23, 0x16, 0x1b, 0xf5, 0xb7, 0x2c, 0xb3, 0x03, 0x01, 0x12, 0x29, 0x01, 0x06, 0x22, 0xfe, 
0xdb, 0x18, 0x01, 0x0b, 0xf7, 0x81, 0x2c, 0x3d, 0xfd, 0xfc, 0xeb, 0xe8, 0xdf, 0xc4, 0x37, 0xff, 0x0b, 0xdc, 
0x4d, 0xe5, 0x05, 0x17, 0x1f, 0xc9, 0x01, 0x08, 0xe7, 0xf7, 0xe0, 0xe7, 0x4b, 0x0b, 0x1b, 0x04, 0x7f, 0xc1, 
0xde, 0xc0, 0x18, 0x05, 0x09, 0x0b, 0xf8, 0xe8, 0xfd, 0xb0, 0x1b, 0x2d, 0xfd, 0x16, 0x51, 0xdf, 0x17, 0x0c, 
0x09, 0x02, 0xfa, 0xf9, 0xba, 0x1e, 0xf6, 0xdd, 0x1d, 0xeb, 0x0b, 0xff, 0x22, 0xc6, 0x18, 0xf1, 0x22, 0xfe, 
0x00, 0x18, 0xd8, 0xfe, 0xf3, 0x01, 0xe8, 0xf3, 0x17, 0x17, 0x43, 0x9f, 0x06, 0xbb, 0x17, 0x3b, 0x08, 0x02, 
0xff, 0x08, 0x09, 0xb5, 0x18, 0xfe, 0xfc, 0x0d, 0x19, 0xcc, 0x04, 0x08, 0x0a, 0x19, 0xfb, 0xe7, 0xfd, 0x45, 
0x19, 0x01, 0x10, 0xfa, 0xf8, 0xe8, 0x09, 0xec, 0x05, 0xd5, 0x43, 0xf1, 0x00, 0x0c, 0x01, 0x26, 0x04, 0x4c, 
0xf4, 0x04, 0xf9, 0xf8, 0x30, 0xf2, 0xe8, 0xd9, 0x37, 0x29, 0x07, 0x10, 0x1d, 0x31, 0x0a, 0x49, 0x09, 0xe6, 
0xf2, 0x07, 0x1b, 0xf9, 0x02, 0xd4, 0x27, 0xfc, 0xfb, 0x0c, 0xe6, 0xce, 0xec, 0xc5, 0x23, 0xfc, 0x0c, 0xe2, 
0xf9, 0xf6, 0x06, 0x0f, 0x06, 0xc9, 0x00, 0x07, 0xd6, 0x81, 0xf4, 0xd7, 0x22, 0xe6, 0x16, 0x24, 0xef, 0x08, 
0x26, 0xd7, 0xea, 0x02, 0x02, 0x0d, 0x3c, 0xa3, 0x1d, 0xf7, 0x1a, 0x57, 0x03, 0x32, 0xca, 0x14, 0x1d, 0x1a, 
0xf1, 0x32, 0xed, 0xf8, 0xdc, 0xf0, 0xdf, 0xf6, 0xf6, 0xeb, 0xf7, 0xf2, 0x1a, 0xcb, 0x27, 0xf6, 0x11, 0xcd, 
0xff, 0x0a, 0xc7, 0xbd, 0xff, 0x00, 0x12, 0xc0, 0x09, 0xfe, 0xf7, 0xf7, 0x2f, 0xcd, 0xf5, 0xe7, 0x00, 0xfa, 
0xf5, 0xc4, 0x19, 0xe2, 0x37, 0xfe, 0x04, 0x18, 0xd1, 0x15, 0x2b, 0xee, 0xfb, 0x24, 0xee, 0xeb, 0x1b, 0xfd, 
0x02, 0xea, 0x04, 0xd7, 0xfa, 0xce, 0x5e, 0xe9, 0x19, 0xed, 0x3e, 0xbb, 0x00, 0x0f, 0xf3, 0xe0, 0x00, 0xf3, 
0x35, 0xe5, 0xfc, 0x09, 0x35, 0xec, 0xef, 0xcb, 0x22, 0xb6, 0x01, 0x17, 0xfe, 0xe7, 0x1e, 0x05, 0x27, 0x00, 
0xe6, 0x28, 0x14, 0x1f, 0xf5, 0xcc, 0x1f, 0x20, 0xf0, 0x25, 0xf1, 0xa9, 0xf6, 0x23, 0x20, 0x11, 0x0f, 0xbe, 
0x6c, 0xd1, 0x04, 0xfa, 0x15, 0xb4, 0x01, 0x07, 0xea, 0xdc, 0x31, 0xa7, 0x32, 0xde, 0x2b, 0x12, 0x45, 0xf7, 
0x37, 0xb3, 0xfc, 0xde, 0x05, 0x28, 0x1a, 0xe0, 0x34, 0xf9, 0x21, 0x5e, 0x10, 0x31, 0x21, 0xff, 0x0a, 0xad, 
0xe3, 0x65, 0xfa, 0x22, 0x0d, 0x14, 0x1c, 0x08, 0xc6, 0xe7, 0xfe, 0xf8, 0x3a, 0xa7, 0x1c, 0xc2, 0x26, 0xf0, 
0x01, 0x07, 0xec, 0x17, 0x2a, 0xe8, 0x08, 0xae, 0x18, 0xfc, 0x0b, 0x07, 0x58, 0x89, 0x03, 0x0f, 0x05, 0x15, 
0x24, 0x28, 0xe6, 0xf4, 0x1c, 0x0f, 0xf6, 0xf2, 0xeb, 0xfe, 0x46, 0xe5, 0xea, 0x6b, 0xfd, 0xfb, 0x4b, 0x30, 
0x4b, 0xee, 0x90, 0xf4, 0xf3, 0xd7, 0x3b, 0xf2, 0x09, 0xb7, 0x46, 0xd4, 0x00, 0x08, 0xe3, 0x07, 0xfc, 0x1f, 
0xf8, 0x0b, 0xf9, 0x16, 0x16, 0x17, 0xe0, 0x81, 0x1f, 0xd1, 0x04, 0x21, 0x32, 0x3a, 0xe9, 0x39, 0x01, 0x22, 
0xd6, 0x0e, 0x0c, 0x12, 0xfc, 0xba, 0x09, 0x4e, 0xfc, 0x17, 0xf1, 0xf9, 0xd1, 0xbc, 0x24, 0x41, 0x04, 0xdf, 
0x27, 0x2f, 0x17, 0x2d, 0x17, 0xed, 0x00, 0x11, 0xbe, 0xce, 0xd5, 0xdd, 0x23, 0x2a, 0x24, 0x07, 0x45, 0x26, 
0xe9, 0xe0, 0x0a, 0x12, 0x0d, 0x0e, 0x02, 0xc4, 0xf8, 0xd3, 0xec, 0x4c, 0x05, 0x00, 0x26, 0x17, 0x13, 0x42, 
0xe6, 0xfc, 0xf3, 0xfb, 0xaa, 0x39, 0xf2, 0xe9, 0x21, 0xf4, 0x0c, 0x0f, 0xf3, 0xf3, 0x31, 0x11, 0x1f, 0xf9, 
0x01, 0x0e, 0x81, 0x04, 0x02, 0x13, 0xf4, 0xa5, 0x15, 0x10, 0xfd, 0xf5, 0x17, 0xfe, 0x13, 0x33, 0x0f, 0x0c, 
0xc6, 0x0b, 0x27, 0xe5, 0x07, 0xa5, 0x0d, 0x08, 0xe3, 0xee, 0x12, 0x0e, 0xf3, 0x09, 0xfa, 0x07, 0x12, 0x57, 
0xf5, 0x06, 0xe1, 0x1b, 0xff, 0xbd, 0xf2, 0x0e, 0x14, 0xfa, 0x4e, 0xc8, 0x00, 0x21, 0x2a, 0x37, 0xda, 0x45, 
0x03, 0xf8, 0x01, 0xd2, 0x07, 0x11, 0xde, 0xe0, 0x3f, 0x15, 0x0e, 0x39, 0x1c, 0x42, 0x25, 0x76, 0xec, 0xdb, 
0xf6, 0xe7, 0x05, 0xec, 0xfb, 0xee, 0x22, 0xeb, 0xf9, 0x3a, 0xf6, 0xc1, 0xee, 0xed, 0x2c, 0x15, 0x07, 0xde, 
0x2f, 0xd6, 0x0b, 0xd2, 0x0b, 0xd1, 0x00, 0xf5, 0xe2, 0xcb, 0x09, 0x0f, 0x2f, 0xfc, 0xff, 0x14, 0x70, 0xac, 
0x04, 0xcf, 0x17, 0xf7, 0xfc, 0x0b, 0x02, 0xe5, 0x2a, 0x25, 0xff, 0xef, 0xf7, 0x17, 0x72, 0xc8, 0xf1, 0x22, 
0x27, 0xde, 0x05, 0xf7, 0x81, 0x09, 0xff, 0xef, 0x31, 0xef, 0x08, 0xf0, 0x08, 0x9f, 0x1c, 0xe0, 0x0b, 0x04, 
0x00, 0x0b, 0x9b, 0xec, 0xf9, 0x0d, 0xef, 0xf9, 0x09, 0x0c, 0x36, 0xab, 0x3a, 0xcc, 0x12, 0x2a, 0xfb, 0xf5, 
0xe6, 0x13, 0x10, 0x0d, 0xf8, 0x00, 0xf8, 0x0b, 0x22, 0x9f, 0x0f, 0x23, 0x23, 0x0c, 0x07, 0xe1, 0xa7, 0x33, 
0x16, 0xfc, 0x1f, 0xf3, 0xfe, 0xd4, 0xe8, 0x8f, 0x09, 0xb4, 0x32, 0x0a, 0x00, 0x08, 0xa4, 0x1d, 0x06, 0x39, 
0x39, 0x23, 0xfd, 0xe4, 0x14, 0xeb, 0x0a, 0xcd, 0x3a, 0x1a, 0xfb, 0x0d, 0xec, 0x3b, 0xff, 0x51, 0x11, 0xdf, 
0xf4, 0xf5, 0x16, 0xcd, 0x01, 0xe2, 0x4e, 0x04, 0x08, 0x1a, 0x08, 0xc9, 0xd9, 0xdd, 0x0d, 0xe7, 0x14, 0xcd, 
0x06, 0xb3, 0x0a, 0x1f, 0x02, 0x90, 0x01, 0x11, 0xd8, 0x95, 0xfd, 0xab, 0x1a, 0xb1, 0x23, 0x0c, 0xed, 0x09, 
0x43, 0xa4, 0xef, 0xba, 0x03, 0x2a, 0x32, 0xa5, 0x2e, 0xcc, 0x20, 0x30, 0x09, 0x42, 0xd1, 0x25, 0x34, 0x10, 
0x08, 0xfe, 0xed, 0x07, 0xd7, 0xf3, 0xd3, 0x0c, 0xde, 0x02, 0xfc, 0xff, 0x3e, 0x96, 0x26, 0xe8, 0x12, 0xc9, 
0xff, 0x10, 0xc7, 0xc9, 0xf1, 0xfa, 0x10, 0xcf, 0x0a, 0x06, 0x03, 0xdc, 0x3d, 0x8a, 0xf9, 0xc0, 0xff, 0xfc, 
0xf8, 0xd3, 0x12, 0xc3, 0x3e, 0x0c, 0xf7, 0x22, 0xdc, 0x08, 0x36, 0xfe, 0x16, 0x12, 0xec, 0xdc, 0x26, 0xfd, 
0x0a, 0xe6, 0x1e, 0xcc, 0xff, 0xc8, 0x74, 0xf1, 0x1b, 0xcb, 0x4c, 0xbc, 0x00, 0x0d, 0xe3, 0xdf, 0xf8, 0x04, 
0x38, 0xc4, 0xfd, 0x02, 0x38, 0x18, 0xdf, 0xba, 0x39, 0x81, 0x01, 0x11, 0x05, 0xf9, 0x21, 0xfb, 0x3d, 0xde, 
0xda, 0x1c, 0x1c, 0x2f, 0x05, 0xbd, 0x4a, 0x1d, 0xee, 0x1e, 0x3a, 0x4c, 0x9b, 0x5f, 0x50, 0x46, 0x19, 0xfc, 
0xda, 0xd5, 0xd0, 0xcc, 0x02, 0x77, 0x03, 0x00, 0x27, 0x26, 0xdb, 0xa5, 0x32, 0xeb, 0x06, 0xd6, 0x12, 0xb5, 
0x01, 0x2e, 0x0b, 0xaf, 0x01, 0xf8, 0x15, 0xb6, 0xe0, 0x9d, 0x06, 0xd2, 0xff, 0x05, 0x2d, 0xbe, 0x14, 0xfd, 
0x20, 0x88, 0x08, 0xf7, 0x44, 0x19, 0xde, 0x1f, 0x2d, 0x3e, 0x22, 0xef, 0xfb, 0xfd, 0xe1, 0x2a, 0x05, 0x6e, 
0x01, 0x1f, 0xfc, 0x23, 0xe3, 0xeb, 0xc8, 0x19, 0x19, 0xd1, 0x08, 0x82, 0x12, 0x16, 0x0c, 0xb9, 0xfd, 0x00, 
0x1b, 0xf2, 0x08, 0xea, 0xf6, 0xe9, 0x0b, 0xec, 0x1a, 0x07, 0xea, 0xcc, 0x2f, 0xa6, 0x06, 0x06, 0xe0, 0x01, 
0xee, 0x34, 0x03, 0x2b, 0x12, 0x2f, 0xdb, 0x1a, 0xd3, 0x1a, 0x06, 0x7f, 0x00, 0x1d, 0xd0, 0x08, 0xc5, 0x24, 
0xdb, 0x43, 0x07, 0xed, 0xec, 0xc5, 0x01, 0x19, 0x1e, 0xc3, 0xfa, 0x09, 0x22, 0x11, 0x23, 0xf1, 0x04, 0xb7, 
0xfa, 0xd0, 0x12, 0x1d, 0xde, 0xf1, 0x46, 0xb1, 0x03, 0x1a, 0x1f, 0x18, 0x05, 0x7f, 0x1a, 0x6f, 0x1c, 0xdf, 
0x3e, 0xd6, 0x21, 0x17, 0x15, 0xef, 0x02, 0x0e, 0x04, 0xf9, 0x28, 0xe1, 0x3c, 0xfc, 0x2a, 0xe6, 0x23, 0xb1, 
0x1c, 0x04, 0xfd, 0xa9, 0x08, 0x16, 0x16, 0x13, 0x0a, 0x21, 0x21, 0xd3, 0xfd, 0xe3, 0x0e, 0xd6, 0x0f, 0xf8, 
0xf5, 0xcf, 0xf4, 0x1a, 0x38, 0x36, 0x38, 0x31, 0xd1, 0x44, 0x14, 0x13, 0x41, 0x01, 0xf5, 0x1c, 0x18, 0x0c, 
0x00, 0x0c, 0x08, 0x1f, 0x28, 0x06, 0xee, 0xd5, 0x09, 0x00, 0x0f, 0xb7, 0x32, 0xfc, 0xfd, 0xcd, 0x06, 0x0b, 
0x1f, 0x3f, 0x0e, 0x50, 0x29, 0xd8, 0xe0, 0xe0, 0x03, 0xf6, 0x19, 0xe7, 0xfb, 0x02, 0xf1, 0x00, 0x50, 0x34, 
0x34, 0x15, 0x99, 0x1e, 0x06, 0x1d, 0x2f, 0xf7, 0xda, 0x09, 0x0e, 0x12, 0x00, 0x04, 0x34, 0x1c, 0xf3, 0x22, 
0xda, 0x39, 0xf3, 0x09, 0x0b, 0x11, 0xd6, 0xcf, 0xf5, 0xb7, 0x05, 0x04, 0x3f, 0x49, 0xfe, 0x3f, 0x0c, 0xee, 
0xe4, 0xeb, 0x11, 0x2c, 0xf6, 0xb1, 0xf2, 0x06, 0xf1, 0x04, 0x15, 0x9d, 0xd6, 0x0d, 0x02, 0xe3, 0x0c, 0xad, 
0x28, 0xe6, 0x09, 0x0b, 0x09, 0xb9, 0x02, 0xfe, 0xf7, 0xb5, 0x1a, 0xa9, 0x14, 0xc5, 0x22, 0x0d, 0x1c, 0xda, 
0x30, 0xe6, 0xf9, 0xcd, 0x05, 0x16, 0x0e, 0xe9, 0x2e, 0x0c, 0x33, 0x2a, 0x01, 0x28, 0x00, 0xfc, 0x2d, 0x8f, 
0xf1, 0x2f, 0xf7, 0x1e, 0x3d, 0xd7, 0xf1, 0x01, 0xd2, 0x0c, 0xfb, 0xe5, 0x41, 0xea, 0x12, 0xea, 0x19, 0xdf, 
0x00, 0x06, 0xf9, 0xee, 0x31, 0xed, 0x12, 0xe5, 0x12, 0xfc, 0x10, 0xfb, 0x3e, 0xa9, 0x01, 0xe2, 0x02, 0x0c, 
0x0a, 0x34, 0xfd, 0x0b, 0x2e, 0x4e, 0xed, 0xfa, 0xed, 0x07, 0x46, 0xb5, 0xfc, 0x44, 0xf8, 0xf2, 0x17, 0xf6, 
0x3e, 0xfa, 0xce, 0xe7, 0xfe, 0xdd, 0x44, 0x03, 0xfe, 0xba, 0x3d, 0xdb, 0x00, 0xff, 0xc1, 0xfa, 0x1d, 0x09, 
0x04, 0xf5, 0xff, 0x1d, 0x17, 0x20, 0xea, 0x89, 0x1c, 0xbd, 0x01, 0x09, 0x0a, 0x3e, 0xfb, 0x08, 0x16, 0x13, 
0xd4, 0x0e, 0x03, 0x00, 0xf7, 0x81, 0x0f, 0x51, 0xf9, 0x05, 0x09, 0x03, 0xc8, 0xa7, 0x39, 0x41, 0x11, 0xf1, 
0xd3, 0x46, 0xe7, 0x3e, 0x16, 0x05, 0x01, 0x13, 0xe2, 0xc2, 0xe2, 0x9b, 0x2a, 0xff, 0x26, 0x0e, 0xf3, 0x21, 
0xfd, 0xfd, 0xfb, 0x27, 0x0a, 0x1f, 0x36, 0xb0, 0x0f, 0x81, 0x19, 0x38, 0x02, 0xf4, 0xe1, 0x11, 0x2e, 0x45, 
0xfc, 0xf4, 0xee, 0xf2, 0xe1, 0x02, 0xcd, 0xd9, 0x1e, 0xcd, 0x05, 0xed, 0xeb, 0x0f, 0x14, 0x2b, 0x1e, 0xea, 
0x00, 0x15, 0xce, 0xe9, 0xf9, 0xe6, 0xf0, 0xae, 0x16, 0xe1, 0xf3, 0xf7, 0xf2, 0xe3, 0x06, 0x0b, 0x09, 0x03, 
0xdd, 0xe9, 0x23, 0xac, 0x15, 0xa5, 0x00, 0xe9, 0xe5, 0xfb, 0x1c, 0x0a, 0x05, 0xe2, 0xf0, 0xf6, 0x2e, 0xf5, 
0xc2, 0x00, 0x13, 0x15, 0xfc, 0xa9, 0x10, 0x02, 0x0e, 0x1c, 0x52, 0xcf, 0x00, 0x19, 0x11, 0xfa, 0xd0, 0x04, 
0x09, 0x3b, 0x0e, 0xd4, 0x1a, 0x02, 0xe3, 0xf4, 0x3c, 0xed, 0x0a, 0x32, 0xec, 0x02, 0x20, 0x16, 0x20, 0x24, 
0xf4, 0xf8, 0x15, 0xef, 0xf4, 0x29, 0x34, 0xc8, 0xf2, 0x37, 0x13, 0x19, 0xc3, 0x31, 0xf4, 0x2b, 0x08, 0xa4, 
0x01, 0xaa, 0x09, 0x3a, 0xee, 0xb0, 0x01, 0xfa, 0x12, 0xb7, 0xef, 0xed, 0x05, 0xc8, 0x0c, 0xd4, 0xea, 0x9c, 
0x54, 0xc7, 0xd6, 0xae, 0xfe, 0x1c, 0x55, 0xaa, 0x32, 0xf2, 0x1f, 0x00, 0xf3, 0x15, 0xcf, 0x03, 0x22, 0xf0, 
0xfa, 0xc6, 0xe4, 0x01, 0xe0, 0x11, 0xf5, 0x26, 0xcc, 0x1e, 0xfc, 0xe0, 0x1e, 0xdb, 0xf4, 0x35, 0x02, 0xd2, 
0xff, 0x12, 0xe2, 0xd7, 0x20, 0x0c, 0xdb, 0xce, 0x0a, 0xec, 0xeb, 0x8d, 0x3d, 0x81, 0xe7, 0xbb, 0xfa, 0x11, 
0x4a, 0xc3, 0x2f, 0x07, 0x1a, 0x0a, 0xe6, 0x06, 0xd7, 0xfe, 0x1c, 0xd3, 0x12, 0xe5, 0xe2, 0xe6, 0x25, 0x0a, 
0x1f, 0xdf, 0xeb, 0xef, 0x0a, 0xe1, 0x71, 0xd4, 0xff, 0xf1, 0x27, 0xeb, 0x00, 0x0a, 0xe9, 0xfa, 0x0e, 0xdb, 
0xcd, 0x09, 0x0a, 0x05, 0x40, 0x20, 0xf0, 0xd3, 0x18, 0xa1, 0xfb, 0x0b, 0x12, 0xec, 0x27, 0xe4, 0x14, 0x06, 
0xdc, 0x11, 0x38, 0x37, 0xee, 0xa5, 0x3d, 0xed, 0xe5, 0xfc, 0x03, 0x4b, 0xc4, 0x3e, 0x2b, 0x43, 0x26, 0xfe, 
0xc7, 0xd1, 0xee, 0xe4, 0xf6, 0x40, 0x01, 0x03, 0xf4, 0xed, 0xe7, 0xb9, 0x21, 0xf0, 0x0f, 0xf1, 0xce, 0xa4, 
0x1e, 0x46, 0xdf, 0xc7, 0x06, 0x08, 0x0d, 0xaf, 0x07, 0xbe, 0x06, 0x01, 0x0d, 0x01, 0xd6, 0xeb, 0x11, 0x24, 
0xfb, 0x8c, 0xeb, 0xfa, 0x04, 0x10, 0xe3, 0x09, 0x06, 0x2a, 0x19, 0xcf, 0xf6, 0x11, 0xdf, 0x2c, 0xff, 0x2c, 
0x00, 0x23, 0xde, 0xe6, 0x0f, 0xc8, 0xdc, 0xdc, 0x0d, 0xe6, 0xe1, 0x81, 0x29, 0x24, 0xe8, 0xa3, 0x05, 0x02, 
0x00, 0xb7, 0x32, 0xf4, 0x10, 0xef, 0x05, 0xec, 0xec, 0xff, 0x12, 0xdc, 0x0a, 0xa1, 0xec, 0x06, 0x0c, 0x02, 
0xee, 0x15, 0x08, 0x07, 0x16, 0xf5, 0x21, 0xfa, 0xdd, 0x31, 0x1c, 0x2f, 0x00, 0x1e, 0x04, 0xea, 0xf3, 0xe2, 
0xd3, 0x29, 0x06, 0xe8, 0x0f, 0xe2, 0xf2, 0x1f, 0x17, 0x81, 0x05, 0x1c, 0x2c, 0xbf, 0x1f, 0xe0, 0x0e, 0xee, 
0xf7, 0xe1, 0x18, 0x02, 0x17, 0xfe, 0x38, 0xb6, 0xed, 0x27, 0xca, 0xc9, 0xff, 0x0f, 0x13, 0x1d, 0x08, 0xc9, 
0x34, 0xad, 0x1a, 0xe0, 0x1e, 0xce, 0x00, 0x01, 0xbf, 0xde, 0x05, 0x1d, 0x15, 0xfe, 0x06, 0xff, 0x64, 0x81, 
0x1c, 0xdf, 0x3c, 0xf7, 0x03, 0x14, 0x03, 0x05, 0x0d, 0x4a, 0xf5, 0x02, 0x03, 0x05, 0x64, 0x95, 0xea, 0x09, 
0x32, 0xdb, 0x13, 0xed, 0x84, 0x01, 0x09, 0xea, 0x32, 0xe0, 0x0b, 0xed, 0x07, 0x86, 0x27, 0xed, 0x17, 0xfa, 
0x00, 0x0b, 0x85, 0xf0, 0xf7, 0x1b, 0xd6, 0xfc, 0x0e, 0x12, 0x23, 0xca, 0x66, 0xf3, 0x2a, 0x22, 0x04, 0xf7, 
0xbe, 0x2a, 0x07, 0x28, 0xdf, 0xff, 0xff, 0x13, 0x1b, 0xb1, 0x14, 0x10, 0x22, 0x00, 0x17, 0xdd, 0xaa, 0x24, 
0x1b, 0xdb, 0x20, 0xc8, 0x08, 0xd2, 0xe0, 0x8e, 0x0a, 0xae, 0x4b, 0xf0, 0x00, 0x10, 0x90, 0x12, 0x04, 0x2e, 
0x41, 0x05, 0xfc, 0xeb, 0x03, 0xf7, 0x19, 0xdb, 0x5c, 0x12, 0x03, 0x11, 0xd0, 0x46, 0x01, 0x58, 0x00, 0xcb, 
0xed, 0xf5, 0x15, 0xbd, 0xfc, 0x01, 0x58, 0xf9, 0x18, 0x1a, 0x19, 0xfc, 0x18, 0xdd, 0xd9, 0xe9, 0xf8, 0x14, 
0xe4, 0x0a, 0x09, 0x04, 0x1b, 0xe3, 0x04, 0x17, 0x35, 0x18, 0xfb, 0x16, 0xb9, 0x0d, 0xf5, 0x0f, 0x07, 0x35, 
0xf7, 0x18, 0x20, 0x0a, 0x00, 0x0e, 0xff, 0x38, 0xec, 0x00, 0xd5, 0xc6, 0xf4, 0xec, 0x22, 0x04, 0xd0, 0xf7, 
0x25, 0x0f, 0x09, 0xff, 0x41, 0x00, 0xfb, 0xfe, 0xee, 0xf2, 0xe9, 0x2e, 0xef, 0x08, 0xff, 0x02, 0x13, 0xf9, 
0xff, 0xf3, 0x7f, 0x1f, 0xf8, 0x05, 0xea, 0x19, 0xed, 0x38, 0x1c, 0x25, 0xd9, 0xee, 0x1c, 0x19, 0x07, 0x09, 
0x1d, 0x00, 0xfd, 0x01, 0xe4, 0x04, 0xf0, 0x0f, 0x34, 0x0e, 0xce, 0xf9, 0x06, 0x1b, 0x04, 0x06, 0x35, 0xc8, 
0x0a, 0xec, 0xe3, 0x0f, 0x03, 0x30, 0xef, 0x5f, 0xec, 0x0b, 0x0e, 0x03, 0xfd, 0x14, 0x69, 0x06, 0x39, 0x07, 
0xea, 0xf6, 0x05, 0x1e, 0x0c, 0x0c, 0x1f, 0x1b, 0x21, 0x1f, 0x03, 0x13, 0x1a, 0xcf, 0xf3, 0x05, 0x0b, 0xeb, 
0xf9, 0x0f, 0x1c, 0x23, 0x11, 0x2f, 0x0c, 0x03, 0x03, 0xec, 0xfd, 0x3a, 0xb1, 0x4e, 0x3d, 0x52, 0x11, 0x03, 
0xd0, 0xb2, 0xf1, 0xe7, 0x05, 0x3d, 0x01, 0x09, 0xfd, 0x1a, 0xcc, 0x81, 0x38, 0xfb, 0x14, 0xf0, 0xf8, 0xae, 
0x0c, 0x2d, 0xf6, 0xc1, 0x07, 0x0e, 0x0e, 0xad, 0xff, 0xa5, 0x0e, 0x09, 0xff, 0x0f, 0x0a, 0xd7, 0x0e, 0x07, 
0xfe, 0x9f, 0xf6, 0xfd, 0xff, 0x1c, 0xd8, 0x12, 0x25, 0x17, 0x08, 0xf7, 0xde, 0xe9, 0xed, 0x44, 0x0a, 0x41, 
0x00, 0x25, 0xd8, 0x11, 0x01, 0x9d, 0xc3, 0xe3, 0x15, 0xee, 0xde, 0x83, 0x35, 0x2f, 0xf7, 0xc7, 0x05, 0x08, 
0x01, 0xcb, 0x15, 0xc4, 0xf8, 0xe9, 0x02, 0xf0, 0xfd, 0xea, 0x0d, 0xd4, 0x06, 0xc2, 0xf4, 0xff, 0x09, 0x08, 
0xec, 0x14, 0x15, 0x18, 0x03, 0x11, 0xd5, 0x1a, 0xdd, 0x25, 0x22, 0x42, 0x00, 0x1d, 0xeb, 0x1e, 0xd9, 0xd4, 
0xf8, 0x41, 0x0e, 0xf2, 0xf3, 0xfe, 0x00, 0x42, 0x1d, 0xb7, 0x05, 0x18, 0x17, 0x00, 0x07, 0xe2, 0x18, 0x05, 
0xfd, 0xe4, 0x2d, 0x1b, 0x03, 0x0a, 0x32, 0xb7, 0xf5, 0x1f, 0xda, 0xf7, 0xff, 0xff, 0x04, 0x00, 0x00, 0x00, 
0xc0, 0x00, 0x00, 0x00, 0x23, 0x46, 0x00, 0x00, 0x37, 0x73, 0x00, 0x00, 0x6e, 0x09, 0x00, 0x00, 0x05, 0x35, 
0x00, 0x00, 0x34, 0x2f, 0x00, 0x00, 0xfa, 0x1e, 0x00, 0x00, 0x8a, 0x49, 0x00, 0x00, 0xdf, 0x49, 0x00, 0x00, 
0x2e, 0x5d, 0x00, 0x00, 0x91, 0x56, 0x00, 0x00, 0x90, 0x20, 0x00, 0x00, 0xef, 0xf2, 0xff, 0xff, 0x9c, 0x6a, 
0x00, 0x00, 0x91, 0x0a, 0x00, 0x00, 0x7d, 0x2e, 0x00, 0x00, 0x9f, 0x1e, 0x00, 0x00, 0xad, 0x0e, 0x00, 0x00, 
0xbd, 0x3a, 0x00, 0x00, 0x5d, 0x4b, 0x00, 0x00, 0x2b, 0x5f, 0x00, 0x00, 0x5b, 0x1c, 0x00, 0x00, 0x73, 0x07, 
0x00, 0x00, 0x81, 0x1f, 0x00, 0x00, 0xac, 0x18, 0x00, 0x00, 0xc7, 0x14, 0x00, 0x00, 0x09, 0x65, 0x00, 0x00, 
0x53, 0x15, 0x00, 0x00, 0x01, 0xf9, 0xff, 0xff, 0x3e, 0x3b, 0x00, 0x00, 0x7b, 0x3f, 0x00, 0x00, 0x58, 0x35, 
0x00, 0x00, 0xe7, 0x42, 0x00, 0x00, 0xad, 0x35, 0x00, 0x00, 0x2c, 0x09, 0x00, 0x00, 0x86, 0x51, 0x00, 0x00, 
0xc3, 0x15, 0x00, 0x00, 0xa2, 0x0c, 0x00, 0x00, 0x52, 0x35, 0x00, 0x00, 0xf1, 0x84, 0x00, 0x00, 0x90, 0x1a, 
0x00, 0x00, 0x9c, 0xe6, 0xff, 0xff, 0x2b, 0x2a, 0x00, 0x00, 0x15, 0x31, 0x00, 0x00, 0x01, 0x69, 0x00, 0x00, 
0x96, 0x43, 0x00, 0x00, 0x3f, 0x38, 0x00, 0x00, 0x72, 0xe7, 0xff, 0xff, 0x2f, 0x33, 0x00, 0x00, 0xa6, 0xf8, 
0xff, 0xff, 0x04, 0x00, 0x00, 0x00, 0x40, 0x00, 0x00, 0x00, 0xe8, 0xf8, 0xff, 0xff, 0x2f, 0x03, 0x00, 0x00, 
0x6d, 0xf8, 0xff, 0xff, 0x1d, 0xfe, 0xff, 0xff, 0xb6, 0xff, 0xff, 0xff, 0xab, 0xfd, 0xff, 0xff, 0x0e, 0xfd, 
0xff, 0xff, 0x12, 0x09, 0x00, 0x00, 0x8d, 0x1e, 0x00, 0x00, 0x50, 0xfc, 0xff, 0xff, 0x47, 0x1c, 0x00, 0x00, 
0xda, 0x02, 0x00, 0x00, 0xf7, 0x2d, 0x00, 0x00, 0x67, 0x26, 0x00, 0x00, 0x97, 0x0e, 0x00, 0x00, 0x44, 0x07, 
0x00, 0x00, 0xf2, 0xf8, 0xff, 0xff, 0x04, 0x00, 0x00, 0x00, 0x90, 0x00, 0x00, 0x00, 0x16, 0x40, 0x7f, 0x06, 
0x12, 0x39, 0xff, 0xde, 0x6a, 0x75, 0xc8, 0x0a, 0x45, 0x1d, 0xf7, 0x06, 0x2d, 0x63, 0x7d, 0xd4, 0xe8, 0x3d, 
0xf0, 0xdc, 0x2f, 0xa8, 0xdd, 0x48, 0x56, 0x1f, 0x36, 0x0c, 0x11, 0x2e, 0x42, 0x21, 0x01, 0x41, 0x03, 0xf1, 
0xdf, 0xc5, 0xfc, 0x5b, 0xf1, 0x0f, 0x7f, 0x0a, 0x00, 0x13, 0x7a, 0x46, 0x06, 0x16, 0x0c, 0x02, 0x16, 0xc5, 
0xdf, 0x49, 0x67, 0x4f, 0xfb, 0x0a, 0x7f, 0x0e, 0xd8, 0x81, 0x7f, 0x7f, 0x81, 0x81, 0x81, 0x7f, 0x7f, 0x4f, 
0x7f, 0x7f, 0x45, 0x7f, 0x34, 0x31, 0x85, 0x2d, 0x0d, 0x29, 0xf1, 0xe7, 0x32, 0x54, 0x1f, 0x7f, 0xea, 0xbf, 
0xeb, 0x08, 0x03, 0x02, 0xd6, 0x09, 0xab, 0x1b, 0xf0, 0x22, 0xf6, 0xc2, 0x15, 0xf3, 0xf1, 0x56, 0xdf, 0x1a, 
0x2b, 0xf8, 0x07, 0xde, 0xc8, 0x02, 0xeb, 0xff, 0xf3, 0x9d, 0x34, 0x3e, 0x16, 0xf8, 0x01, 0x18, 0x14, 0x7f, 
0x8c, 0x26, 0xff, 0x0e, 0xe3, 0xfe, 0x1e, 0xd0, 0x55, 0xde, 0x33, 0xe8, 0xe0, 0x07, 0x8e, 0xf9, 0xff, 0xff, 
0x04, 0x00, 0x00, 0x00, 0x90, 0x00, 0x00, 0x00, 0x29, 0xc1, 0x6d, 0x63, 0x2a, 0x1a, 0x2c, 0x19, 0x34, 0x2b, 
0x5d, 0x09, 0x41, 0x1d, 0x44, 0xfe, 0x81, 0x8f, 0x15, 0x17, 0xea, 0x44, 0x28, 0x37, 0x16, 0x7f, 0x1e, 0xee, 
0x3f, 0xf0, 0x61, 0xe0, 0xe3, 0x81, 0xc0, 0xbe, 0x39, 0x1d, 0x50, 0x18, 0x26, 0xe6, 0xb4, 0x12, 0x29, 0x0b, 
0xbf, 0xe9, 0xab, 0x27, 0x1b, 0x33, 0xc9, 0x00, 0x2d, 0xf6, 0xe7, 0x25, 0x76, 0xcf, 0x20, 0x2d, 0x34, 0xff, 
0x72, 0x74, 0xd5, 0x14, 0x81, 0x81, 0x7f, 0x81, 0x81, 0x92, 0x7f, 0x7f, 0x7f, 0x81, 0x81, 0x81, 0x05, 0xef, 
0xb5, 0xb8, 0xf8, 0xdf, 0x1c, 0x23, 0x09, 0x02, 0x8f, 0xb6, 0xef, 0x34, 0x00, 0xfe, 0xed, 0x1d, 0x1a, 0x7f, 
0xfc, 0xe8, 0xb6, 0xda, 0xfa, 0x3a, 0xa6, 0x10, 0xff, 0x12, 0xe1, 0xdf, 0x7e, 0x72, 0xc0, 0xf3, 0x84, 0x37, 
0x50, 0xfd, 0x02, 0xc9, 0xec, 0xee, 0x29, 0xe8, 0xf7, 0xf2, 0x35, 0x20, 0x81, 0x1a, 0xb5, 0x01, 0x63, 0x39, 
0x1b, 0xa8, 0xba, 0xc9, 0xf1, 0x18, 0x75, 0xfc, 0x2a, 0xfa, 0xff, 0xff, 0x04, 0x00, 0x00, 0x00, 0x90, 0x00, 
0x00, 0x00, 0x0f, 0xe7, 0xa2, 0x4a, 0x01, 0x5c, 0x24, 0xfe, 0xb8, 0x19, 0xdb, 0x1d, 0xee, 0x07, 0x07, 0xfa, 
0x19, 0xdb, 0xa6, 0x32, 0x0d, 0x7f, 0xf1, 0xfa, 0x81, 0x3e, 0xdb, 0x0d, 0xe2, 0x7d, 0xe5, 0xfb, 0x2d, 0xeb, 
0x16, 0xfe, 0x16, 0x10, 0x41, 0xf9, 0x95, 0x3c, 0x1a, 0x76, 0xe9, 0x7f, 0xec, 0xf8, 0x03, 0x6e, 0xeb, 0x2f, 
0xfd, 0x61, 0xf3, 0xc3, 0x95, 0x52, 0xc8, 0x2a, 0x02, 0x43, 0x81, 0xea, 0x7f, 0xa6, 0x33, 0x7f, 0x7f, 0xf3, 
0x7f, 0x81, 0xd1, 0x7f, 0xbf, 0x1e, 0x81, 0x0c, 0x04, 0x81, 0x19, 0xe7, 0x7f, 0x42, 0x14, 0x50, 0x35, 0xe8, 
0xfe, 0x50, 0xd8, 0x7f, 0xed, 0x3e, 0xec, 0xf7, 0x2b, 0x53, 0x68, 0x15, 0x20, 0x62, 0xe4, 0xf1, 0xa1, 0x18, 
0x18, 0x36, 0x07, 0x64, 0x09, 0xf6, 0x6b, 0x47, 0x2f, 0x14, 0x26, 0xed, 0x10, 0xdc, 0xe5, 0x3d, 0xb0, 0x2c, 
0xf8, 0x2a, 0xeb, 0xf9, 0x07, 0x81, 0x34, 0x30, 0x1f, 0x57, 0x1a, 0xc1, 0x3b, 0x1d, 0x81, 0xed, 0xe6, 0x05, 
0xf0, 0xff, 0xc6, 0xfa, 0xff, 0xff, 0x04, 0x00, 0x00, 0x00, 0x90, 0x00, 0x00, 0x00, 0x4b, 0x44, 0x5e, 0x53, 
0x56, 0x55, 0x66, 0x53, 0x59, 0x57, 0x4f, 0x57, 0x42, 0x6c, 0x51, 0x46, 0x62, 0x58, 0x57, 0x4f, 0xcf, 0x5b, 
0x50, 0x58, 0x52, 0x45, 0x5f, 0x7f, 0x53, 0x4f, 0x57, 0x64, 0x4a, 0x45, 0x54, 0x62, 0x6a, 0x41, 0x50, 0x57, 
0x6c, 0x52, 0x4d, 0x4c, 0x46, 0x3f, 0xd4, 0x51, 0xd4, 0xd4, 0xe3, 0xdd, 0xcb, 0xdb, 0xd5, 0xcf, 0xc2, 0xc7, 
0xde, 0xca, 0xd8, 0xd3, 0xdb, 0xda, 0xcf, 0xc9, 0xc4, 0xcc, 0x7f, 0xd9, 0xd9, 0xd1, 0xd0, 0xd7, 0xd4, 0xc8, 
0xce, 0xce, 0xd8, 0xc1, 0xd1, 0xdc, 0xd3, 0xd4, 0xc7, 0xe3, 0xd5, 0xdf, 0xb9, 0xcf, 0xc7, 0xce, 0xd7, 0xe3, 
0xa9, 0xda, 0xb3, 0xd4, 0xb1, 0xc7, 0xc7, 0xa3, 0xc4, 0xc4, 0xc7, 0xe0, 0xbc, 0xc5, 0xd5, 0xc1, 0xbd, 0xce, 
0xb6, 0xca, 0xc8, 0xdd, 0xec, 0xb4, 0xc3, 0xc8, 0xcd, 0xce, 0xc5, 0xf5, 0xb7, 0xc2, 0xb5, 0xbe, 0xbf, 0xcb, 
0xcd, 0xbc, 0xb7, 0xbe, 0xd0, 0xad, 0xd8, 0xba, 0xba, 0xd5, 0xc6, 0xae, 0x7f, 0xc5, 0x62, 0xfb, 0xff, 0xff, 
0x04, 0x00, 0x00, 0x00, 0x90, 0x00, 0x00, 0x00, 0x2b, 0x3f, 0x45, 0xdf, 0xf4, 0xfc, 0x7f, 0x01, 0x81, 0xc9, 
0x1d, 0xc5, 0x01, 0x0f, 0x87, 0xf2, 0xc2, 0xf3, 0x5f, 0xf6, 0x28, 0x46, 0xf7, 0x41, 0xe0, 0x3f, 0x22, 0xfe, 
0x47, 0x7b, 0xaf, 0xf1, 0x94, 0x69, 0x7f, 0x05, 0x47, 0x1e, 0xc9, 0x7f, 0x28, 0xbf, 0x39, 0xf9, 0x49, 0x4f, 
0x81, 0xbf, 0x16, 0x49, 0x27, 0xf7, 0xf6, 0x2d, 0xd4, 0x22, 0xf6, 0x81, 0xc7, 0xea, 0xc1, 0x59, 0x89, 0x10, 
0x37, 0x7f, 0x1f, 0x81, 0x46, 0x7f, 0xa0, 0x31, 0x06, 0x6b, 0x81, 0x81, 0x26, 0xf6, 0xb9, 0xca, 0x02, 0x4f, 
0x39, 0xf8, 0x7f, 0x16, 0x9a, 0x3a, 0x0b, 0xf9, 0x5a, 0x1e, 0x7f, 0x5c, 0x03, 0x29, 0xe5, 0xd8, 0x32, 0xf2, 
0xf2, 0x20, 0xcc, 0x0d, 0x11, 0xd2, 0xa1, 0x12, 0x92, 0x3b, 0xd6, 0x22, 0xfb, 0x0b, 0xdc, 0x0c, 0x16, 0x55, 
0xb0, 0xee, 0xdf, 0x08, 0xb3, 0x2e, 0xad, 0x7f, 0xea, 0x55, 0x7f, 0x19, 0x3f, 0xb8, 0x45, 0x2b, 0xad, 0x04, 
0x0a, 0x69, 0x50, 0x31, 0xdd, 0x4f, 0xf0, 0x7f, 0xfe, 0xfb, 0xff, 0xff, 0x04, 0x00, 0x00, 0x00, 0x40, 0x00, 
0x00, 0x00, 0x14, 0x08, 0x00, 0x00, 0x75, 0xf6, 0xff, 0xff, 0x54, 0x02, 0x00, 0x00, 0x54, 0x04, 0x00, 0x00, 
0xfb, 0xfe, 0xff, 0xff, 0x1f, 0x02, 0x00, 0x00, 0x7d, 0x02, 0x00, 0x00, 0x05, 0xfb, 0xff, 0xff, 0x4b, 0xf8, 
0xff, 0xff, 0xf2, 0xfe, 0xff, 0xff, 0xcf, 0x04, 0x00, 0x00, 0x65, 0x04, 0x00, 0x00, 0x87, 0xfd, 0xff, 0xff, 
0x99, 0x07, 0x00, 0x00, 0xb6, 0x02, 0x00, 0x00, 0xe9, 0x00, 0x00, 0x00, 0x4a, 0xfc, 0xff, 0xff, 0x04, 0x00, 
0x00, 0x00, 0x40, 0x00, 0x00, 0x00, 0xf7, 0x03, 0x00, 0x00, 0x52, 0x03, 0x00, 0x00, 0xb0, 0xf8, 0xff, 0xff, 
0xd0, 0xe7, 0xff, 0xff, 0x96, 0x01, 0x00, 0x00, 0x41, 0xee, 0xff, 0xff, 0x4d, 0x01, 0x00, 0x00, 0xa1, 0x07, 
0x00, 0x00, 0xe5, 0x07, 0x00, 0x00, 0x73, 0xff, 0xff, 0xff, 0x1b, 0x05, 0x00, 0x00, 0xe1, 0xfe, 0xff, 0xff, 
0xb7, 0xfe, 0xff, 0xff, 0xaf, 0x28, 0x00, 0x00, 0xe1, 0xff, 0xff, 0xff, 0xe9, 0xfd, 0xff, 0xff, 0x96, 0xfc, 
0xff, 0xff, 0x04, 0x00, 0x00, 0x00, 0x90, 0x00, 0x00, 0x00, 0xf4, 0x46, 0x9f, 0xfd, 0xf6, 0x02, 0x06, 0xf5, 
0x7f, 0x03, 0xb6, 0x29, 0x44, 0x23, 0x0b, 0xb9, 0xd2, 0x7f, 0x23, 0xf9, 0x07, 0x0a, 0x05, 0x37, 0x2b, 0xdb, 
0xfa, 0xfb, 0x04, 0xd5, 0xf6, 0x0b, 0xe3, 0x1a, 0x42, 0x9a, 0x0a, 0x47, 0x02, 0xfd, 0x3c, 0xa9, 0x5e, 0xc7, 
0xf2, 0x8d, 0xf8, 0x40, 0xf8, 0x4d, 0xa3, 0xf0, 0xf7, 0x0f, 0xfa, 0x12, 0x1e, 0xeb, 0xca, 0x93, 0x40, 0x2c, 
0xea, 0x0f, 0x81, 0x65, 0x7f, 0xce, 0x7f, 0x81, 0x81, 0x7f, 0xd5, 0x7f, 0x81, 0x7f, 0x7f, 0x7f, 0x81, 0x59, 
0x0b, 0x19, 0x3f, 0xff, 0xff, 0xfd, 0xf7, 0xf0, 0x08, 0xcb, 0xd7, 0xba, 0xea, 0x02, 0x33, 0x7f, 0x0a, 0x29, 
0xf1, 0x7f, 0xfe, 0xe0, 0xf6, 0xfd, 0x44, 0xf1, 0x23, 0x45, 0xcb, 0x0c, 0x03, 0xd7, 0x05, 0x13, 0x2c, 0xe8, 
0x24, 0x0b, 0xf8, 0x49, 0x09, 0x7a, 0xc4, 0x21, 0xd7, 0xda, 0xe5, 0xe3, 0x04, 0x05, 0x8e, 0x64, 0x1a, 0x24, 
0xeb, 0x02, 0x27, 0x26, 0xe6, 0x83, 0x9b, 0x92, 0xf0, 0xb7, 0x32, 0xfd, 0xff, 0xff, 0x04, 0x00, 0x00, 0x00, 
0x20, 0x00, 0x00, 0x00, 0x00, 0x00, 0x00, 0x00, 0x00, 0x00, 0x00, 0x00, 0x01, 0x00, 0x00, 0x00, 0x01, 0x00, 
0x00, 0x00, 0x01, 0x00, 0x00, 0x00, 0x01, 0x00, 0x00, 0x00, 0x00, 0x00, 0x00, 0x00, 0x00, 0x00, 0x00, 0x00, 
0x5e, 0xfd, 0xff, 0xff, 0x04, 0x00, 0x00, 0x00, 0xb0, 0x01, 0x00, 0x00, 0xa8, 0x54, 0x62, 0x84, 0xe4, 0x64, 
0x9c, 0x46, 0x61, 0xa0, 0xf5, 0xf2, 0x81, 0x0e, 0x6a, 0xbc, 0x06, 0x50, 0x0d, 0x2c, 0x2c, 0x91, 0xff, 0x21, 
0xbc, 0x11, 0x59, 0x4f, 0xf0, 0xaa, 0x1f, 0x0a, 0x81, 0x3a, 0xab, 0x8e, 0x52, 0x0a, 0x18, 0x42, 0x05, 0xe3, 
0x20, 0x9c, 0xe8, 0x2f, 0xb8, 0x48, 0x7f, 0x05, 0x07, 0x25, 0x27, 0x19, 0x37, 0x2e, 0x2a, 0x48, 0x23, 0x1d, 
0x7f, 0x1c, 0x26, 0x3c, 0xef, 0xbd, 0x42, 0xec, 0xde, 0x2e, 0xd8, 0x00, 0x6d, 0x14, 0x02, 0x45, 0x15, 0x1f, 
0x1f, 0x22, 0x2e, 0x3c, 0xed, 0xcc, 0x42, 0xdb, 0xc0, 0x53, 0xc8, 0xe9, 0xf3, 0x24, 0xe0, 0x49, 0xef, 0xce, 
0x17, 0x13, 0x25, 0x78, 0xd6, 0x99, 0x7f, 0xe2, 0x09, 0x66, 0x07, 0xdd, 0x98, 0xe3, 0xfa, 0x81, 0xf1, 0x23, 
0xc5, 0xed, 0x16, 0xb4, 0x3b, 0x15, 0xd1, 0xfb, 0x32, 0xc5, 0xcb, 0xf3, 0xc9, 0x33, 0x69, 0x02, 0x38, 0x53, 
0xe7, 0x1b, 0x1d, 0x30, 0x46, 0xae, 0x13, 0x20, 0x81, 0x1c, 0xee, 0xbb, 0x0b, 0xde, 0x22, 0x02, 0xea, 0x2e, 
0x0c, 0x0f, 0xec, 0x4b, 0xf2, 0x38, 0x59, 0x66, 0x26, 0x3a, 0x69, 0x43, 0xec, 0x24, 0x46, 0x43, 0x48, 0xe2, 
0x1e, 0x32, 0x7c, 0x34, 0x5b, 0x1e, 0x28, 0x7f, 0x1f, 0x42, 0x6d, 0xde, 0x41, 0x35, 0x48, 0x36, 0x0f, 0x42, 
0x35, 0x25, 0xea, 0xe9, 0xd8, 0xce, 0x0b, 0xa9, 0xd2, 0x03, 0xb7, 0xe5, 0x3f, 0xf0, 0xda, 0x3b, 0xd3, 0xe4, 
0x3e, 0xe3, 0xc6, 0x30, 0x28, 0x00, 0x25, 0x0b, 0x2e, 0x36, 0xf4, 0x7f, 0x26, 0xf1, 0x28, 0x10, 0xb0, 0x31, 
0x1a, 0xae, 0x35, 0x71, 0xcb, 0x3b, 0x68, 0x67, 0x45, 0x54, 0xe9, 0x57, 0xbd, 0x55, 0xfb, 0x2a, 0x4c, 0x46, 
0x69, 0x7f, 0x11, 0xfe, 0xf1, 0x09, 0xe8, 0x23, 0x4b, 0x9d, 0x04, 0x5c, 0x26, 0xd1, 0xf4, 0xf8, 0x1b, 0xeb, 
0xd6, 0xfa, 0x5f, 0x11, 0x23, 0x81, 0x37, 0xf5, 0xaa, 0xf9, 0xf9, 0x1b, 0xf5, 0xf2, 0x3a, 0x09, 0x04, 0xf9, 
0x0c, 0x18, 0xfc, 0x00, 0x1d, 0x51, 0x0c, 0x1a, 0x32, 0x19, 0x1a, 0x23, 0x19, 0x52, 0x7f, 0x2d, 0x0a, 0xfa, 
0x16, 0x2b, 0x07, 0xb9, 0x3c, 0x6c, 0x44, 0x2d, 0x51, 0x39, 0x22, 0x9f, 0xfb, 0x3d, 0x70, 0x23, 0x2c, 0xbf, 
0x23, 0x9d, 0x81, 0x36, 0x00, 0x18, 0xb4, 0xce, 0xb3, 0x18, 0x0b, 0x9c, 0xdc, 0xc7, 0x20, 0xd4, 0xb5, 0x02, 
0xa5, 0xa8, 0xe4, 0xa1, 0xbf, 0x0f, 0xad, 0x9f, 0xd7, 0x07, 0x99, 0xa6, 0xb6, 0xbd, 0xfa, 0xa4, 0xb6, 0xde, 
0xb4, 0x8d, 0x81, 0x91, 0xfc, 0x2b, 0xe5, 0x04, 0xe2, 0xe8, 0xfa, 0x39, 0x81, 0xfb, 0x0d, 0xc8, 0xdd, 0x17, 
0x48, 0x1a, 0x2a, 0xc3, 0xfd, 0xec, 0xcd, 0xf6, 0x13, 0x50, 0x0a, 0x1f, 0xe3, 0x38, 0x21, 0xb5, 0xa1, 0x6a, 
0xb2, 0x2a, 0x7f, 0xca, 0x14, 0xec, 0xb2, 0xdc, 0x04, 0x24, 0x51, 0x1a, 0xef, 0x1a, 0x00, 0xd9, 0xc0, 0x45, 
0xc2, 0xce, 0x40, 0xef, 0xc8, 0xb5, 0xd6, 0xb9, 0xac, 0xb3, 0xaf, 0x9e, 0xd7, 0xc9, 0xcf, 0xd5, 0xc1, 0xca, 
0xca, 0xb0, 0x81, 0xd3, 0xab, 0xad, 0xdd, 0xc3, 0xce, 0xe9, 0xbe, 0xcd, 0x7c, 0xfb, 0xff, 0xff, 0x5e, 0xff, 
0xff, 0xff, 0x02, 0x00, 0x00, 0x00, 0x00, 0x00, 0x00, 0x19, 0x6a, 0xff, 0xff, 0xff, 0x03, 0x00, 0x00, 0x00, 
0x00, 0x00, 0x00, 0x03, 0x76, 0xff, 0xff, 0xff, 0x03, 0x00, 0x00, 0x00, 0x00, 0x00, 0x00, 0x03, 0x82, 0xff, 
0xff, 0xff, 0x03, 0x00, 0x00, 0x00, 0x00, 0x00, 0x00, 0x04, 0x8e, 0xff, 0xff, 0xff, 0x03, 0x00, 0x00, 0x00, 
0x00, 0x00, 0x00, 0x04, 0x9a, 0xff, 0xff, 0xff, 0x03, 0x00, 0x00, 0x00, 0x00, 0x00, 0x00, 0x04, 0xa6, 0xff, 
0xff, 0xff, 0x02, 0x00, 0x00, 0x00, 0x00, 0x00, 0x00, 0x22, 0xb2, 0xff, 0xff, 0xff, 0x03, 0x00, 0x00, 0x00, 
0x00, 0x00, 0x00, 0x04, 0xbe, 0xff, 0xff, 0xff, 0x03, 0x00, 0x00, 0x00, 0x00, 0x00, 0x00, 0x04, 0xca, 0xff, 
0xff, 0xff, 0x02, 0x00, 0x00, 0x00, 0x00, 0x00, 0x00, 0x22, 0xd6, 0xff, 0xff, 0xff, 0x03, 0x00, 0x00, 0x00, 
0x00, 0x00, 0x00, 0x04, 0xf6, 0xff, 0xff, 0xff, 0x03, 0x00, 0x00, 0x00, 0x00, 0x04, 0x0a, 0x00, 0x0a, 0x00, 
0x09, 0x00, 0x00, 0x00, 0x04, 0x00, 0x0a, 0x00, 0x00, 0x00, 0x03, 0x00, 0x00, 0x00, 0x00, 0x03, 0x0a, 0x00, 
0x0c, 0x00, 0x0b, 0x00, 0x00, 0x00, 0x04, 0x00, 0x0a, 0x00, 0x00, 0x00, 0x02, 0x00, 0x00, 0x00, 0x00, 0x00, 
0x00, 0x22, 0xca, 0xfc, 0xff, 0xff, 0x2c, 0x00, 0x00, 0x00, 0x00, 0x00, 0x00, 0x09, 0x0c, 0x00, 0x00, 0x00, 
0x10, 0x00, 0x00, 0x00, 0x0d, 0x00, 0x00, 0x00, 0x01, 0x00, 0x00, 0x00, 0x1b, 0x00, 0x00, 0x00, 0x01, 0x00, 
0x00, 0x00, 0x24, 0x00, 0x00, 0x00, 0x00, 0x00, 0x06, 0x00, 0x08, 0x00, 0x04, 0x00, 0x06, 0x00, 0x00, 0x00, 
0x00, 0x00, 0x80, 0x3f, 0x02, 0xfd, 0xff, 0xff, 0x38, 0x00, 0x00, 0x00, 0x00, 0x00, 0x00, 0x01, 0x0c, 0x00, 
0x00, 0x00, 0x10, 0x00, 0x00, 0x00, 0x0c, 0x00, 0x00, 0x00, 0x01, 0x00, 0x00, 0x00, 0x24, 0x00, 0x00, 0x00, 
0x03, 0x00, 0x00, 0x00, 0x14, 0x00, 0x00, 0x00, 0x09, 0x00, 0x00, 0x00, 0x15, 0x00, 0x00, 0x00, 0x00, 0x00, 
0x0a, 0x00, 0x10, 0x00, 0x0f, 0x00, 0x08, 0x00, 0x04, 0x00, 0x0a, 0x00, 0x00, 0x00, 0x01, 0x00, 0x00, 0x00, 
0x01, 0x00, 0x00, 0x00, 0x00, 0x00, 0x00, 0x01, 0x4e, 0xfd, 0xff, 0xff, 0x38, 0x00, 0x00, 0x00, 0x00, 0x00, 
0x00, 0x01, 0x0c, 0x00, 0x00, 0x00, 0x10, 0x00, 0x00, 0x00, 0x0b, 0x00, 0x00, 0x00, 0x01, 0x00, 0x00, 0x00, 
0x14, 0x00, 0x00, 0x00, 0x03, 0x00, 0x00, 0x00, 0x0f, 0x00, 0x00, 0x00, 0x12, 0x00, 0x00, 0x00, 0x11, 0x00, 
0x00, 0x00, 0x0c, 0x00, 0x10, 0x00, 0x00, 0x00, 0x0c, 0x00, 0x08, 0x00, 0x07, 0x00, 0x0c, 0x00, 0x00, 0x00, 
0x00, 0x00, 0x00, 0x03, 0x01, 0x00, 0x00, 0x00, 0x01, 0x00, 0x00, 0x00, 0x9a, 0xfd, 0xff, 0xff, 0x2c, 0x00, 
0x00, 0x00, 0x00, 0x00, 0x00, 0x02, 0x0c, 0x00, 0x00, 0x00, 0x10, 0x00, 0x00, 0x00, 0x0a, 0x00, 0x00, 0x00, 
0x01, 0x00, 0x00, 0x00, 0x0f, 0x00, 0x00, 0x00, 0x03, 0x00, 0x00, 0x00, 0x20, 0x00, 0x00, 0x00, 0x1d, 0x00, 
0x00, 0x00, 0x05, 0x00, 0x00, 0x00, 0xee, 0xfd, 0xff, 0xff, 0x00, 0x00, 0x00, 0x01, 0x01, 0x00, 0x00, 0x00, 
0x01, 0x00, 0x00, 0x00, 0x01, 0x00, 0x00, 0x00, 0xde, 0xfd, 0xff, 0xff, 0x2c, 0x00, 0x00, 0x00, 0x00, 0x00, 
0x00, 0x02, 0x0c, 0x00, 0x00, 0x00, 0x10, 0x00, 0x00, 0x00, 0x09, 0x00, 0x00, 0x00, 0x01, 0x00, 0x00, 0x00, 
0x20, 0x00, 0x00, 0x00, 0x03, 0x00, 0x00, 0x00, 0x04, 0x00, 0x00, 0x00, 0x02, 0x00, 0x00, 0x00, 0x07, 0x00, 
0x00, 0x00, 0x32, 0xfe, 0xff, 0xff, 0x00, 0x00, 0x00, 0x01, 0x01, 0x00, 0x00, 0x00, 0x01, 0x00, 0x00, 0x00, 
0x01, 0x00, 0x00, 0x00, 0x22, 0xfe, 0xff, 0xff, 0x2c, 0x00, 0x00, 0x00, 0x00, 0x00, 0x00, 0x02, 0x0c, 0x00, 
0x00, 0x00, 0x10, 0x00, 0x00, 0x00, 0x08, 0x00, 0x00, 0x00, 0x01, 0x00, 0x00, 0x00, 0x04, 0x00, 0x00, 0x00, 
0x03, 0x00, 0x00, 0x00, 0x0e, 0x00, 0x00, 0x00, 0x1c, 0x00, 0x00, 0x00, 0x16, 0x00, 0x00, 0x00, 0x42, 0xff, 
0xff, 0xff, 0x00, 0x00, 0x00, 0x01, 0x01, 0x00, 0x00, 0x00, 0x02, 0x00, 0x00, 0x00, 0x02, 0x00, 0x00, 0x00, 
0x00, 0x00, 0x00, 0x01, 0x6a, 0xfe, 0xff, 0xff, 0x28, 0x00, 0x00, 0x00, 0x00, 0x00, 0x00, 0x16, 0x0c, 0x00, 
0x00, 0x00, 0x10, 0x00, 0x00, 0x00, 0x07, 0x00, 0x00, 0x00, 0x01, 0x00, 0x00, 0x00, 0x0e, 0x00, 0x00, 0x00, 
0x02, 0x00, 0x00, 0x00, 0x0c, 0x00, 0x00, 0x00, 0x01, 0x00, 0x00, 0x00, 0x04, 0xfe, 0xff, 0xff, 0x9a, 0xfe, 
0xff, 0xff, 0x2c, 0x00, 0x00, 0x00, 0x00, 0x00, 0x00, 0x02, 0x0c, 0x00, 0x00, 0x00, 0x10, 0x00, 0x00, 0x00, 
0x06, 0x00, 0x00, 0x00, 0x01, 0x00, 0x00, 0x00, 0x0c, 0x00, 0x00, 0x00, 0x03, 0x00, 0x00, 0x00, 0x13, 0x00, 
0x00, 0x00, 0x08, 0x00, 0x00, 0x00, 0x21, 0x00, 0x00, 0x00, 0xee, 0xfe, 0xff, 0xff, 0x00, 0x00, 0x00, 0x01, 
0x01, 0x00, 0x00, 0x00, 0x01, 0x00, 0x00, 0x00, 0x01, 0x00, 0x00, 0x00, 0xde, 0xfe, 0xff, 0xff, 0x3c, 0x00, 
0x00, 0x00, 0x00, 0x00, 0x00, 0x02, 0x0c, 0x00, 0x00, 0x00, 0x10, 0x00, 0x00, 0x00, 0x05, 0x00, 0x00, 0x00, 
0x01, 0x00, 0x00, 0x00, 0x13, 0x00, 0x00, 0x00, 0x03, 0x00, 0x00, 0x00, 0x1a, 0x00, 0x00, 0x00, 0x0a, 0x00, 
0x00, 0x00, 0x10, 0x00, 0x00, 0x00, 0x00, 0x00, 0x0e, 0x00, 0x18, 0x00, 0x17, 0x00, 0x10, 0x00, 0x0c, 0x00, 
0x08, 0x00, 0x07, 0x00, 0x0e, 0x00, 0x00, 0x00, 0x00, 0x00, 0x00, 0x01, 0x01, 0x00, 0x00, 0x00, 0x02, 0x00, 
0x00, 0x00, 0x02, 0x00, 0x00, 0x00, 0x00, 0x00, 0x00, 0x01, 0x36, 0xff, 0xff, 0xff, 0x28, 0x00, 0x00, 0x00, 
0x00, 0x00, 0x00, 0x16, 0x0c, 0x00, 0x00, 0x00, 0x10, 0x00, 0x00, 0x00, 0x04, 0x00, 0x00, 0x00, 0x01, 0x00, 
0x00, 0x00, 0x1a, 0x00, 0x00, 0x00, 0x02, 0x00, 0x00, 0x00, 0x1f, 0x00, 0x00, 0x00, 0x1e, 0x00, 0x00, 0x00, 
0xd0, 0xfe, 0xff, 0xff, 0x66, 0xff, 0xff, 0xff, 0x2c, 0x00, 0x00, 0x00, 0x00, 0x00, 0x00, 0x02, 0x0c, 0x00, 
0x00, 0x00, 0x10, 0x00, 0x00, 0x00, 0x03, 0x00, 0x00, 0x00, 0x01, 0x00, 0x00, 0x00, 0x1f, 0x00, 0x00, 0x00, 
0x03, 0x00, 0x00, 0x00, 0x25, 0x00, 0x00, 0x00, 0x0d, 0x00, 0x00, 0x00, 0x18, 0x00, 0x00, 0x00, 0xba, 0xff, 
0xff, 0xff, 0x00, 0x00, 0x00, 0x01, 0x01, 0x00, 0x00, 0x00, 0x01, 0x00, 0x00, 0x00, 0x01, 0x00, 0x00, 0x00, 
0xaa, 0xff, 0xff, 0xff, 0x3c, 0x00, 0x00, 0x00, 0x00, 0x00, 0x00, 0x02, 0x0c, 0x00, 0x00, 0x00, 0x10, 0x00, 
0x00, 0x00, 0x02, 0x00, 0x00, 0x00, 0x01, 0x00, 0x00, 0x00, 0x25, 0x00, 0x00, 0x00, 0x03, 0x00, 0x00, 0x00, 
0x06, 0x00, 0x00, 0x00, 0x0b, 0x00, 0x00, 0x00, 0x23, 0x00, 0x00, 0x00, 0x00, 0x00, 0x0e, 0x00, 0x16, 0x00, 
0x00, 0x00, 0x10, 0x00, 0x0c, 0x00, 0x08, 0x00, 0x07, 0x00, 0x0e, 0x00, 0x00, 0x00, 0x00, 0x00, 0x00, 0x01, 
0x01, 0x00, 0x00, 0x00, 0x01, 0x00, 0x00, 0x00, 0x01, 0x00, 0x00, 0x00, 0x00, 0x00, 0x0e, 0x00, 0x18, 0x00, 
0x14, 0x00, 0x10, 0x00, 0x0c, 0x00, 0x0b, 0x00, 0x04, 0x00, 0x0e, 0x00, 0x00, 0x00, 0x38, 0x00, 0x00, 0x00, 
0x00, 0x00, 0x00, 0x01, 0x0c, 0x00, 0x00, 0x00, 0x10, 0x00, 0x00, 0x00, 0x01, 0x00, 0x00, 0x00, 0x01, 0x00, 
0x00, 0x00, 0x06, 0x00, 0x00, 0x00, 0x03, 0x00, 0x00, 0x00, 0x19, 0x00, 0x00, 0x00, 0x00, 0x00, 0x00, 0x00, 
0x22, 0x00, 0x00, 0x00, 0x0c, 0x00, 0x12, 0x00, 0x11, 0x00, 0x0c, 0x00, 0x08, 0x00, 0x07, 0x00, 0x0c, 0x00, 
0x00, 0x00, 0x00, 0x00, 0x00, 0x03, 0x02, 0x00, 0x00, 0x00, 0x02, 0x00, 0x00, 0x00, 0x00, 0x01, 0x0e, 0x00, 
0x14, 0x00, 0x00, 0x00, 0x10, 0x00, 0x0c, 0x00, 0x0b, 0x00, 0x04, 0x00, 0x0e, 0x00, 0x00, 0x00, 0x28, 0x00, 
0x00, 0x00, 0x00, 0x00, 0x00, 0x16, 0x08, 0x00, 0x00, 0x00, 0x0c, 0x00, 0x00, 0x00, 0x01, 0x00, 0x00, 0x00, 
0x19, 0x00, 0x00, 0x00, 0x02, 0x00, 0x00, 0x00, 0x03, 0x00, 0x00, 0x00, 0x17, 0x00, 0x00, 0x00, 0x04, 0x00, 
0x04, 0x00, 0x04, 0x00, 0x00, 0x00, 0xce, 0xe4, 0xff, 0xff, 0x10, 0x00, 0x00, 0x00, 0x00, 0x00, 0x00, 0x09, 
0x2c, 0x00, 0x00, 0x00, 0x3c, 0x00, 0x00, 0x00, 0xcc, 0xe2, 0xff, 0xff, 0x08, 0x00, 0x00, 0x00, 0x14, 0x00, 
0x00, 0x00, 0x01, 0x00, 0x00, 0x00, 0x80, 0xff, 0xff, 0xff, 0xff, 0xff, 0xff, 0xff, 0x00, 0x00, 0x00, 0x00, 
0x01, 0x00, 0x00, 0x00, 0x7c, 0x33, 0x81, 0x3c, 0x04, 0x00, 0x00, 0x00, 0x01, 0x00, 0x00, 0x00, 0x30, 0x00, 
0x00, 0x00, 0x30, 0x00, 0x00, 0x00, 0x10, 0x00, 0x00, 0x00, 0x14, 0x00, 0x00, 0x00, 0x69, 0x6e, 0x70, 0x75, 
0x74, 0x2e, 0x38, 0x5f, 0x74, 0x65, 0x5f, 0x74, 0x72, 0x61, 0x6e, 0x73, 0x66, 0x6f, 0x72, 0x6d, 0x00, 0x00, 
0x00, 0x00, 0x36, 0xe5, 0xff, 0xff, 0x10, 0x00, 0x00, 0x00, 0x00, 0x00, 0x00, 0x09, 0x2c, 0x00, 0x00, 0x00, 
0x3c, 0x00, 0x00, 0x00, 0x34, 0xe3, 0xff, 0xff, 0x08, 0x00, 0x00, 0x00, 0x14, 0x00, 0x00, 0x00, 0x01, 0x00, 
0x00, 0x00, 0x09, 0x00, 0x00, 0x00, 0x00, 0x00, 0x00, 0x00, 0x00, 0x00, 0x00, 0x00, 0x01, 0x00, 0x00, 0x00, 
0x93, 0xa0, 0xe0, 0x3d, 0x04, 0x00, 0x00, 0x00, 0x01, 0x00, 0x00, 0x00, 0x0c, 0x00, 0x00, 0x00, 0x0c, 0x00, 
0x00, 0x00, 0x03, 0x00, 0x00, 0x00, 0x10, 0x00, 0x00, 0x00, 0x66, 0x75, 0x73, 0x65, 0x5f, 0x74, 0x72, 0x61, 
0x6e, 0x73, 0x66, 0x6f, 0x72, 0x6d, 0x5f, 0x36, 0x00, 0x00, 0x00, 0x00, 0xaa, 0xe3, 0xff, 0xff, 0x14, 0x00, 
0x00, 0x00, 0x00, 0x00, 0x00, 0x02, 0xe0, 0x00, 0x00, 0x00, 0xe4, 0x00, 0x00, 0x00, 0x17, 0x00, 0x00, 0x00, 
0x9c, 0xe3, 0xff, 0xff, 0x08, 0x00, 0x00, 0x00, 0x88, 0x00, 0x00, 0x00, 0x10, 0x00, 0x00, 0x00, 0x00, 0x00, 
0x00, 0x00, 0x00, 0x00, 0x00, 0x00, 0x00, 0x00, 0x00, 0x00, 0x00, 0x00, 0x00, 0x00, 0x00, 0x00, 0x00, 0x00, 
0x00, 0x00, 0x00, 0x00, 0x00, 0x00, 0x00, 0x00, 0x00, 0x00, 0x00, 0x00, 0x00, 0x00, 0x00, 0x00, 0x00, 0x00, 
0x00, 0x00, 0x00, 0x00, 0x00, 0x00, 0x00, 0x00, 0x00, 0x00, 0x00, 0x00, 0x00, 0x00, 0x00, 0x00, 0x00, 0x00, 
0x00, 0x00, 0x00, 0x00, 0x00, 0x00, 0x00, 0x00, 0x00, 0x00, 0x00, 0x00, 0x00, 0x00, 0x00, 0x00, 0x00, 0x00, 
0x00, 0x00, 0x00, 0x00, 0x00, 0x00, 0x00, 0x00, 0x00, 0x00, 0x00, 0x00, 0x00, 0x00, 0x00, 0x00, 0x00, 0x00, 
0x00, 0x00, 0x00, 0x00, 0x00, 0x00, 0x00, 0x00, 0x00, 0x00, 0x00, 0x00, 0x00, 0x00, 0x00, 0x00, 0x00, 0x00, 
0x00, 0x00, 0x00, 0x00, 0x00, 0x00, 0x00, 0x00, 0x00, 0x00, 0x00, 0x00, 0x00, 0x00, 0x00, 0x00, 0x00, 0x00, 
0x10, 0x00, 0x00, 0x00, 0x07, 0xf3, 0x35, 0x39, 0xbe, 0x8b, 0x9d, 0x38, 0xf3, 0x0c, 0x9c, 0x38, 0x7a, 0xf1, 
0xc7, 0x38, 0x39, 0x65, 0x34, 0x38, 0xea, 0x56, 0x91, 0x39, 0x10, 0x3b, 0x38, 0x38, 0x95, 0x75, 0x47, 0x39, 
0xaf, 0x7b, 0x15, 0x39, 0x80, 0x43, 0x9b, 0x38, 0xf9, 0x01, 0xeb, 0x38, 0xbc, 0xee, 0x2e, 0x39, 0xe9, 0x18, 
0x50, 0x38, 0xda, 0x17, 0xc7, 0x39, 0xdc, 0xf2, 0xf8, 0x37, 0x43, 0x4d, 0x5d, 0x38, 0x01, 0x00, 0x00, 0x00, 
0x10, 0x00, 0x00, 0x00, 0x0e, 0x00, 0x00, 0x00, 0x69, 0x6e, 0x70, 0x75, 0x74, 0x2e, 0x36, 0x5f, 0x61, 0x74, 
0x74, 0x72, 0x5f, 0x31, 0x00, 0x00, 0xb2, 0xe4, 0xff, 0xff, 0x14, 0x00, 0x00, 0x00, 0x00, 0x00, 0x00, 0x02, 
0xe4, 0x00, 0x00, 0x00, 0xe8, 0x00, 0x00, 0x00, 0x16, 0x00, 0x00, 0x00, 0xa4, 0xe4, 0xff, 0xff, 0x08, 0x00, 
0x00, 0x00, 0x8c, 0x00, 0x00, 0x00, 0x10, 0x00, 0x00, 0x00, 0x00, 0x00, 0x00, 0x00, 0x00, 0x00, 0x00, 0x00, 
0x00, 0x00, 0x00, 0x00, 0x00, 0x00, 0x00, 0x00, 0x00, 0x00, 0x00, 0x00, 0x00, 0x00, 0x00, 0x00, 0x00, 0x00, 
0x00, 0x00, 0x00, 0x00, 0x00, 0x00, 0x00, 0x00, 0x00, 0x00, 0x00, 0x00, 0x00, 0x00, 0x00, 0x00, 0x00, 0x00, 
0x00, 0x00, 0x00, 0x00, 0x00, 0x00, 0x00, 0x00, 0x00, 0x00, 0x00, 0x00, 0x00, 0x00, 0x00, 0x00, 0x00, 0x00, 
0x00, 0x00, 0x00, 0x00, 0x00, 0x00, 0x00, 0x00, 0x00, 0x00, 0x00, 0x00, 0x00, 0x00, 0x00, 0x00, 0x00, 0x00, 
0x00, 0x00, 0x00, 0x00, 0x00, 0x00, 0x00, 0x00, 0x00, 0x00, 0x00, 0x00, 0x00, 0x00, 0x00, 0x00, 0x00, 0x00, 
0x00, 0x00, 0x00, 0x00, 0x00, 0x00, 0x00, 0x00, 0x00, 0x00, 0x00, 0x00, 0x00, 0x00, 0x00, 0x00, 0x00, 0x00, 
0x00, 0x00, 0x00, 0x00, 0x00, 0x00, 0x00, 0x00, 0x00, 0x00, 0x00, 0x00, 0x00, 0x00, 0x00, 0x00, 0x10, 0x00, 
0x00, 0x00, 0xcc, 0x57, 0x92, 0x36, 0xed, 0xfd, 0x20, 0x37, 0xc5, 0xec, 0x40, 0x35, 0xfe, 0x19, 0xd7, 0x36, 
0xb9, 0x59, 0x21, 0x36, 0x6b, 0x5e, 0x64, 0x36, 0xba, 0xc5, 0xa8, 0x35, 0xba, 0xa7, 0x5d, 0x37, 0xf8, 0x3c, 
0x1b, 0x36, 0xea, 0xb6, 0x15, 0x38, 0x4c, 0x79, 0xfe, 0x35, 0xcc, 0xe6, 0x23, 0x37, 0xb4, 0xba, 0x05, 0x35, 
0x95, 0xc7, 0x95, 0x36, 0x71, 0xd2, 0x12, 0x36, 0x6f, 0xec, 0x8b, 0x35, 0x01, 0x00, 0x00, 0x00, 0x10, 0x00, 
0x00, 0x00, 0x0a, 0x00, 0x00, 0x00, 0x31, 0x35, 0x34, 0x5f, 0x61, 0x74, 0x74, 0x72, 0x5f, 0x31, 0x00, 0x00, 
0xba, 0xe5, 0xff, 0xff, 0x14, 0x00, 0x00, 0x00, 0x00, 0x00, 0x00, 0x02, 0xe4, 0x00, 0x00, 0x00, 0xe8, 0x00, 
0x00, 0x00, 0x15, 0x00, 0x00, 0x00, 0xac, 0xe5, 0xff, 0xff, 0x08, 0x00, 0x00, 0x00, 0x8c, 0x00, 0x00, 0x00, 
0x10, 0x00, 0x00, 0x00, 0x00, 0x00, 0x00, 0x00, 0x00, 0x00, 0x00, 0x00, 0x00, 0x00, 0x00, 0x00, 0x00, 0x00, 
0x00, 0x00, 0x00, 0x00, 0x00, 0x00, 0x00, 0x00, 0x00, 0x00, 0x00, 0x00, 0x00, 0x00, 0x00, 0x00, 0x00, 0x00, 
0x00, 0x00, 0x00, 0x00, 0x00, 0x00, 0x00, 0x00, 0x00, 0x00, 0x00, 0x00, 0x00, 0x00, 0x00, 0x00, 0x00, 0x00, 
0x00, 0x00, 0x00, 0x00, 0x00, 0x00, 0x00, 0x00, 0x00, 0x00, 0x00, 0x00, 0x00, 0x00, 0x00, 0x00, 0x00, 0x00, 
0x00, 0x00, 0x00, 0x00, 0x00, 0x00, 0x00, 0x00, 0x00, 0x00, 0x00, 0x00, 0x00, 0x00, 0x00, 0x00, 0x00, 0x00, 
0x00, 0x00, 0x00, 0x00, 0x00, 0x00, 0x00, 0x00, 0x00, 0x00, 0x00, 0x00, 0x00, 0x00, 0x00, 0x00, 0x00, 0x00, 
0x00, 0x00, 0x00, 0x00, 0x00, 0x00, 0x00, 0x00, 0x00, 0x00, 0x00, 0x00, 0x00, 0x00, 0x00, 0x00, 0x00, 0x00, 
0x00, 0x00, 0x00, 0x00, 0x00, 0x00, 0x00, 0x00, 0x00, 0x00, 0x10, 0x00, 0x00, 0x00, 0x81, 0xfb, 0x9b, 0x39, 
0xf3, 0xba, 0xe6, 0x38, 0xcf, 0x2c, 0xef, 0x38, 0xe9, 0x2e, 0x00, 0x39, 0x37, 0x20, 0xa3, 0x38, 0x48, 0xf8, 
0xde, 0x38, 0xb4, 0xd7, 0x43, 0x39, 0x48, 0x40, 0x6c, 0x39, 0x19, 0x1c, 0xe8, 0x39, 0x9f, 0xc4, 0x2a, 0x39, 
0x61, 0x7f, 0x80, 0x39, 0x7d, 0x9f, 0xbd, 0x39, 0x00, 0xf2, 0x4b, 0x39, 0x8a, 0x34, 0xd8, 0x38, 0xc5, 0x00, 
0x49, 0x38, 0xe9, 0x51, 0xe8, 0x39, 0x01, 0x00, 0x00, 0x00, 0x10, 0x00, 0x00, 0x00, 0x0f, 0x00, 0x00, 0x00, 
0x69, 0x6e, 0x70, 0x75, 0x74, 0x2e, 0x31, 0x32, 0x5f, 0x61, 0x74, 0x74, 0x72, 0x5f, 0x31, 0x00, 0xb6, 0xe8, 
0xff, 0xff, 0x10, 0x00, 0x00, 0x00, 0x00, 0x00, 0x00, 0x09, 0x2c, 0x00, 0x00, 0x00, 0x3c, 0x00, 0x00, 0x00, 
0xb4, 0xe6, 0xff, 0xff, 0x08, 0x00, 0x00, 0x00, 0x14, 0x00, 0x00, 0x00, 0x01, 0x00, 0x00, 0x00, 0x80, 0xff, 
0xff, 0xff, 0xff, 0xff, 0xff, 0xff, 0x00, 0x00, 0x00, 0x00, 0x01, 0x00, 0x00, 0x00, 0x92, 0xb3, 0xa1, 0x3c, 
0x04, 0x00, 0x00, 0x00, 0x01, 0x00, 0x00, 0x00, 0x0c, 0x00, 0x00, 0x00, 0x0c, 0x00, 0x00, 0x00, 0x10, 0x00, 
0x00, 0x00, 0x15, 0x00, 0x00, 0x00, 0x69, 0x6e, 0x70, 0x75, 0x74, 0x2e, 0x31, 0x38, 0x5f, 0x74, 0x65, 0x5f, 
0x74, 0x72, 0x61, 0x6e, 0x73, 0x66, 0x6f, 0x72, 0x6d, 0x00, 0x00, 0x00, 0x1e, 0xe9, 0xff, 0xff, 0x10, 0x00, 
0x00, 0x00, 0x00, 0x00, 0x00, 0x09, 0x2c, 0x00, 0x00, 0x00, 0x3c, 0x00, 0x00, 0x00, 0x1c, 0xe7, 0xff, 0xff, 
0x08, 0x00, 0x00, 0x00, 0x14, 0x00, 0x00, 0x00, 0x01, 0x00, 0x00, 0x00, 0x80, 0xff, 0xff, 0xff, 0xff, 0xff, 
0xff, 0xff, 0x00, 0x00, 0x00, 0x00, 0x01, 0x00, 0x00, 0x00, 0xd6, 0xb0, 0x95, 0x3c, 0x04, 0x00, 0x00, 0x00, 
0x01, 0x00, 0x00, 0x00, 0x30, 0x00, 0x00, 0x00, 0x30, 0x00, 0x00, 0x00, 0x10, 0x00, 0x00, 0x00, 0x15, 0x00, 
0x00, 0x00, 0x69, 0x6e, 0x70, 0x75, 0x74, 0x2e, 0x31, 0x30, 0x5f, 0x74, 0x65, 0x5f, 0x74, 0x72, 0x61, 0x6e, 
0x73, 0x66, 0x6f, 0x72, 0x6d, 0x00, 0x00, 0x00, 0xe8, 0xe7, 0xff, 0xff, 0x00, 0x00, 0x00, 0x02, 0x0c, 0x00, 
0x00, 0x00, 0x14, 0x00, 0x00, 0x00, 0x14, 0x00, 0x00, 0x00, 0x02, 0x00, 0x00, 0x00, 0x04, 0x00, 0x00, 0x00, 
0x02, 0x00, 0x00, 0x00, 0x21, 0x00, 0x00, 0x00, 0x69, 0x6e, 0x70, 0x75, 0x74, 0x2e, 0x31, 0x30, 0x5f, 0x74, 
0x65, 0x5f, 0x74, 0x72, 0x61, 0x6e, 0x73, 0x66, 0x6f, 0x72, 0x6d, 0x5f, 0x31, 0x5f, 0x74, 0x65, 0x5f, 0x61, 
0x74, 0x74, 0x72, 0x5f, 0x32, 0x00, 0x00, 0x00, 0xde, 0xe7, 0xff, 0xff, 0x14, 0x00, 0x00, 0x00, 0x00, 0x00, 
0x00, 0x09, 0xe4, 0x00, 0x00, 0x00, 0xf4, 0x00, 0x00, 0x00, 0x13, 0x00, 0x00, 0x00, 0x5a, 0xe9, 0xff, 0xff, 
0x03, 0x00, 0x00, 0x00, 0x08, 0x00, 0x00, 0x00, 0x88, 0x00, 0x00, 0x00, 0x10, 0x00, 0x00, 0x00, 0x00, 0x00, 
0x00, 0x00, 0x00, 0x00, 0x00, 0x00, 0x00, 0x00, 0x00, 0x00, 0x00, 0x00, 0x00, 0x00, 0x00, 0x00, 0x00, 0x00, 
0x00, 0x00, 0x00, 0x00, 0x00, 0x00, 0x00, 0x00, 0x00, 0x00, 0x00, 0x00, 0x00, 0x00, 0x00, 0x00, 0x00, 0x00, 
0x00, 0x00, 0x00, 0x00, 0x00, 0x00, 0x00, 0x00, 0x00, 0x00, 0x00, 0x00, 0x00, 0x00, 0x00, 0x00, 0x00, 0x00, 
0x00, 0x00, 0x00, 0x00, 0x00, 0x00, 0x00, 0x00, 0x00, 0x00, 0x00, 0x00, 0x00, 0x00, 0x00, 0x00, 0x00, 0x00, 
0x00, 0x00, 0x00, 0x00, 0x00, 0x00, 0x00, 0x00, 0x00, 0x00, 0x00, 0x00, 0x00, 0x00, 0x00, 0x00, 0x00, 0x00, 
0x00, 0x00, 0x00, 0x00, 0x00, 0x00, 0x00, 0x00, 0x00, 0x00, 0x00, 0x00, 0x00, 0x00, 0x00, 0x00, 0x00, 0x00, 
0x00, 0x00, 0x00, 0x00, 0x00, 0x00, 0x00, 0x00, 0x00, 0x00, 0x00, 0x00, 0x00, 0x00, 0x00, 0x00, 0x00, 0x00, 
0x10, 0x00, 0x00, 0x00, 0x80, 0x01, 0x8a, 0x3c, 0x85, 0x15, 0xc9, 0x3b, 0xbd, 0x3b, 0xa9, 0x3b, 0x8b, 0x94, 
0xb5, 0x3b, 0x67, 0x7e, 0x32, 0x3c, 0x34, 0xb2, 0xe3, 0x3b, 0x38, 0x72, 0x46, 0x3c, 0x38, 0x0c, 0x42, 0x3c, 
0x7a, 0x07, 0x99, 0x3c, 0x72, 0xfa, 0xf5, 0x3b, 0xfa, 0xbc, 0x33, 0x3c, 0x41, 0xf4, 0x42, 0x3c, 0x25, 0xdb, 
0xf5, 0x3b, 0x04, 0xde, 0xaf, 0x3b, 0x3a, 0xc8, 0x68, 0x3c, 0x1c, 0x2e, 0x32, 0x3c, 0x04, 0x00, 0x00, 0x00, 
0x01, 0x00, 0x00, 0x00, 0x03, 0x00, 0x00, 0x00, 0x03, 0x00, 0x00, 0x00, 0x10, 0x00, 0x00, 0x00, 0x0c, 0x00, 
0x00, 0x00, 0x66, 0x75, 0x73, 0x65, 0x5f, 0x61, 0x74, 0x74, 0x72, 0x5f, 0x31, 0x33, 0x00, 0x00, 0x00, 0x00, 
0xf6, 0xe8, 0xff, 0xff, 0x14, 0x00, 0x00, 0x00, 0x00, 0x00, 0x00, 0x09, 0xe4, 0x00, 0x00, 0x00, 0xf4, 0x00, 
0x00, 0x00, 0x12, 0x00, 0x00, 0x00, 0x72, 0xea, 0xff, 0xff, 0x03, 0x00, 0x00, 0x00, 0x08, 0x00, 0x00, 0x00, 
0x88, 0x00, 0x00, 0x00, 0x10, 0x00, 0x00, 0x00, 0x00, 0x00, 0x00, 0x00, 0x00, 0x00, 0x00, 0x00, 0x00, 0x00, 
0x00, 0x00, 0x00, 0x00, 0x00, 0x00, 0x00, 0x00, 0x00, 0x00, 0x00, 0x00, 0x00, 0x00, 0x00, 0x00, 0x00, 0x00, 
0x00, 0x00, 0x00, 0x00, 0x00, 0x00, 0x00, 0x00, 0x00, 0x00, 0x00, 0x00, 0x00, 0x00, 0x00, 0x00, 0x00, 0x00, 
0x00, 0x00, 0x00, 0x00, 0x00, 0x00, 0x00, 0x00, 0x00, 0x00, 0x00, 0x00, 0x00, 0x00, 0x00, 0x00, 0x00, 0x00, 
0x00, 0x00, 0x00, 0x00, 0x00, 0x00, 0x00, 0x00, 0x00, 0x00, 0x00, 0x00, 0x00, 0x00, 0x00, 0x00, 0x00, 0x00, 
0x00, 0x00, 0x00, 0x00, 0x00, 0x00, 0x00, 0x00, 0x00, 0x00, 0x00, 0x00, 0x00, 0x00, 0x00, 0x00, 0x00, 0x00, 
0x00, 0x00, 0x00, 0x00, 0x00, 0x00, 0x00, 0x00, 0x00, 0x00, 0x00, 0x00, 0x00, 0x00, 0x00, 0x00, 0x00, 0x00, 
0x00, 0x00, 0x00, 0x00, 0x00, 0x00, 0x00, 0x00, 0x00, 0x00, 0x10, 0x00, 0x00, 0x00, 0x75, 0x5d, 0xce, 0x3b, 
0x7f, 0x97, 0x8d, 0x3b, 0x39, 0xff, 0xdc, 0x3b, 0xbf, 0xbb, 0xb2, 0x3b, 0x94, 0xf9, 0x44, 0x3b, 0x6a, 0xf2, 
0x88, 0x3b, 0x7b, 0xfc, 0x38, 0x3b, 0xef, 0x2f, 0x4f, 0x3b, 0xf6, 0x9d, 0xbe, 0x3b, 0xae, 0x25, 0x93, 0x3b, 
0xea, 0x6f, 0xc4, 0x3b, 0x24, 0xd7, 0x6e, 0x3b, 0x11, 0x98, 0x15, 0x3c, 0xba, 0xc3, 0xc6, 0x3b, 0xda, 0x8f, 
0x69, 0x3a, 0x3c, 0xf4, 0x25, 0x3b, 0x04, 0x00, 0x00, 0x00, 0x01, 0x00, 0x00, 0x00, 0x03, 0x00, 0x00, 0x00, 
0x03, 0x00, 0x00, 0x00, 0x10, 0x00, 0x00, 0x00, 0x0c, 0x00, 0x00, 0x00, 0x66, 0x75, 0x73, 0x65, 0x5f, 0x61, 
0x74, 0x74, 0x72, 0x5f, 0x31, 0x31, 0x00, 0x00, 0x00, 0x00, 0xfe, 0xeb, 0xff, 0xff, 0x10, 0x00, 0x00, 0x00, 
0x00, 0x00, 0x00, 0x09, 0x28, 0x00, 0x00, 0x00, 0x38, 0x00, 0x00, 0x00, 0xfc, 0xe9, 0xff, 0xff, 0x08, 0x00, 
0x00, 0x00, 0x10, 0x00, 0x00, 0x00, 0x01, 0x00, 0x00, 0x00, 0x80, 0xff, 0xff, 0xff, 0xff, 0xff, 0xff, 0xff, 
0x01, 0x00, 0x00, 0x00, 0x00, 0x00, 0x80, 0x3b, 0x04, 0x00, 0x00, 0x00, 0x01, 0x00, 0x00, 0x00, 0x0c, 0x00, 
0x00, 0x00, 0x0c, 0x00, 0x00, 0x00, 0x03, 0x00, 0x00, 0x00, 0x10, 0x00, 0x00, 0x00, 0x66, 0x75, 0x73, 0x65, 
0x5f, 0x74, 0x72, 0x61, 0x6e, 0x73, 0x66, 0x6f, 0x72, 0x6d, 0x5f, 0x31, 0x00, 0x00, 0x00, 0x00, 0x5e, 0xec, 
0xff, 0xff, 0x10, 0x00, 0x00, 0x00, 0x00, 0x00, 0x00, 0x09, 0x2c, 0x00, 0x00, 0x00, 0x3c, 0x00, 0x00, 0x00, 
0x5c, 0xea, 0xff, 0xff, 0x08, 0x00, 0x00, 0x00, 0x14, 0x00, 0x00, 0x00, 0x01, 0x00, 0x00, 0x00, 0x80, 0xff, 
0xff, 0xff, 0xff, 0xff, 0xff, 0xff, 0x00, 0x00, 0x00, 0x00, 0x01, 0x00, 0x00, 0x00, 0xd6, 0xb0, 0x95, 0x3c, 
0x04, 0x00, 0x00, 0x00, 0x01, 0x00, 0x00, 0x00, 0x32, 0x00, 0x00, 0x00, 0x32, 0x00, 0x00, 0x00, 0x10, 0x00, 
0x00, 0x00, 0x26, 0x00, 0x00, 0x00, 0x69, 0x6e, 0x70, 0x75, 0x74, 0x2e, 0x31, 0x30, 0x5f, 0x74, 0x65, 0x5f, 
0x74, 0x72, 0x61, 0x6e, 0x73, 0x66, 0x6f, 0x72, 0x6d, 0x5f, 0x31, 0x5f, 0x74, 0x65, 0x5f, 0x74, 0x72, 0x61, 
0x6e, 0x73, 0x66, 0x6f, 0x72, 0x6d, 0x5f, 0x32, 0x00, 0x00, 0xd6, 0xec, 0xff, 0xff, 0x10, 0x00, 0x00, 0x00, 
0x00, 0x00, 0x00, 0x09, 0x28, 0x00, 0x00, 0x00, 0x38, 0x00, 0x00, 0x00, 0xd4, 0xea, 0xff, 0xff, 0x08, 0x00, 
0x00, 0x00, 0x10, 0x00, 0x00, 0x00, 0x01, 0x00, 0x00, 0x00, 0x80, 0xff, 0xff, 0xff, 0xff, 0xff, 0xff, 0xff, 
0x01, 0x00, 0x00, 0x00, 0x7e, 0x7e, 0x80, 0x3b, 0x04, 0x00, 0x00, 0x00, 0x01, 0x00, 0x00, 0x00, 0x62, 0x00, 
0x00, 0x00, 0x62, 0x00, 0x00, 0x00, 0x03, 0x00, 0x00, 0x00, 0x25, 0x00, 0x00, 0x00, 0x69, 0x6e, 0x70, 0x75, 
0x74, 0x2e, 0x34, 0x5f, 0x74, 0x65, 0x5f, 0x74, 0x72, 0x61, 0x6e, 0x73, 0x66, 0x6f, 0x72, 0x6d, 0x5f, 0x31, 
0x5f, 0x74, 0x65, 0x5f, 0x74, 0x72, 0x61, 0x6e, 0x73, 0x66, 0x6f, 0x72, 0x6d, 0x5f, 0x32, 0x00, 0x00, 0x00, 
0x5a, 0xeb, 0xff, 0xff, 0x14, 0x00, 0x00, 0x00, 0x00, 0x00, 0x00, 0x02, 0xe0, 0x00, 0x00, 0x00, 0xe4, 0x00, 
0x00, 0x00, 0x11, 0x00, 0x00, 0x00, 0x4c, 0xeb, 0xff, 0xff, 0x08, 0x00, 0x00, 0x00, 0x88, 0x00, 0x00, 0x00, 
0x10, 0x00, 0x00, 0x00, 0x00, 0x00, 0x00, 0x00, 0x00, 0x00, 0x00, 0x00, 0x00, 0x00, 0x00, 0x00, 0x00, 0x00, 
0x00, 0x00, 0x00, 0x00, 0x00, 0x00, 0x00, 0x00, 0x00, 0x00, 0x00, 0x00, 0x00, 0x00, 0x00, 0x00, 0x00, 0x00, 
0x00, 0x00, 0x00, 0x00, 0x00, 0x00, 0x00, 0x00, 0x00, 0x00, 0x00, 0x00, 0x00, 0x00, 0x00, 0x00, 0x00, 0x00, 
0x00, 0x00, 0x00, 0x00, 0x00, 0x00, 0x00, 0x00, 0x00, 0x00, 0x00, 0x00, 0x00, 0x00, 0x00, 0x00, 0x00, 0x00, 
0x00, 0x00, 0x00, 0x00, 0x00, 0x00, 0x00, 0x00, 0x00, 0x00, 0x00, 0x00, 0x00, 0x00, 0x00, 0x00, 0x00, 0x00, 
0x00, 0x00, 0x00, 0x00, 0x00, 0x00, 0x00, 0x00, 0x00, 0x00, 0x00, 0x00, 0x00, 0x00, 0x00, 0x00, 0x00, 0x00, 
0x00, 0x00, 0x00, 0x00, 0x00, 0x00, 0x00, 0x00, 0x00, 0x00, 0x00, 0x00, 0x00, 0x00, 0x00, 0x00, 0x00, 0x00, 
0x00, 0x00, 0x00, 0x00, 0x00, 0x00, 0x10, 0x00, 0x00, 0x00, 0x1b, 0x0f, 0x3c, 0x38, 0x4c, 0xdf, 0x55, 0x38, 
0x7f, 0x6c, 0x66, 0x38, 0x1a, 0x8d, 0x9d, 0x39, 0x6b, 0xd0, 0xa4, 0x39, 0xaa, 0x40, 0xbf, 0x38, 0xb6, 0x32, 
0xa7, 0x38, 0x7f, 0xcd, 0x93, 0x38, 0xcd, 0x58, 0xe1, 0x39, 0x43, 0xd0, 0x17, 0x39, 0x45, 0x9e, 0xaa, 0x38, 
0xe6, 0xcb, 0x68, 0x38, 0xea, 0x6e, 0x23, 0x38, 0xb5, 0x23, 0x79, 0x38, 0xba, 0xd9, 0xf8, 0x37, 0x8a, 0x15, 
0x11, 0x39, 0x01, 0x00, 0x00, 0x00, 0x10, 0x00, 0x00, 0x00, 0x0e, 0x00, 0x00, 0x00, 0x69, 0x6e, 0x70, 0x75, 
0x74, 0x2e, 0x38, 0x5f, 0x61, 0x74, 0x74, 0x72, 0x5f, 0x31, 0x00, 0x00, 0xb4, 0xec, 0xff, 0xff, 0x00, 0x00, 
0x00, 0x02, 0x0c, 0x00, 0x00, 0x00, 0x14, 0x00, 0x00, 0x00, 0x10, 0x00, 0x00, 0x00, 0x02, 0x00, 0x00, 0x00, 
0x04, 0x00, 0x00, 0x00, 0x02, 0x00, 0x00, 0x00, 0x20, 0x00, 0x00, 0x00, 0x69, 0x6e, 0x70, 0x75, 0x74, 0x2e, 
0x34, 0x5f, 0x74, 0x65, 0x5f, 0x74, 0x72, 0x61, 0x6e, 0x73, 0x66, 0x6f, 0x72, 0x6d, 0x5f, 0x31, 0x5f, 0x74, 
0x65, 0x5f, 0x61, 0x74, 0x74, 0x72, 0x5f, 0x32, 0x00, 0x00, 0x00, 0x00, 0xaa, 0xec, 0xff, 0xff, 0x14, 0x00, 
0x00, 0x00, 0x00, 0x00, 0x00, 0x02, 0xe0, 0x00, 0x00, 0x00, 0xe4, 0x00, 0x00, 0x00, 0x0f, 0x00, 0x00, 0x00, 
0x9c, 0xec, 0xff, 0xff, 0x08, 0x00, 0x00, 0x00, 0x88, 0x00, 0x00, 0x00, 0x10, 0x00, 0x00, 0x00, 0x00, 0x00, 
0x00, 0x00, 0x00, 0x00, 0x00, 0x00, 0x00, 0x00, 0x00, 0x00, 0x00, 0x00, 0x00, 0x00, 0x00, 0x00, 0x00, 0x00, 
0x00, 0x00, 0x00, 0x00, 0x00, 0x00, 0x00, 0x00, 0x00, 0x00, 0x00, 0x00, 0x00, 0x00, 0x00, 0x00, 0x00, 0x00, 
0x00, 0x00, 0x00, 0x00, 0x00, 0x00, 0x00, 0x00, 0x00, 0x00, 0x00, 0x00, 0x00, 0x00, 0x00, 0x00, 0x00, 0x00, 
0x00, 0x00, 0x00, 0x00, 0x00, 0x00, 0x00, 0x00, 0x00, 0x00, 0x00, 0x00, 0x00, 0x00, 0x00, 0x00, 0x00, 0x00, 
0x00, 0x00, 0x00, 0x00, 0x00, 0x00, 0x00, 0x00, 0x00, 0x00, 0x00, 0x00, 0x00, 0x00, 0x00, 0x00, 0x00, 0x00, 
0x00, 0x00, 0x00, 0x00, 0x00, 0x00, 0x00, 0x00, 0x00, 0x00, 0x00, 0x00, 0x00, 0x00, 0x00, 0x00, 0x00, 0x00, 
0x00, 0x00, 0x00, 0x00, 0x00, 0x00, 0x00, 0x00, 0x00, 0x00, 0x00, 0x00, 0x00, 0x00, 0x00, 0x00, 0x00, 0x00, 
0x10, 0x00, 0x00, 0x00, 0x88, 0xb6, 0x09, 0x39, 0xe1, 0xf9, 0xbc, 0x38, 0x2f, 0x7a, 0x13, 0x39, 0x1b, 0x8c, 
0xee, 0x38, 0x5c, 0x72, 0x83, 0x38, 0xdd, 0xc6, 0xb6, 0x38, 0x88, 0xe4, 0x76, 0x38, 0xfd, 0x42, 0x8a, 0x38, 
0x69, 0x68, 0xfe, 0x38, 0x00, 0x64, 0xc4, 0x38, 0x7e, 0x16, 0x03, 0x39, 0x7b, 0x62, 0x9f, 0x38, 0x03, 0xa8, 
0x47, 0x39, 0x18, 0xa4, 0x04, 0x39, 0xba, 0xdc, 0x9b, 0x37, 0xc4, 0x7d, 0x5d, 0x38, 0x01, 0x00, 0x00, 0x00, 
0x10, 0x00, 0x00, 0x00, 0x0f, 0x00, 0x00, 0x00, 0x69, 0x6e, 0x70, 0x75, 0x74, 0x2e, 0x31, 0x34, 0x5f, 0x61, 
0x74, 0x74, 0x72, 0x5f, 0x31, 0x00, 0xb2, 0xed, 0xff, 0xff, 0x14, 0x00, 0x00, 0x00, 0x00, 0x00, 0x00, 0x02, 
0x48, 0x00, 0x00, 0x00, 0x4c, 0x00, 0x00, 0x00, 0x0e, 0x00, 0x00, 0x00, 0xa4, 0xed, 0xff, 0xff, 0x08, 0x00, 
0x00, 0x00, 0x24, 0x00, 0x00, 0x00, 0x03, 0x00, 0x00, 0x00, 0x00, 0x00, 0x00, 0x00, 0x00, 0x00, 0x00, 0x00, 
0x00, 0x00, 0x00, 0x00, 0x00, 0x00, 0x00, 0x00, 0x00, 0x00, 0x00, 0x00, 0x00, 0x00, 0x00, 0x00, 0x00, 0x00, 
0x00, 0x00, 0x03, 0x00, 0x00, 0x00, 0xd3, 0xb9, 0xbb, 0x38, 0x8b, 0x3d, 0x2e, 0x39, 0x61, 0xd0, 0x14, 0x39, 
0x01, 0x00, 0x00, 0x00, 0x03, 0x00, 0x00, 0x00, 0x0b, 0x00, 0x00, 0x00, 0x58, 0x71, 0x2e, 0x34, 0x5f, 0x61, 
0x74, 0x74, 0x72, 0x5f, 0x31, 0x00, 0x0e, 0xf0, 0xff, 0xff, 0x10, 0x00, 0x00, 0x00, 0x00, 0x00, 0x00, 0x09, 
0x28, 0x00, 0x00, 0x00, 0x38, 0x00, 0x00, 0x00, 0x0c, 0xee, 0xff, 0xff, 0x08, 0x00, 0x00, 0x00, 0x10, 0x00, 
0x00, 0x00, 0x01, 0x00, 0x00, 0x00, 0x80, 0xff, 0xff, 0xff, 0xff, 0xff, 0xff, 0xff, 0x01, 0x00, 0x00, 0x00, 
0x51, 0xc0, 0xbf, 0x3c, 0x04, 0x00, 0x00, 0x00, 0x01, 0x00, 0x00, 0x00, 0x0c, 0x00, 0x00, 0x00, 0x0c, 0x00, 
0x00, 0x00, 0x30, 0x00, 0x00, 0x00, 0x11, 0x00, 0x00, 0x00, 0x58, 0x71, 0x2e, 0x34, 0x5f, 0x74, 0x65, 0x5f, 
0x74, 0x72, 0x61, 0x6e, 0x73, 0x66, 0x6f, 0x72, 0x6d, 0x00, 0x00, 0x00, 0x6e, 0xf0, 0xff, 0xff, 0x10, 0x00, 
0x00, 0x00, 0x00, 0x00, 0x00, 0x09, 0x28, 0x00, 0x00, 0x00, 0x38, 0x00, 0x00, 0x00, 0x6c, 0xee, 0xff, 0xff, 
0x08, 0x00, 0x00, 0x00, 0x10, 0x00, 0x00, 0x00, 0x01, 0x00, 0x00, 0x00, 0x80, 0xff, 0xff, 0xff, 0xff, 0xff, 
0xff, 0xff, 0x01, 0x00, 0x00, 0x00, 0xa9, 0xc4, 0xe5, 0x3c, 0x04, 0x00, 0x00, 0x00, 0x01, 0x00, 0x00, 0x00, 
0x18, 0x00, 0x00, 0x00, 0x18, 0x00, 0x00, 0x00, 0x10, 0x00, 0x00, 0x00, 0x15, 0x00, 0x00, 0x00, 0x69, 0x6e, 
0x70, 0x75, 0x74, 0x2e, 0x31, 0x32, 0x5f, 0x74, 0x65, 0x5f, 0x74, 0x72, 0x61, 0x6e, 0x73, 0x66, 0x6f, 0x72, 
0x6d, 0x00, 0x00, 0x00, 0xe2, 0xee, 0xff, 0xff, 0x14, 0x00, 0x00, 0x00, 0x00, 0x00, 0x00, 0x09, 0x64, 0x02, 
0x00, 0x00, 0x74, 0x02, 0x00, 0x00, 0x0d, 0x00, 0x00, 0x00, 0xd4, 0xee, 0xff, 0xff, 0x08, 0x00, 0x00, 0x00, 
0x8c, 0x01, 0x00, 0x00, 0x30, 0x00, 0x00, 0x00, 0x00, 0x00, 0x00, 0x00, 0x00, 0x00, 0x00, 0x00, 0x00, 0x00, 
0x00, 0x00, 0x00, 0x00, 0x00, 0x00, 0x00, 0x00, 0x00, 0x00, 0x00, 0x00, 0x00, 0x00, 0x00, 0x00, 0x00, 0x00, 
0x00, 0x00, 0x00, 0x00, 0x00, 0x00, 0x00, 0x00, 0x00, 0x00, 0x00, 0x00, 0x00, 0x00, 0x00, 0x00, 0x00, 0x00, 
0x00, 0x00, 0x00, 0x00, 0x00, 0x00, 0x00, 0x00, 0x00, 0x00, 0x00, 0x00, 0x00, 0x00, 0x00, 0x00, 0x00, 0x00, 
0x00, 0x00, 0x00, 0x00, 0x00, 0x00, 0x00, 0x00, 0x00, 0x00, 0x00, 0x00, 0x00, 0x00, 0x00, 0x00, 0x00, 0x00, 
0x00, 0x00, 0x00, 0x00, 0x00, 0x00, 0x00, 0x00, 0x00, 0x00, 0x00, 0x00, 0x00, 0x00, 0x00, 0x00, 0x00, 0x00, 
0x00, 0x00, 0x00, 0x00, 0x00, 0x00, 0x00, 0x00, 0x00, 0x00, 0x00, 0x00, 0x00, 0x00, 0x00, 0x00, 0x00, 0x00, 
0x00, 0x00, 0x00, 0x00, 0x00, 0x00, 0x00, 0x00, 0x00, 0x00, 0x00, 0x00, 0x00, 0x00, 0x00, 0x00, 0x00, 0x00, 
0x00, 0x00, 0x00, 0x00, 0x00, 0x00, 0x00, 0x00, 0x00, 0x00, 0x00, 0x00, 0x00, 0x00, 0x00, 0x00, 0x00, 0x00, 
0x00, 0x00, 0x00, 0x00, 0x00, 0x00, 0x00, 0x00, 0x00, 0x00, 0x00, 0x00, 0x00, 0x00, 0x00, 0x00, 0x00, 0x00, 
0x00, 0x00, 0x00, 0x00, 0x00, 0x00, 0x00, 0x00, 0x00, 0x00, 0x00, 0x00, 0x00, 0x00, 0x00, 0x00, 0x00, 0x00, 
0x00, 0x00, 0x00, 0x00, 0x00, 0x00, 0x00, 0x00, 0x00, 0x00, 0x00, 0x00, 0x00, 0x00, 0x00, 0x00, 0x00, 0x00, 
0x00, 0x00, 0x00, 0x00, 0x00, 0x00, 0x00, 0x00, 0x00, 0x00, 0x00, 0x00, 0x00, 0x00, 0x00, 0x00, 0x00, 0x00, 
0x00, 0x00, 0x00, 0x00, 0x00, 0x00, 0x00, 0x00, 0x00, 0x00, 0x00, 0x00, 0x00, 0x00, 0x00, 0x00, 0x00, 0x00, 
0x00, 0x00, 0x00, 0x00, 0x00, 0x00, 0x00, 0x00, 0x00, 0x00, 0x00, 0x00, 0x00, 0x00, 0x00, 0x00, 0x00, 0x00, 
0x00, 0x00, 0x00, 0x00, 0x00, 0x00, 0x00, 0x00, 0x00, 0x00, 0x00, 0x00, 0x00, 0x00, 0x00, 0x00, 0x00, 0x00, 
0x00, 0x00, 0x00, 0x00, 0x00, 0x00, 0x00, 0x00, 0x00, 0x00, 0x00, 0x00, 0x00, 0x00, 0x00, 0x00, 0x00, 0x00, 
0x00, 0x00, 0x00, 0x00, 0x00, 0x00, 0x00, 0x00, 0x00, 0x00, 0x00, 0x00, 0x00, 0x00, 0x00, 0x00, 0x00, 0x00, 
0x00, 0x00, 0x00, 0x00, 0x00, 0x00, 0x00, 0x00, 0x00, 0x00, 0x00, 0x00, 0x00, 0x00, 0x00, 0x00, 0x00, 0x00, 
0x00, 0x00, 0x00, 0x00, 0x00, 0x00, 0x00, 0x00, 0x00, 0x00, 0x00, 0x00, 0x00, 0x00, 0x00, 0x00, 0x00, 0x00, 
0x00, 0x00, 0x00, 0x00, 0x00, 0x00, 0x00, 0x00, 0x00, 0x00, 0x00, 0x00, 0x00, 0x00, 0x00, 0x00, 0x00, 0x00, 
0x00, 0x00, 0x00, 0x00, 0x00, 0x00, 0x00, 0x00, 0x00, 0x00, 0x00, 0x00, 0x00, 0x00, 0x00, 0x00, 0x00, 0x00, 
0x30, 0x00, 0x00, 0x00, 0xe9, 0x85, 0xed, 0x3a, 0x3c, 0x5c, 0x57, 0x3a, 0xc2, 0xdf, 0x2f, 0x3b, 0xdf, 0xd3, 
0xaa, 0x3a, 0x35, 0xca, 0xed, 0x3a, 0xda, 0xee, 0x1f, 0x3b, 0xba, 0x12, 0x78, 0x3a, 0x4a, 0xf7, 0xa9, 0x3a, 
0x4c, 0x0e, 0xc2, 0x3a, 0xf0, 0x27, 0xa0, 0x3a, 0xf1, 0x25, 0xb4, 0x3a, 0x43, 0x31, 0xcc, 0x3a, 0x74, 0xf1, 
0x56, 0x3a, 0x0c, 0x4d, 0x10, 0x3b, 0x12, 0xb8, 0x9e, 0x3a, 0xcb, 0x0d, 0x96, 0x3a, 0xbb, 0x19, 0xdb, 0x3a, 
0x00, 0x32, 0x9f, 0x3a, 0xfb, 0x63, 0xf4, 0x3a, 0xa9, 0x29, 0x9a, 0x3a, 0x45, 0x88, 0xf7, 0x3b, 0x13, 0x44, 
0x1d, 0x3b, 0x64, 0x44, 0x8c, 0x3a, 0x16, 0xfc, 0x10, 0x3b, 0x55, 0x49, 0xcc, 0x3a, 0xf0, 0x12, 0x6a, 0x3a, 
0x97, 0x90, 0xa3, 0x3a, 0xdc, 0x23, 0xc9, 0x3a, 0x9a, 0x5e, 0xc5, 0x3a, 0x4c, 0x26, 0xf5, 0x3a, 0x15, 0xd4, 
0xf2, 0x3a, 0x53, 0x5c, 0x07, 0x3b, 0x69, 0x56, 0xe9, 0x3a, 0xb7, 0x1d, 0xad, 0x3a, 0xa7, 0x09, 0xa0, 0x3a, 
0xfa, 0x3d, 0xe1, 0x3a, 0xb5, 0x54, 0x37, 0x3b, 0x4c, 0x8d, 0x7f, 0x3a, 0x66, 0xc8, 0x42, 0x3a, 0xe5, 0xd2, 
0xff, 0x3a, 0xbc, 0x61, 0x09, 0x3b, 0xe5, 0xc8, 0xf3, 0x3a, 0x65, 0x99, 0xfd, 0x3a, 0x46, 0x6f, 0x80, 0x3a, 
0xb3, 0x55, 0xb4, 0x3a, 0xd5, 0xde, 0x97, 0x3a, 0xe5, 0x8c, 0x21, 0x3c, 0xec, 0x7f, 0xc4, 0x3a, 0x04, 0x00, 
0x00, 0x00, 0x30, 0x00, 0x00, 0x00, 0x03, 0x00, 0x00, 0x00, 0x03, 0x00, 0x00, 0x00, 0x10, 0x00, 0x00, 0x00, 
0x0c, 0x00, 0x00, 0x00, 0x66, 0x75, 0x73, 0x65, 0x5f, 0x61, 0x74, 0x74, 0x72, 0x5f, 0x31, 0x34, 0x00, 0x00, 
0x00, 0x00, 0x7a, 0xf1, 0xff, 0xff, 0x14, 0x00, 0x00, 0x00, 0x00, 0x00, 0x00, 0x02, 0x64, 0x02, 0x00, 0x00, 
0x68, 0x02, 0x00, 0x00, 0x0c, 0x00, 0x00, 0x00, 0x6c, 0xf1, 0xff, 0xff, 0x08, 0x00, 0x00, 0x00, 0x8c, 0x01, 
0x00, 0x00, 0x30, 0x00, 0x00, 0x00, 0x00, 0x00, 0x00, 0x00, 0x00, 0x00, 0x00, 0x00, 0x00, 0x00, 0x00, 0x00, 
0x00, 0x00, 0x00, 0x00, 0x00, 0x00, 0x00, 0x00, 0x00, 0x00, 0x00, 0x00, 0x00, 0x00, 0x00, 0x00, 0x00, 0x00, 
0x00, 0x00, 0x00, 0x00, 0x00, 0x00, 0x00, 0x00, 0x00, 0x00, 0x00, 0x00, 0x00, 0x00, 0x00, 0x00, 0x00, 0x00, 
0x00, 0x00, 0x00, 0x00, 0x00, 0x00, 0x00, 0x00, 0x00, 0x00, 0x00, 0x00, 0x00, 0x00, 0x00, 0x00, 0x00, 0x00, 
0x00, 0x00, 0x00, 0x00, 0x00, 0x00, 0x00, 0x00, 0x00, 0x00, 0x00, 0x00, 0x00, 0x00, 0x00, 0x00, 0x00, 0x00, 
0x00, 0x00, 0x00, 0x00, 0x00, 0x00, 0x00, 0x00, 0x00, 0x00, 0x00, 0x00, 0x00, 0x00, 0x00, 0x00, 0x00, 0x00, 
0x00, 0x00, 0x00, 0x00, 0x00, 0x00, 0x00, 0x00, 0x00, 0x00, 0x00, 0x00, 0x00, 0x00, 0x00, 0x00, 0x00, 0x00, 
0x00, 0x00, 0x00, 0x00, 0x00, 0x00, 0x00, 0x00, 0x00, 0x00, 0x00, 0x00, 0x00, 0x00, 0x00, 0x00, 0x00, 0x00, 
0x00, 0x00, 0x00, 0x00, 0x00, 0x00, 0x00, 0x00, 0x00, 0x00, 0x00, 0x00, 0x00, 0x00, 0x00, 0x00, 0x00, 0x00, 
0x00, 0x00, 0x00, 0x00, 0x00, 0x00, 0x00, 0x00, 0x00, 0x00, 0x00, 0x00, 0x00, 0x00, 0x00, 0x00, 0x00, 0x00, 
0x00, 0x00, 0x00, 0x00, 0x00, 0x00, 0x00, 0x00, 0x00, 0x00, 0x00, 0x00, 0x00, 0x00, 0x00, 0x00, 0x00, 0x00, 
0x00, 0x00, 0x00, 0x00, 0x00, 0x00, 0x00, 0x00, 0x00, 0x00, 0x00, 0x00, 0x00, 0x00, 0x00, 0x00, 0x00, 0x00, 
0x00, 0x00, 0x00, 0x00, 0x00, 0x00, 0x00, 0x00, 0x00, 0x00, 0x00, 0x00, 0x00, 0x00, 0x00, 0x00, 0x00, 0x00, 
0x00, 0x00, 0x00, 0x00, 0x00, 0x00, 0x00, 0x00, 0x00, 0x00, 0x00, 0x00, 0x00, 0x00, 0x00, 0x00, 0x00, 0x00, 
0x00, 0x00, 0x00, 0x00, 0x00, 0x00, 0x00, 0x00, 0x00, 0x00, 0x00, 0x00, 0x00, 0x00, 0x00, 0x00, 0x00, 0x00, 
0x00, 0x00, 0x00, 0x00, 0x00, 0x00, 0x00, 0x00, 0x00, 0x00, 0x00, 0x00, 0x00, 0x00, 0x00, 0x00, 0x00, 0x00, 
0x00, 0x00, 0x00, 0x00, 0x00, 0x00, 0x00, 0x00, 0x00, 0x00, 0x00, 0x00, 0x00, 0x00, 0x00, 0x00, 0x00, 0x00, 
0x00, 0x00, 0x00, 0x00, 0x00, 0x00, 0x00, 0x00, 0x00, 0x00, 0x00, 0x00, 0x00, 0x00, 0x00, 0x00, 0x00, 0x00, 
0x00, 0x00, 0x00, 0x00, 0x00, 0x00, 0x00, 0x00, 0x00, 0x00, 0x00, 0x00, 0x00, 0x00, 0x00, 0x00, 0x00, 0x00, 
0x00, 0x00, 0x00, 0x00, 0x00, 0x00, 0x00, 0x00, 0x00, 0x00, 0x00, 0x00, 0x00, 0x00, 0x00, 0x00, 0x00, 0x00, 
0x00, 0x00, 0x00, 0x00, 0x00, 0x00, 0x00, 0x00, 0x00, 0x00, 0x00, 0x00, 0x00, 0x00, 0x00, 0x00, 0x00, 0x00, 
0x00, 0x00, 0x00, 0x00, 0x00, 0x00, 0x00, 0x00, 0x00, 0x00, 0x00, 0x00, 0x00, 0x00, 0x00, 0x00, 0x30, 0x00, 
0x00, 0x00, 0x54, 0x23, 0x43, 0x38, 0x19, 0xee, 0xb0, 0x37, 0x71, 0x7d, 0x90, 0x38, 0x16, 0x58, 0x0c, 0x38, 
0x70, 0x5b, 0x43, 0x38, 0xc2, 0x64, 0x83, 0x38, 0x32, 0xce, 0xcb, 0x37, 0xde, 0xa2, 0x0b, 0x38, 0x65, 0x6d, 
0x1f, 0x38, 0xa8, 0x93, 0x03, 0x38, 0x5f, 0x00, 0x14, 0x38, 0x4c, 0xc1, 0x27, 0x38, 0x5f, 0x96, 0xb0, 0x37, 
0x1e, 0x1a, 0x6d, 0x38, 0x6f, 0x65, 0x02, 0x38, 0xff, 0x8d, 0xf6, 0x37, 0xbc, 0x00, 0x34, 0x38, 0x9b, 0xc9, 
0x02, 0x38, 0xad, 0xc7, 0x48, 0x38, 0x54, 0x4e, 0xfd, 0x37, 0x72, 0x5c, 0x4b, 0x39, 0xd1, 0x33, 0x81, 0x38, 
0x5a, 0x79, 0xe6, 0x37, 0xba, 0x39, 0x6e, 0x38, 0x13, 0xd5, 0x27, 0x38, 0xeb, 0x4d, 0xc0, 0x37, 0x96, 0x60, 
0x06, 0x38, 0x56, 0x3f, 0x25, 0x38, 0x53, 0x26, 0x22, 0x38, 0x52, 0x67, 0x49, 0x38, 0x24, 0x7f, 0x47, 0x38, 
0x80, 0x69, 0x5e, 0x38, 0x09, 0xb3, 0x3f, 0x38, 0x63, 0x39, 0x0e, 0x38, 0xc6, 0x7a, 0x03, 0x38, 0x6b, 0x0c, 
0x39, 0x38, 0xbf, 0x9d, 0x96, 0x38, 0x1e, 0xf3, 0xd1, 0x37, 0x4a, 0x06, 0xa0, 0x37, 0x4c, 0x2c, 0x52, 0x38, 
0xa9, 0xbb, 0x61, 0x38, 0x44, 0x48, 0x48, 0x38, 0x6c, 0x58, 0x50, 0x38, 0x30, 0x08, 0xd3, 0x37, 0x9b, 0x27, 
0x14, 0x38, 0x1b, 0x8a, 0xf9, 0x37, 0xea, 0xb8, 0x84, 0x39, 0x61, 0x6f, 0x21, 0x38, 0x01, 0x00, 0x00, 0x00, 
0x30, 0x00, 0x00, 0x00, 0x0a, 0x00, 0x00, 0x00, 0x32, 0x30, 0x31, 0x5f, 0x61, 0x74, 0x74, 0x72, 0x5f, 0x31, 
0x00, 0x00, 0x02, 0xf4, 0xff, 0xff, 0x14, 0x00, 0x00, 0x00, 0x00, 0x00, 0x00, 0x02, 0xe4, 0x00, 0x00, 0x00, 
0xe8, 0x00, 0x00, 0x00, 0x0b, 0x00, 0x00, 0x00, 0xf4, 0xf3, 0xff, 0xff, 0x08, 0x00, 0x00, 0x00, 0x8c, 0x00, 
0x00, 0x00, 0x10, 0x00, 0x00, 0x00, 0x00, 0x00, 0x00, 0x00, 0x00, 0x00, 0x00, 0x00, 0x00, 0x00, 0x00, 0x00, 
0x00, 0x00, 0x00, 0x00, 0x00, 0x00, 0x00, 0x00, 0x00, 0x00, 0x00, 0x00, 0x00, 0x00, 0x00, 0x00, 0x00, 0x00, 
0x00, 0x00, 0x00, 0x00, 0x00, 0x00, 0x00, 0x00, 0x00, 0x00, 0x00, 0x00, 0x00, 0x00, 0x00, 0x00, 0x00, 0x00, 
0x00, 0x00, 0x00, 0x00, 0x00, 0x00, 0x00, 0x00, 0x00, 0x00, 0x00, 0x00, 0x00, 0x00, 0x00, 0x00, 0x00, 0x00, 
0x00, 0x00, 0x00, 0x00, 0x00, 0x00, 0x00, 0x00, 0x00, 0x00, 0x00, 0x00, 0x00, 0x00, 0x00, 0x00, 0x00, 0x00, 
0x00, 0x00, 0x00, 0x00, 0x00, 0x00, 0x00, 0x00, 0x00, 0x00, 0x00, 0x00, 0x00, 0x00, 0x00, 0x00, 0x00, 0x00, 
0x00, 0x00, 0x00, 0x00, 0x00, 0x00, 0x00, 0x00, 0x00, 0x00, 0x00, 0x00, 0x00, 0x00, 0x00, 0x00, 0x00, 0x00, 
0x00, 0x00, 0x00, 0x00, 0x00, 0x00, 0x00, 0x00, 0x00, 0x00, 0x00, 0x00, 0x10, 0x00, 0x00, 0x00, 0x7b, 0xf5, 
0xa8, 0x38, 0xec, 0x1e, 0x3b, 0x39, 0x05, 0x3b, 0x4b, 0x39, 0xba, 0x88, 0xb0, 0x38, 0x24, 0xa2, 0x35, 0x39, 
0x8e, 0x1e, 0x35, 0x38, 0xac, 0x81, 0x49, 0x39, 0x2a, 0x8d, 0x60, 0x39, 0x7a, 0x6a, 0xc1, 0x38, 0x53, 0xd0, 
0x0f, 0x39, 0x81, 0xdc, 0x1d, 0x38, 0x7d, 0xab, 0x29, 0x38, 0x19, 0xf5, 0xdf, 0x37, 0x09, 0xe6, 0xce, 0x37, 
0x15, 0xac, 0x61, 0x37, 0x69, 0xe3, 0x90, 0x38, 0x01, 0x00, 0x00, 0x00, 0x10, 0x00, 0x00, 0x00, 0x0f, 0x00, 
0x00, 0x00, 0x69, 0x6e, 0x70, 0x75, 0x74, 0x2e, 0x31, 0x30, 0x5f, 0x61, 0x74, 0x74, 0x72, 0x5f, 0x31, 0x00, 
0xfe, 0xf6, 0xff, 0xff, 0x10, 0x00, 0x00, 0x00, 0x00, 0x00, 0x00, 0x09, 0x2c, 0x00, 0x00, 0x00, 0x3c, 0x00, 
0x00, 0x00, 0xfc, 0xf4, 0xff, 0xff, 0x08, 0x00, 0x00, 0x00, 0x14, 0x00, 0x00, 0x00, 0x01, 0x00, 0x00, 0x00, 
0x80, 0xff, 0xff, 0xff, 0xff, 0xff, 0xff, 0xff, 0x00, 0x00, 0x00, 0x00, 0x01, 0x00, 0x00, 0x00, 0x5a, 0x51, 
0xd2, 0x3c, 0x04, 0x00, 0x00, 0x00, 0x01, 0x00, 0x00, 0x00, 0x0c, 0x00, 0x00, 0x00, 0x0c, 0x00, 0x00, 0x00, 
0x10, 0x00, 0x00, 0x00, 0x14, 0x00, 0x00, 0x00, 0x69, 0x6e, 0x70, 0x75, 0x74, 0x2e, 0x31, 0x5f, 0x74, 0x65, 
0x5f, 0x74, 0x72, 0x61, 0x6e, 0x73, 0x66, 0x6f, 0x72, 0x6d, 0x00, 0x00, 0x00, 0x00, 0x66, 0xf7, 0xff, 0xff, 
0x10, 0x00, 0x00, 0x00, 0x00, 0x00, 0x00, 0x09, 0x2c, 0x00, 0x00, 0x00, 0x3c, 0x00, 0x00, 0x00, 0x64, 0xf5, 
0xff, 0xff, 0x08, 0x00, 0x00, 0x00, 0x14, 0x00, 0x00, 0x00, 0x01, 0x00, 0x00, 0x00, 0x80, 0xff, 0xff, 0xff, 
0xff, 0xff, 0xff, 0xff, 0x00, 0x00, 0x00, 0x00, 0x01, 0x00, 0x00, 0x00, 0xf4, 0xd5, 0xaa, 0x3c, 0x04, 0x00, 
0x00, 0x00, 0x01, 0x00, 0x00, 0x00, 0x1a, 0x00, 0x00, 0x00, 0x1a, 0x00, 0x00, 0x00, 0x10, 0x00, 0x00, 0x00, 
0x26, 0x00, 0x00, 0x00, 0x69, 0x6e, 0x70, 0x75, 0x74, 0x2e, 0x31, 0x34, 0x5f, 0x74, 0x65, 0x5f, 0x74, 0x72, 
0x61, 0x6e, 0x73, 0x66, 0x6f, 0x72, 0x6d, 0x5f, 0x31, 0x5f, 0x74, 0x65, 0x5f, 0x74, 0x72, 0x61, 0x6e, 0x73, 
0x66, 0x6f, 0x72, 0x6d, 0x5f, 0x32, 0x00, 0x00, 0xee, 0xf5, 0xff, 0xff, 0x14, 0x00, 0x00, 0x00, 0x00, 0x00, 
0x00, 0x09, 0xe8, 0x00, 0x00, 0x00, 0xf8, 0x00, 0x00, 0x00, 0x0a, 0x00, 0x00, 0x00, 0x6a, 0xf7, 0xff, 0xff, 
0x03, 0x00, 0x00, 0x00, 0x08, 0x00, 0x00, 0x00, 0x8c, 0x00, 0x00, 0x00, 0x10, 0x00, 0x00, 0x00, 0x00, 0x00, 
0x00, 0x00, 0x00, 0x00, 0x00, 0x00, 0x00, 0x00, 0x00, 0x00, 0x00, 0x00, 0x00, 0x00, 0x00, 0x00, 0x00, 0x00, 
0x00, 0x00, 0x00, 0x00, 0x00, 0x00, 0x00, 0x00, 0x00, 0x00, 0x00, 0x00, 0x00, 0x00, 0x00, 0x00, 0x00, 0x00, 
0x00, 0x00, 0x00, 0x00, 0x00, 0x00, 0x00, 0x00, 0x00, 0x00, 0x00, 0x00, 0x00, 0x00, 0x00, 0x00, 0x00, 0x00, 
0x00, 0x00, 0x00, 0x00, 0x00, 0x00, 0x00, 0x00, 0x00, 0x00, 0x00, 0x00, 0x00, 0x00, 0x00, 0x00, 0x00, 0x00, 
0x00, 0x00, 0x00, 0x00, 0x00, 0x00, 0x00, 0x00, 0x00, 0x00, 0x00, 0x00, 0x00, 0x00, 0x00, 0x00, 0x00, 0x00, 
0x00, 0x00, 0x00, 0x00, 0x00, 0x00, 0x00, 0x00, 0x00, 0x00, 0x00, 0x00, 0x00, 0x00, 0x00, 0x00, 0x00, 0x00, 
0x00, 0x00, 0x00, 0x00, 0x00, 0x00, 0x00, 0x00, 0x00, 0x00, 0x00, 0x00, 0x00, 0x00, 0x00, 0x00, 0x00, 0x00, 
