

#include "fomo_model_data.h"

// Keep model aligned to 8 bytes to guarantee aligned 64-bit accesses.
alignas(8) const unsigned char g_fomo_model_data[] = {
    0x20, 0x00, 0x00, 0x00, 0x54, 0x46, 0x4C, 0x33, 0x00, 0x00, 0x00, 0x00, 0x14, 0x00, 0x20, 0x00,
    0x1C, 0x00, 0x18, 0x00, 0x14, 0x00, 0x10, 0x00, 0x0C, 0x00, 0x00, 0x00, 0x08, 0x00, 0x04, 0x00,
    0x14, 0x00, 0x00, 0x00, 0x1C, 0x00, 0x00, 0x00, 0x8C, 0x00, 0x00, 0x00, 0xBC, 0x00, 0x00, 0x00,
    0x18, 0x2F, 0x00, 0x00, 0x28, 0x2F, 0x00, 0x00, 0x50, 0x9F, 0x00, 0x00, 0x03, 0x00, 0x00, 0x00,
    0x01, 0x00, 0x00, 0x00, 0x10, 0x00, 0x00, 0x00, 0x00, 0x00, 0x0A, 0x00, 0x10, 0x00, 0x0C, 0x00,
    0x08, 0x00, 0x04, 0x00, 0x0A, 0x00, 0x00, 0x00, 0x0C, 0x00, 0x00, 0x00, 0x1C, 0x00, 0x00, 0x00,
    0x3C, 0x00, 0x00, 0x00, 0x0F, 0x00, 0x00, 0x00, 0x73, 0x65, 0x72, 0x76, 0x69, 0x6E, 0x67, 0x5F,
    0x64, 0x65, 0x66, 0x61, 0x75, 0x6C, 0x74, 0x00, 0x01, 0x00, 0x00, 0x00, 0x04, 0x00, 0x00, 0x00,
    0xC4, 0xFF, 0xFF, 0xFF, 0x47, 0x00, 0x00, 0x00, 0x04, 0x00, 0x00, 0x00, 0x08, 0x00, 0x00, 0x00,
    0x6F, 0x75, 0x74, 0x70, 0x75, 0x74, 0x5F, 0x30, 0x00, 0x00, 0x00, 0x00, 0x01, 0x00, 0x00, 0x00,
    0x04, 0x00, 0x00, 0x00, 0x7E, 0xD0, 0xFF, 0xFF, 0x04, 0x00, 0x00, 0x00, 0x01, 0x00, 0x00, 0x00,
    0x78, 0x00, 0x00, 0x00, 0x01, 0x00, 0x00, 0x00, 0x0C, 0x00, 0x00, 0x00, 0x08, 0x00, 0x0C, 0x00,
    0x08, 0x00, 0x04, 0x00, 0x08, 0x00, 0x00, 0x00, 0x49, 0x00, 0x00, 0x00, 0x04, 0x00, 0x00, 0x00,
    0x13, 0x00, 0x00, 0x00, 0x6D, 0x69, 0x6E, 0x5F, 0x72, 0x75, 0x6E, 0x74, 0x69, 0x6D, 0x65, 0x5F,
    0x76, 0x65, 0x72, 0x73, 0x69, 0x6F, 0x6E, 0x00, 0x4A, 0x00, 0x00, 0x00, 0x58, 0x2E, 0x00, 0x00,
    0x50, 0x2E, 0x00, 0x00, 0x20, 0x2E, 0x00, 0x00, 0x38, 0x2D, 0x00, 0x00, 0x08, 0x2D, 0x00, 0x00,
    0xB0, 0x2C, 0x00, 0x00, 0x80, 0x2C, 0x00, 0x00, 0x30, 0x2C, 0x00, 0x00, 0x00, 0x2C, 0x00, 0x00,
    0x70, 0x2A, 0x00, 0x00, 0xA0, 0x29, 0x00, 0x00, 0xE0, 0x27, 0x00, 0x00, 0x10, 0x27, 0x00, 0x00,
    0x80, 0x25, 0x00, 0x00, 0x50, 0x25, 0x00, 0x00, 0xC0, 0x23, 0x00, 0x00, 0xF0, 0x22, 0x00, 0x00,
    0x30, 0x21, 0x00, 0x00, 0x60, 0x20, 0x00, 0x00, 0xD0, 0x1E, 0x00, 0x00, 0xA0, 0x1E, 0x00, 0x00,
    0x10, 0x1D, 0x00, 0x00, 0x40, 0x1C, 0x00, 0x00, 0x80, 0x1A, 0x00, 0x00, 0xB0, 0x19, 0x00, 0x00,
    0x20, 0x18, 0x00, 0x00, 0xF0, 0x17, 0x00, 0x00, 0x60, 0x16, 0x00, 0x00, 0x90, 0x15, 0x00, 0x00,
    0xD0, 0x13, 0x00, 0x00, 0x00, 0x13, 0x00, 0x00, 0x70, 0x11, 0x00, 0x00, 0x40, 0x11, 0x00, 0x00,
    0xB0, 0x0F, 0x00, 0x00, 0xE0, 0x0E, 0x00, 0x00, 0x20, 0x0D, 0x00, 0x00, 0x50, 0x0C, 0x00, 0x00,
    0xC0, 0x0A, 0x00, 0x00, 0x90, 0x0A, 0x00, 0x00, 0x00, 0x09, 0x00, 0x00, 0x30, 0x08, 0x00, 0x00,
    0x20, 0x02, 0x00, 0x00, 0x90, 0x01, 0x00, 0x00, 0x20, 0x01, 0x00, 0x00, 0x04, 0x01, 0x00, 0x00,
    0xFC, 0x00, 0x00, 0x00, 0xF4, 0x00, 0x00, 0x00, 0xEC, 0x00, 0x00, 0x00, 0xE4, 0x00, 0x00, 0x00,
    0xDC, 0x00, 0x00, 0x00, 0xD4, 0x00, 0x00, 0x00, 0xCC, 0x00, 0x00, 0x00, 0xC4, 0x00, 0x00, 0x00,
    0xBC, 0x00, 0x00, 0x00, 0xB4, 0x00, 0x00, 0x00, 0xAC, 0x00, 0x00, 0x00, 0xA4, 0x00, 0x00, 0x00,
    0x9C, 0x00, 0x00, 0x00, 0x94, 0x00, 0x00, 0x00, 0x8C, 0x00, 0x00, 0x00, 0x84, 0x00, 0x00, 0x00,
    0x7C, 0x00, 0x00, 0x00, 0x74, 0x00, 0x00, 0x00, 0x6C, 0x00, 0x00, 0x00, 0x64, 0x00, 0x00, 0x00,
    0x5C, 0x00, 0x00, 0x00, 0x54, 0x00, 0x00, 0x00, 0x4C, 0x00, 0x00, 0x00, 0x44, 0x00, 0x00, 0x00,
    0x3C, 0x00, 0x00, 0x00, 0x34, 0x00, 0x00, 0x00, 0x2C, 0x00, 0x00, 0x00, 0x24, 0x00, 0x00, 0x00,
    0x04, 0x00, 0x00, 0x00, 0xEE, 0xD1, 0xFF, 0xFF, 0x04, 0x00, 0x00, 0x00, 0x10, 0x00, 0x00, 0x00,
    0x31, 0x2E, 0x31, 0x34, 0x2E, 0x30, 0x00, 0x00, 0x00, 0x00, 0x00, 0x00, 0x00, 0x00, 0x00, 0x00,
    0x68, 0x63, 0xFF, 0xFF, 0x6C, 0x63, 0xFF, 0xFF, 0x70, 0x63, 0xFF, 0xFF, 0x74, 0x63, 0xFF, 0xFF,
    0x78, 0x63, 0xFF, 0xFF, 0x7C, 0x63, 0xFF, 0xFF, 0x80, 0x63, 0xFF, 0xFF, 0x84, 0x63, 0xFF, 0xFF,
    0x88, 0x63, 0xFF, 0xFF, 0x8C, 0x63, 0xFF, 0xFF, 0x90, 0x63, 0xFF, 0xFF, 0x94, 0x63, 0xFF, 0xFF,
    0x98, 0x63, 0xFF, 0xFF, 0x9C, 0x63, 0xFF, 0xFF, 0xA0, 0x63, 0xFF, 0xFF, 0xA4, 0x63, 0xFF, 0xFF,
    0xA8, 0x63, 0xFF, 0xFF, 0xAC, 0x63, 0xFF, 0xFF, 0xB0, 0x63, 0xFF, 0xFF, 0xB4, 0x63, 0xFF, 0xFF,
    0xB8, 0x63, 0xFF, 0xFF, 0xBC, 0x63, 0xFF, 0xFF, 0xC0, 0x63, 0xFF, 0xFF, 0xC4, 0x63, 0xFF, 0xFF,
    0xC8, 0x63, 0xFF, 0xFF, 0xCC, 0x63, 0xFF, 0xFF, 0xD0, 0x63, 0xFF, 0xFF, 0xD4, 0x63, 0xFF, 0xFF,
    0x7A, 0xD2, 0xFF, 0xFF, 0x04, 0x00, 0x00, 0x00, 0x0C, 0x00, 0x00, 0x00, 0xC8, 0x4A, 0x00, 0x00,
    0x43, 0x86, 0xFF, 0xFF, 0x49, 0x94, 0xFF, 0xFF, 0x92, 0xD2, 0xFF, 0xFF, 0x04, 0x00, 0x00, 0x00,
    0x60, 0x00, 0x00, 0x00, 0xD1, 0x79, 0xF2, 0xF6, 0x50, 0xC9, 0xE6, 0xD8, 0x57, 0x04, 0xC9, 0xBB,
    0x16, 0x2F, 0xEB, 0xEA, 0xD0, 0xFB, 0xF8, 0x2C, 0xF1, 0xCC, 0x7F, 0xD7, 0x17, 0x22, 0x26, 0x1C,
    0x02, 0xF9, 0xCB, 0x42, 0x57, 0xB6, 0xB2, 0x0E, 0x0C, 0x2E, 0x8F, 0xD0, 0x90, 0x66, 0x56, 0x14,
    0x61, 0x4D, 0x07, 0xD8, 0x5F, 0x09, 0x81, 0xB7, 0x68, 0xFC, 0xE3, 0x2E, 0xC2, 0x41, 0xF3, 0xC7,
    0x40, 0x1E, 0xD6, 0xEB, 0xFC, 0x96, 0x44, 0x4F, 0xFD, 0x3A, 0x9D, 0x36, 0xD0, 0x11, 0xBC, 0x4E,
    0x00, 0xBE, 0x4B, 0x33, 0x4E, 0xCA, 0x81, 0x45, 0x0E, 0x41, 0xEA, 0x2B, 0xB0, 0xE9, 0xFC, 0xD6,
    0x16, 0x40, 0xDA, 0x2F, 0xFE, 0xD2, 0xFF, 0xFF, 0x04, 0x00, 0x00, 0x00, 0x80, 0x00, 0x00, 0x00,
    0x9A, 0x01, 0x00, 0x00, 0x04, 0x05, 0x00, 0x00, 0x47, 0xFE, 0xFF, 0xFF, 0x27, 0x01, 0x00, 0x00,
    0xF5, 0x02, 0x00, 0x00, 0x1A, 0x01, 0x00, 0x00, 0xD0, 0x03, 0x00, 0x00, 0xC2, 0x00, 0x00, 0x00,
    0xC4, 0x06, 0x00, 0x00, 0xC6, 0x01, 0x00, 0x00, 0xA5, 0x01, 0x00, 0x00, 0x09, 0x01, 0x00, 0x00,
    0xDB, 0x01, 0x00, 0x00, 0xCA, 0x02, 0x00, 0x00, 0x10, 0x01, 0x00, 0x00, 0x17, 0xFF, 0xFF, 0xFF,
    0x6E, 0x01, 0x00, 0x00, 0xA3, 0xFE, 0xFF, 0xFF, 0x71, 0x0B, 0x00, 0x00, 0xE6, 0x00, 0x00, 0x00,
    0x6F, 0x01, 0x00, 0x00, 0xA0, 0xFE, 0xFF, 0xFF, 0xEC, 0x09, 0x00, 0x00, 0x3C, 0x01, 0x00, 0x00,
    0x63, 0x00, 0x00, 0x00, 0x64, 0xFF, 0xFF, 0xFF, 0x52, 0xFF, 0xFF, 0xFF, 0xD4, 0x03, 0x00, 0x00,
    0x77, 0x01, 0x00, 0x00, 0x12, 0x01, 0x00, 0x00, 0x0D, 0xFD, 0xFF, 0xFF, 0xFA, 0x00, 0x00, 0x00,
    0x8A, 0xD3, 0xFF, 0xFF, 0x04, 0x00, 0x00, 0x00, 0x00, 0x06, 0x00, 0x00, 0x08, 0x46, 0x27, 0xB8,
    0xCF, 0x25, 0xE0, 0x4F, 0x12, 0xE3, 0xB2, 0xC8, 0xAD, 0x46, 0xD4, 0x54, 0x36, 0x7F, 0x38, 0xF9,
    0xF4, 0xAF, 0xD1, 0x15, 0x73, 0xC6, 0x03, 0x72, 0x4B, 0xB7, 0x20, 0x18, 0xCE, 0x69, 0x26, 0xD6,
    0xF0, 0x25, 0xA0, 0x0E, 0xBD, 0xDF, 0x78, 0xD0, 0x4F, 0x0D, 0xAF, 0x53, 0x50, 0x03, 0x54, 0x36,
    0x29, 0xBA, 0x1D, 0x7E, 0x1F, 0x50, 0xB1, 0x2D, 0xBD, 0xEF, 0x2A, 0xAC, 0xE0, 0xD7, 0x07, 0x03,
    0x63, 0x73, 0xF2, 0xF0, 0x21, 0xD4, 0xEC, 0xD4, 0x7F, 0x38, 0x15, 0xCA, 0xBE, 0xBB, 0xE3, 0xD2,
    0x3E, 0xC3, 0xF2, 0x00, 0x0E, 0x7B, 0xF2, 0x45, 0x39, 0x08, 0x0A, 0x4D, 0x04, 0xB1, 0xA7, 0x81,
    0xCD, 0x06, 0x44, 0xFA, 0x13, 0xD5, 0xB2, 0xDA, 0x2F, 0x49, 0xAD, 0x81, 0x9D, 0x45, 0xC7, 0x19,
    0xAB, 0xC0, 0x16, 0x12, 0xAE, 0x42, 0xC9, 0xD5, 0xDF, 0xD3, 0x9F, 0x1C, 0x2E, 0xB1, 0x2E, 0xFA,
    0xB3, 0x0F, 0xB7, 0x44, 0x35, 0xD5, 0x78, 0x49, 0xB5, 0xF1, 0x2E, 0x14, 0xC4, 0x6D, 0x3E, 0xB0,
    0x6E, 0x74, 0x33, 0x50, 0x61, 0x1A, 0x43, 0xDC, 0x67, 0x18, 0x72, 0x7F, 0x8C, 0x5F, 0xDC, 0x3F,
    0xC9, 0x54, 0x93, 0x01, 0x6D, 0x61, 0xBD, 0x23, 0x19, 0x37, 0xCD, 0x79, 0xB0, 0x2E, 0x18, 0xBF,
    0xB1, 0xFC, 0xA5, 0xE4, 0xBD, 0xE0, 0xD4, 0x0C, 0xD1, 0x9B, 0xC5, 0xD5, 0xAC, 0x26, 0x62, 0x0E,
    0x48, 0x0D, 0xE0, 0xE4, 0x27, 0x4F, 0xAC, 0xA3, 0xCE, 0x65, 0x25, 0xA5, 0x61, 0x45, 0xE5, 0xC7,
    0xBC, 0x55, 0xA8, 0xD8, 0xD9, 0x9F, 0x58, 0x2E, 0x1D, 0x9C, 0x7F, 0x2D, 0xA8, 0x36, 0xD9, 0xD9,
    0x69, 0x04, 0x8D, 0xAB, 0x63, 0x6F, 0xBF, 0xB4, 0xFD, 0x5B, 0xE9, 0xE6, 0xB0, 0x6A, 0xDD, 0xCE,
    0x22, 0xFB, 0xBF, 0x3A, 0xFA, 0xB6, 0x44, 0x2F, 0xC2, 0x03, 0x62, 0x6C, 0xA1, 0x7F, 0x63, 0xDD,
    0x63, 0x0C, 0xAF, 0x54, 0xB0, 0x41, 0xF0, 0xD9, 0xE2, 0x28, 0x20, 0x0F, 0xCF, 0x48, 0x39, 0x3B,
    0x59, 0xE3, 0xC1, 0xF2, 0x54, 0xFD, 0xFE, 0xC0, 0x61, 0x65, 0xF0, 0xEB, 0x61, 0xE4, 0x38, 0xD2,
    0xA7, 0xD5, 0x43, 0xBE, 0x26, 0x52, 0x1B, 0x7F, 0x37, 0xE3, 0xF4, 0x47, 0x03, 0x2A, 0x33, 0x64,
    0x97, 0x6C, 0x5C, 0x3D, 0xF7, 0x1B, 0xB8, 0x8A, 0xED, 0xC9, 0x19, 0x0F, 0xC0, 0x07, 0x50, 0x53,
    0xC6, 0xDE, 0x63, 0x1D, 0xD9, 0x33, 0x26, 0x11, 0xB4, 0x54, 0xCC, 0xFF, 0x44, 0x43, 0xBF, 0x81,
    0x6E, 0xF1, 0xD1, 0xD4, 0x13, 0xAC, 0x1A, 0xE6, 0xDB, 0x2B, 0x74, 0x4B, 0x23, 0xEB, 0xE0, 0x12,
    0x30, 0xC3, 0xEC, 0xD9, 0x4E, 0xD4, 0x5B, 0x7F, 0x8B, 0x08, 0xF7, 0x23, 0x9C, 0xF0, 0x58, 0xFD,
    0x62, 0x14, 0xE3, 0xB1, 0xA9, 0x1F, 0xCC, 0x5B, 0x26, 0x99, 0xA0, 0xC6, 0xE9, 0xD9, 0xC1, 0x2E,
    0x38, 0xEE, 0x30, 0xD5, 0x59, 0xD2, 0x54, 0xC8, 0x0E, 0xE8, 0xCD, 0xE0, 0x55, 0x3B, 0x39, 0x1B,
    0x65, 0x5E, 0x7F, 0xC5, 0xA0, 0xAF, 0x20, 0xC8, 0xE0, 0xE6, 0xE0, 0xFE, 0xFD, 0x06, 0xDC, 0x7E,
    0xD7, 0xCF, 0xDE, 0xB4, 0xE7, 0x46, 0x23, 0x06, 0x13, 0xD2, 0x11, 0x7D, 0xDF, 0xF1, 0x23, 0x4C,
    0x31, 0x54, 0x2E, 0x30, 0x23, 0x35, 0x5C, 0x46, 0x74, 0x12, 0xEE, 0x03, 0x06, 0xEF, 0xDC, 0xA1,
    0xBD, 0x57, 0x03, 0xE2, 0xC9, 0xE6, 0xDB, 0x44, 0x4F, 0x97, 0xBE, 0x4A, 0xB8, 0xD8, 0x6E, 0xEB,
    0xED, 0x14, 0xB5, 0xE0, 0x7F, 0x62, 0x19, 0xFE, 0x38, 0x4F, 0x0F, 0xE3, 0xA1, 0x19, 0xCF, 0xBE,
    0xEC, 0x64, 0xA3, 0xB8, 0x5F, 0xB0, 0x52, 0x4B, 0x08, 0x20, 0x2D, 0x0E, 0x7F, 0x32, 0xE0, 0x2A,
    0x14, 0xCF, 0xDA, 0x41, 0x36, 0x76, 0xC4, 0xF1, 0xCD, 0xA2, 0xF2, 0xB1, 0x46, 0x32, 0x5D, 0xA2,
    0x70, 0xC6, 0x29, 0x7C, 0x5D, 0x25, 0x23, 0x39, 0xFD, 0x41, 0x03, 0xF9, 0x4B, 0x48, 0xC8, 0xAF,
    0x5A, 0x0B, 0xB2, 0xBB, 0xBE, 0x26, 0x42, 0x0E, 0x1A, 0xA1, 0x38, 0xD3, 0x93, 0x59, 0xFF, 0xB6,
    0xE0, 0xE9, 0x28, 0xC1, 0xBA, 0x6C, 0x4F, 0x57, 0xF2, 0x36, 0xF2, 0x34, 0x39, 0x57, 0xA9, 0xD4,
    0x0B, 0x7F, 0xBB, 0xD7, 0x42, 0xA4, 0x64, 0xB1, 0x58, 0x13, 0x97, 0xE0, 0xAB, 0xEB, 0xB9, 0x75,
    0x1A, 0xEB, 0xAC, 0xBD, 0x03, 0x08, 0xEA, 0x2F, 0xBF, 0x82, 0xD7, 0x5B, 0x33, 0xFE, 0x39, 0x69,
    0xB1, 0xE4, 0x32, 0x2A, 0x08, 0x7F, 0xAF, 0x0E, 0x77, 0xAB, 0x33, 0x63, 0x2F, 0xF2, 0x01, 0xB8,
    0x0D, 0xBD, 0x43, 0x5D, 0x69, 0x5F, 0x46, 0xAF, 0x2D, 0x08, 0xB7, 0x4B, 0x2C, 0x29, 0x62, 0xD7,
    0x6E, 0x2A, 0x1F, 0xD8, 0x2A, 0xA8, 0x2A, 0x1F, 0x06, 0x4C, 0x24, 0x54, 0x6B, 0x51, 0x1C, 0x5A,
    0x7F, 0xF5, 0xF7, 0xB4, 0x67, 0xCF, 0xE7, 0xC6, 0x3C, 0x97, 0xBE, 0x07, 0x02, 0xB1, 0x1C, 0xFB,
    0x54, 0xA6, 0x4A, 0x3D, 0x01, 0xD1, 0x4D, 0x55, 0x3D, 0x14, 0x42, 0x42, 0xDD, 0xD8, 0x51, 0x2A,
    0x3D, 0xC4, 0xF8, 0xFC, 0xF7, 0x3D, 0xFC, 0xCD, 0x02, 0x4F, 0xF3, 0x37, 0x9F, 0xFC, 0xF4, 0x81,
    0xFC, 0x2D, 0xA6, 0xD5, 0xE1, 0x01, 0x53, 0x22, 0x22, 0xC8, 0x35, 0xEA, 0xE4, 0x64, 0x65, 0x24,
    0x19, 0x5C, 0x96, 0xC0, 0x67, 0x69, 0x70, 0x04, 0x56, 0xB0, 0xD4, 0xC3, 0x0D, 0x43, 0xE9, 0xA8,
    0xA4, 0x45, 0xF7, 0x2E, 0x86, 0xC6, 0x79, 0xD2, 0xF1, 0x8A, 0xEA, 0xDB, 0xC1, 0x36, 0x9B, 0xE6,
    0xCB, 0xC2, 0xC4, 0xEE, 0xE3, 0xFD, 0x7F, 0x6A, 0xD0, 0xD9, 0x9B, 0x1F, 0x30, 0x62, 0xF0, 0xFE,
    0xD4, 0x66, 0xCA, 0xA2, 0xC0, 0x5D, 0x5E, 0xD7, 0x58, 0x04, 0xA7, 0xA0, 0xFB, 0x2B, 0xAE, 0x64,
    0x60, 0xDD, 0x3B, 0x6D, 0xF1, 0x2A, 0x69, 0xD9, 0xDB, 0x31, 0xA3, 0xFF, 0x24, 0x6F, 0xE6, 0xC5,
    0xA9, 0xF6, 0x88, 0x04, 0x73, 0xE6, 0xCB, 0x26, 0xD0, 0x66, 0x4A, 0x36, 0xC8, 0xEC, 0x12, 0x18,
    0xFA, 0x6C, 0x81, 0x56, 0x40, 0x23, 0x5B, 0xC7, 0xBC, 0x05, 0x86, 0xB8, 0xE4, 0x51, 0x81, 0xD1,
    0xD6, 0x18, 0xCF, 0x5F, 0x11, 0xD3, 0x5A, 0xEC, 0xCE, 0x6F, 0x15, 0xB3, 0x11, 0x46, 0xD7, 0x3C,
    0x08, 0xE4, 0xB9, 0xE5, 0x89, 0xFB, 0xCE, 0xA2, 0xCD, 0x21, 0x49, 0x8B, 0x38, 0xCB, 0xD4, 0x20,
    0x1A, 0xBB, 0xDB, 0x21, 0xCC, 0x6C, 0xD7, 0xA0, 0x63, 0x0C, 0xA2, 0x93, 0x6E, 0xBA, 0xF2, 0x34,
    0x53, 0xF8, 0xD8, 0xEF, 0xE4, 0x67, 0xB6, 0xEA, 0x3D, 0x70, 0x4A, 0xF6, 0x50, 0x31, 0xD8, 0x2A,
    0xE2, 0x52, 0x58, 0x48, 0x3C, 0xD3, 0x35, 0xD7, 0x35, 0xD2, 0x34, 0xB7, 0x10, 0x56, 0x76, 0xEE,
    0x69, 0xE2, 0x22, 0xB5, 0xB9, 0x55, 0x60, 0xF0, 0x16, 0x3A, 0x7F, 0x23, 0x3C, 0x4D, 0xA6, 0x46,
    0x5E, 0x39, 0xBE, 0x0A, 0x41, 0xDD, 0x09, 0xC9, 0x39, 0x40, 0x7F, 0xD5, 0x15, 0x81, 0xCB, 0x5E,
    0x94, 0xBC, 0x13, 0x72, 0x2B, 0xEC, 0x3F, 0xF1, 0x30, 0x48, 0x67, 0x9C, 0x39, 0xE9, 0xB1, 0x55,
    0xA2, 0xE6, 0xBE, 0xFB, 0x33, 0x20, 0x31, 0x26, 0xE4, 0x0A, 0x97, 0x5F, 0xFA, 0xC1, 0xF7, 0x39,
    0x64, 0x2D, 0x2B, 0x36, 0xE3, 0xC9, 0x2A, 0x0D, 0xF2, 0x93, 0x0A, 0xC5, 0xFF, 0xF3, 0x7A, 0x16,
    0x45, 0xA2, 0x45, 0xE6, 0xB9, 0x7F, 0xBF, 0x1E, 0x13, 0xC5, 0xB5, 0x1B, 0x35, 0x6C, 0x4C, 0xD4,
    0x64, 0x23, 0xA0, 0x2D, 0x6D, 0xA6, 0xC6, 0xE8, 0x37, 0x24, 0xD5, 0xD2, 0x2B, 0x5C, 0x24, 0xAF,
    0xF9, 0xFC, 0xCE, 0xEE, 0xF0, 0x20, 0x2E, 0xE2, 0xD8, 0xD2, 0xE4, 0xEB, 0xD0, 0x0A, 0xD7, 0x86,
    0xEE, 0x26, 0x25, 0xE0, 0x34, 0x27, 0x52, 0x0C, 0xA3, 0xEA, 0x39, 0x1F, 0xD2, 0x20, 0x39, 0x46,
    0xAF, 0xEB, 0x81, 0x22, 0x0C, 0x10, 0x03, 0x0A, 0xE6, 0x1A, 0xA6, 0xF8, 0x33, 0xD4, 0x7F, 0x1C,
    0xEC, 0xCB, 0x3F, 0x59, 0x2C, 0x4B, 0xE8, 0xD7, 0x0F, 0x24, 0x27, 0xC3, 0xC1, 0xE2, 0xBC, 0x66,
    0x37, 0x5B, 0x19, 0x57, 0xB4, 0xD4, 0xD4, 0x25, 0x08, 0xDE, 0xDD, 0xC0, 0xDB, 0x59, 0x22, 0x23,
    0x5D, 0xC9, 0xFD, 0xB3, 0xED, 0x38, 0xE7, 0x09, 0x41, 0xE8, 0x5F, 0xEE, 0xD9, 0x12, 0x0D, 0xD5,
    0xB8, 0x1E, 0x18, 0x15, 0x20, 0xA2, 0x4C, 0xB3, 0x99, 0x33, 0x47, 0xED, 0x1C, 0x4B, 0x42, 0xF7,
    0x3B, 0x62, 0x09, 0xEE, 0x41, 0xEC, 0xCC, 0xD1, 0x8A, 0x53, 0xDF, 0x7F, 0x5A, 0xD6, 0x5A, 0xF2,
    0xFE, 0x7A, 0x31, 0xCF, 0x7D, 0x2B, 0x6A, 0x8D, 0xB1, 0x09, 0x88, 0x4D, 0xFB, 0x53, 0x75, 0x6C,
    0x3F, 0xDC, 0xB3, 0x6D, 0xFD, 0x9E, 0xAC, 0x61, 0x1E, 0x1D, 0xF7, 0xB1, 0xEE, 0x18, 0xC9, 0x70,
    0x74, 0xF5, 0x20, 0x35, 0xEB, 0x31, 0xB7, 0xC2, 0x77, 0x74, 0x7F, 0xE0, 0x73, 0xCC, 0x10, 0xF3,
    0x17, 0xD0, 0xAE, 0x99, 0x0D, 0x75, 0xA3, 0x5A, 0xD4, 0x48, 0x46, 0xC9, 0xEA, 0xF7, 0xF8, 0x4F,
    0x06, 0x25, 0xAB, 0x2B, 0xFE, 0x44, 0x37, 0x19, 0xA4, 0x51, 0x48, 0xB1, 0xDD, 0x16, 0xB6, 0x0E,
    0x52, 0x58, 0xD7, 0x53, 0x3B, 0xC4, 0xA9, 0xC6, 0x4E, 0x30, 0x9A, 0x3D, 0xAE, 0xBD, 0x4B, 0x65,
    0x93, 0x3D, 0x9A, 0x7F, 0xA3, 0x67, 0x4A, 0xFC, 0xF3, 0xD5, 0x92, 0x8A, 0x48, 0xB4, 0xFB, 0xFA,
    0x43, 0x8D, 0x7F, 0xD7, 0x21, 0xE5, 0xAA, 0xEC, 0xE0, 0xEB, 0x21, 0xD5, 0x53, 0xF1, 0xA7, 0xD0,
    0x20, 0xD4, 0x66, 0x5C, 0xF0, 0xCC, 0x2D, 0x1F, 0x13, 0xFC, 0xFB, 0xD1, 0xE0, 0x20, 0x38, 0x69,
    0xFF, 0x50, 0x95, 0x4D, 0x41, 0x08, 0xE9, 0xCC, 0xF6, 0x1C, 0x70, 0x12, 0x36, 0x18, 0xBB, 0x62,
    0xF6, 0xEF, 0x21, 0x12, 0xD3, 0x53, 0xE1, 0xFF, 0xC7, 0x4D, 0x45, 0xD6, 0x24, 0xA8, 0x03, 0xD9,
    0xFA, 0x47, 0x6A, 0xDA, 0x81, 0x25, 0xE6, 0x2E, 0x56, 0xE1, 0x44, 0xAA, 0x59, 0xC9, 0x36, 0x60,
    0x65, 0x30, 0xDD, 0xD8, 0x28, 0x3E, 0xE7, 0x42, 0x41, 0xCB, 0x66, 0xEF, 0x9B, 0x75, 0xDF, 0x45,
    0x19, 0x65, 0x81, 0x04, 0x3E, 0xC9, 0xBF, 0x4F, 0x41, 0x9E, 0x1B, 0xBB, 0xCC, 0x62, 0x38, 0x41,
    0x64, 0x47, 0xF6, 0xB0, 0x4E, 0xE0, 0x4D, 0x70, 0xDC, 0x18, 0xCD, 0x34, 0xF8, 0x20, 0xE2, 0xD6,
    0x28, 0x69, 0xD8, 0x7E, 0xC1, 0xED, 0x0A, 0x31, 0x6A, 0x6D, 0xE7, 0xFB, 0xE7, 0xEB, 0x2B, 0x15,
    0xF1, 0x00, 0xF3, 0xA0, 0xBE, 0xDF, 0xE8, 0xBD, 0x46, 0xE0, 0xB6, 0xE5, 0x58, 0x5F, 0xDC, 0x46,
    0x20, 0xB6, 0xA7, 0xB1, 0x65, 0xD1, 0xA3, 0xDE, 0xE0, 0x4B, 0xA9, 0x27, 0xA8, 0x79, 0x5B, 0xF2,
    0xF0, 0xB2, 0x0C, 0xF2, 0x75, 0xCC, 0xFB, 0x21, 0xC4, 0x36, 0x81, 0xEF, 0xAC, 0x8A, 0x92, 0xC1,
    0x2D, 0x58, 0x41, 0xF2, 0x98, 0x1B, 0x09, 0x30, 0x4B, 0x33, 0x81, 0x82, 0x4D, 0x63, 0x37, 0x06,
    0xE6, 0x9B, 0x72, 0xA4, 0x01, 0x22, 0xD5, 0xF7, 0x3C, 0xC3, 0x10, 0x1A, 0xEF, 0xC8, 0x03, 0x05,
    0x91, 0xC3, 0x46, 0xD5, 0xD8, 0x8F, 0xAB, 0x98, 0x3C, 0x6B, 0xD3, 0xD4, 0x31, 0x7F, 0x3D, 0xD8,
    0xCC, 0xEC, 0x4B, 0xC1, 0xA1, 0xD9, 0x4A, 0xAF, 0xBE, 0xA7, 0x66, 0x17, 0xD9, 0x18, 0xCD, 0x06,
    0xDE, 0xEC, 0x52, 0xFC, 0x12, 0x51, 0xFE, 0xDB, 0xC8, 0x69, 0x31, 0x4B, 0x43, 0x27, 0x38, 0x67,
    0x29, 0x6F, 0xDC, 0xAE, 0xE4, 0x63, 0xB8, 0x1F, 0x2B, 0x1F, 0x1A, 0xFE, 0x96, 0xD9, 0xFF, 0xFF,
    0x04, 0x00, 0x00, 0x00, 0xC0, 0x00, 0x00, 0x00, 0x1D, 0xFF, 0xFF, 0xFF, 0x15, 0x03, 0x00, 0x00,
    0x60, 0x04, 0x00, 0x00, 0xE3, 0x08, 0x00, 0x00, 0xCF, 0x17, 0x00, 0x00, 0xF3, 0xFD, 0xFF, 0xFF,
    0x54, 0xFA, 0xFF, 0xFF, 0x84, 0x2C, 0x00, 0x00, 0x0A, 0x03, 0x00, 0x00, 0x53, 0x16, 0x00, 0x00,
    0x07, 0x01, 0x00, 0x00, 0xBF, 0xFD, 0xFF, 0xFF, 0xEB, 0x0D, 0x00, 0x00, 0x29, 0xFA, 0xFF, 0xFF,
    0xC9, 0x07, 0x00, 0x00, 0xF6, 0xFB, 0xFF, 0xFF, 0xA7, 0xFF, 0xFF, 0xFF, 0x81, 0xFC, 0xFF, 0xFF,
    0x2D, 0x02, 0x00, 0x00, 0x49, 0x0A, 0x00, 0x00, 0x4C, 0x05, 0x00, 0x00, 0x6C, 0x0A, 0x00, 0x00,
    0x63, 0x0D, 0x00, 0x00, 0x33, 0x02, 0x00, 0x00, 0x07, 0xF9, 0xFF, 0xFF, 0xBB, 0xFA, 0xFF, 0xFF,
    0xCE, 0x00, 0x00, 0x00, 0x4A, 0x06, 0x00, 0x00, 0xEA, 0x04, 0x00, 0x00, 0x11, 0x05, 0x00, 0x00,
    0x0D, 0xFE, 0xFF, 0xFF, 0x18, 0x09, 0x00, 0x00, 0x18, 0x0E, 0x00, 0x00, 0x24, 0x0B, 0x00, 0x00,
    0xF5, 0x09, 0x00, 0x00, 0x29, 0x03, 0x00, 0x00, 0xDF, 0x19, 0x00, 0x00, 0xE2, 0x03, 0x00, 0x00,
    0x8E, 0x03, 0x00, 0x00, 0x84, 0xFD, 0xFF, 0xFF, 0x4F, 0x01, 0x00, 0x00, 0x79, 0x34, 0x00, 0x00,
    0xDE, 0xFE, 0xFF, 0xFF, 0xDC, 0x04, 0x00, 0x00, 0x88, 0x10, 0x00, 0x00, 0x8E, 0x00, 0x00, 0x00,
    0xA5, 0x03, 0x00, 0x00, 0xC2, 0x0F, 0x00, 0x00, 0x62, 0xDA, 0xFF, 0xFF, 0x04, 0x00, 0x00, 0x00,
    0x80, 0x01, 0x00, 0x00, 0x17, 0xD6, 0x96, 0x16, 0x81, 0xF8, 0xCE, 0x14, 0x9B, 0x30, 0x78, 0xFD,
    0x81, 0xE9, 0xF9, 0xFF, 0x05, 0x3B, 0xDE, 0x1B, 0xCD, 0x81, 0xF7, 0x52, 0xB0, 0x32, 0xF5, 0x7F,
    0x01, 0xD2, 0xA5, 0xDA, 0x13, 0xF5, 0x30, 0x81, 0xE4, 0x11, 0x8D, 0x18, 0x4C, 0x7F, 0xD5, 0xCC,
    0xD2, 0xF3, 0x13, 0x94, 0x37, 0xD1, 0x2B, 0x62, 0xDE, 0x81, 0xFC, 0xA9, 0x35, 0x7F, 0xCF, 0xB9,
    0xB4, 0xD9, 0x0F, 0x81, 0x0B, 0xE5, 0x31, 0xF9, 0x0E, 0xFF, 0xC1, 0x81, 0x9E, 0xF7, 0x8D, 0x19,
    0x81, 0xA9, 0xB2, 0xE8, 0x55, 0x10, 0x6A, 0xC9, 0x81, 0x08, 0x4D, 0x60, 0x7F, 0xEF, 0xC0, 0xFA,
    0x3F, 0x05, 0xB3, 0xF7, 0xDE, 0x88, 0x7F, 0x13, 0x19, 0x04, 0xBD, 0x4D, 0x0E, 0xE3, 0x38, 0x01,
    0x21, 0x81, 0x12, 0xA9, 0x88, 0x33, 0x7F, 0xF1, 0xD0, 0xB5, 0x36, 0xD6, 0x2F, 0x7F, 0xFB, 0xB6,
    0xA5, 0x01, 0x13, 0xA2, 0x28, 0x62, 0xCB, 0x44, 0x06, 0xD0, 0xFC, 0x7F, 0x2F, 0x4E, 0xFB, 0x3D,
    0xC1, 0x45, 0x81, 0x20, 0x54, 0xF2, 0x7F, 0xCD, 0x4C, 0x95, 0xF8, 0xF0, 0x06, 0x0A, 0x12, 0x7F,
    0x1C, 0xE1, 0xD1, 0x92, 0x0E, 0x16, 0xDF, 0x2A, 0xFF, 0x2E, 0x81, 0x08, 0x0A, 0x00, 0x30, 0x13,
    0x17, 0x7F, 0x2A, 0xCC, 0x32, 0x81, 0xE4, 0x4A, 0xCB, 0x3B, 0x0F, 0x15, 0xCE, 0x88, 0xEC, 0x8B,
    0x02, 0xA0, 0xF7, 0x81, 0x2A, 0x2B, 0xFD, 0xB1, 0xD0, 0x81, 0xC6, 0x35, 0x42, 0x54, 0x7F, 0x03,
    0xF8, 0x0E, 0xC4, 0x09, 0x81, 0x24, 0x6E, 0xCF, 0xA9, 0xF2, 0x6B, 0xF5, 0xCA, 0x2C, 0xEA, 0x9C,
    0x0E, 0x7F, 0xEE, 0x4A, 0x06, 0xA6, 0x3B, 0x2A, 0x2C, 0xFC, 0xE6, 0x7F, 0x84, 0x2C, 0x44, 0xDB,
    0x81, 0x06, 0x74, 0xEC, 0x72, 0x81, 0xF9, 0x41, 0x84, 0xE5, 0x34, 0x9B, 0x45, 0x5B, 0x4D, 0xD1,
    0x81, 0xF4, 0x05, 0x7B, 0xDB, 0xE5, 0x60, 0xDA, 0x30, 0x13, 0x8A, 0x81, 0x32, 0x25, 0x5F, 0x81,
    0x08, 0x26, 0xDE, 0x40, 0x02, 0x98, 0x60, 0xD8, 0x17, 0x7F, 0x2C, 0xA3, 0x05, 0xFE, 0x52, 0x12,
    0x15, 0x7F, 0x31, 0xDC, 0x08, 0x2C, 0xF7, 0x1E, 0x33, 0x81, 0xF5, 0x1C, 0x12, 0xF3, 0x3D, 0x08,
    0x81, 0x63, 0xDC, 0xFA, 0x81, 0xEF, 0x9F, 0xDC, 0x3A, 0xE8, 0x86, 0xCB, 0x1E, 0xFF, 0x1C, 0x9E,
    0xE9, 0x22, 0x81, 0x0B, 0x5D, 0xEF, 0xC1, 0x81, 0x3B, 0x36, 0x30, 0xF1, 0x18, 0xE6, 0xF9, 0x7F,
    0x9B, 0x0D, 0xB4, 0xC9, 0xB1, 0x1F, 0x54, 0x7F, 0xB7, 0xC0, 0xC0, 0x03, 0x4B, 0x81, 0x61, 0x45,
    0x91, 0x23, 0x7C, 0x32, 0x11, 0xDC, 0x33, 0xA7, 0xDB, 0x7F, 0x21, 0x20, 0xF0, 0x25, 0xE9, 0xFE,
    0x3A, 0xDE, 0x81, 0xD5, 0x94, 0xA8, 0xF5, 0xEE, 0x26, 0x7F, 0xE0, 0x9D, 0x81, 0xAB, 0xC4, 0x14,
    0x1B, 0x7E, 0xD8, 0xBA, 0xEE, 0xDB, 0xFF, 0xFF, 0x04, 0x00, 0x00, 0x00, 0x20, 0x00, 0x00, 0x00,
    0xA9, 0xFB, 0xFF, 0xFF, 0x2A, 0xFA, 0xFF, 0xFF, 0xFA, 0xCA, 0xFF, 0xFF, 0x33, 0x28, 0x00, 0x00,
    0x00, 0x1D, 0x00, 0x00, 0x87, 0xF0, 0xFF, 0xFF, 0x33, 0x24, 0x00, 0x00, 0x31, 0xFE, 0xFF, 0xFF,
    0x1A, 0xDC, 0xFF, 0xFF, 0x04, 0x00, 0x00, 0x00, 0x80, 0x01, 0x00, 0x00, 0x04, 0x39, 0x1D, 0x29,
    0xDE, 0xE7, 0x2E, 0x36, 0xEA, 0x23, 0xF6, 0xEE, 0x1F, 0xE3, 0x40, 0xF5, 0xD4, 0xE2, 0x81, 0xE8,
    0x27, 0xC8, 0x05, 0x23, 0x1B, 0xFA, 0x27, 0xE6, 0xFA, 0xC3, 0x0F, 0x34, 0xCA, 0x2F, 0x36, 0x0C,
    0x35, 0x66, 0xE1, 0xCD, 0xFE, 0x11, 0x9C, 0xDA, 0x26, 0x28, 0xDA, 0xB2, 0xF7, 0xEA, 0x06, 0x4E,
    0xE1, 0x00, 0xF1, 0xFA, 0x09, 0x14, 0xF0, 0xD8, 0x05, 0xF8, 0x12, 0xFB, 0x1E, 0x1D, 0x34, 0xBE,
    0x13, 0x17, 0x0E, 0xE0, 0x03, 0xF9, 0xDA, 0xD5, 0xDC, 0x1F, 0xFD, 0x08, 0xEF, 0xD6, 0x97, 0x5A,
    0x1A, 0x17, 0x85, 0xE7, 0x0E, 0xFE, 0x44, 0x08, 0x7F, 0xF6, 0xBA, 0x34, 0xF7, 0x03, 0x1E, 0xE5,
    0xEC, 0xE5, 0xEA, 0x7B, 0xD1, 0x62, 0xD3, 0xF6, 0x7E, 0xFE, 0x2C, 0xE3, 0xB5, 0xC1, 0xFA, 0x1E,
    0xF9, 0xEF, 0x0D, 0x0C, 0x05, 0x3F, 0xF7, 0x26, 0x14, 0x2C, 0x56, 0x12, 0xB5, 0xE4, 0x1D, 0x49,
    0x09, 0x4A, 0x46, 0x81, 0x24, 0x2D, 0xCC, 0xD1, 0x1C, 0x2E, 0xE2, 0x08, 0x0D, 0xE9, 0x81, 0xD9,
    0x25, 0xFF, 0x34, 0xD6, 0xFF, 0xD4, 0xFE, 0x13, 0xCF, 0xC8, 0x1D, 0x13, 0x1D, 0x29, 0x08, 0x31,
    0xC2, 0x2B, 0xCB, 0xF8, 0xCD, 0xB9, 0x28, 0x16, 0xB6, 0xB8, 0xBB, 0x04, 0x54, 0x2E, 0xD8, 0x05,
    0xBB, 0xF2, 0x12, 0xF2, 0x2A, 0xBA, 0xF2, 0x17, 0x2C, 0xC6, 0x3A, 0xF3, 0xFF, 0x32, 0xFB, 0xF7,
    0x07, 0xFE, 0xC4, 0x8F, 0xD6, 0x0A, 0xEF, 0x50, 0x05, 0xDD, 0x06, 0x3F, 0x32, 0x30, 0xB0, 0x05,
    0x15, 0xFE, 0xE4, 0xE3, 0x30, 0xF6, 0x0D, 0xFA, 0xE6, 0xF4, 0xF6, 0xF0, 0x0F, 0xF1, 0x81, 0x1A,
    0xDE, 0x06, 0x31, 0x2B, 0xE5, 0xD4, 0x4D, 0x36, 0x05, 0xCC, 0x1A, 0xFB, 0xC4, 0xF3, 0x66, 0x19,
    0x43, 0x05, 0x39, 0x00, 0x81, 0x1A, 0x9B, 0xE8, 0xAC, 0xBC, 0x3B, 0x42, 0xE4, 0x28, 0x1D, 0xF4,
    0x26, 0xFC, 0x0F, 0x09, 0xFB, 0x10, 0xFB, 0xE4, 0xD6, 0xFA, 0xF8, 0xEC, 0xDB, 0x1F, 0x3D, 0x25,
    0xF6, 0x53, 0xEF, 0xF2, 0x29, 0xDA, 0xC2, 0x23, 0x01, 0x1D, 0x14, 0x1B, 0x62, 0x2C, 0xEF, 0x1F,
    0x2C, 0xE9, 0x91, 0xBA, 0xFC, 0x03, 0xEA, 0x38, 0xE6, 0xDC, 0xF8, 0x30, 0xD1, 0x28, 0x17, 0xFA,
    0x6C, 0xE8, 0x3E, 0x7F, 0xFF, 0xCD, 0x0F, 0xF2, 0xCD, 0xF6, 0xE6, 0xA5, 0x15, 0xE3, 0x1E, 0xF1,
    0xFD, 0x0E, 0xBA, 0x1F, 0xC0, 0xD5, 0xC7, 0xDE, 0xE9, 0xC1, 0x42, 0x15, 0x0F, 0x34, 0x25, 0xBE,
    0x34, 0xD7, 0xDC, 0xF3, 0x00, 0x19, 0x1F, 0x1B, 0xE7, 0xFC, 0x18, 0xF4, 0xE4, 0x18, 0xEF, 0x24,
    0xD8, 0xF6, 0xEB, 0x41, 0x07, 0xE2, 0x01, 0x1A, 0xF6, 0x1D, 0xE1, 0xFB, 0x37, 0xEF, 0xE3, 0xE1,
    0xD0, 0x11, 0x7F, 0xF3, 0x01, 0xE9, 0xEC, 0xED, 0x31, 0x08, 0x29, 0xFE, 0xA6, 0xDD, 0xFF, 0xFF,
    0x04, 0x00, 0x00, 0x00, 0xC0, 0x00, 0x00, 0x00, 0x8F, 0x00, 0x00, 0x00, 0x8E, 0xEF, 0xFF, 0xFF,
    0x0E, 0xFD, 0xFF, 0xFF, 0x20, 0xFE, 0xFF, 0xFF, 0xC0, 0x00, 0x00, 0x00, 0x7D, 0xFF, 0xFF, 0xFF,
    0x71, 0x12, 0x00, 0x00, 0xF9, 0x27, 0x00, 0x00, 0xFC, 0xE5, 0xFF, 0xFF, 0xA0, 0x2E, 0x00, 0x00,
    0x63, 0x10, 0x00, 0x00, 0x82, 0xF2, 0xFF, 0xFF, 0x9A, 0x19, 0x00, 0x00, 0x49, 0xEC, 0xFF, 0xFF,
    0x0B, 0x18, 0x00, 0x00, 0xBB, 0xFB, 0xFF, 0xFF, 0x24, 0xFA, 0xFF, 0xFF, 0x7B, 0x04, 0x00, 0x00,
    0x0F, 0x0D, 0x00, 0x00, 0x4A, 0xF3, 0xFF, 0xFF, 0x0C, 0xF4, 0xFF, 0xFF, 0x37, 0xFB, 0xFF, 0xFF,
    0x7A, 0xD1, 0xFF, 0xFF, 0x93, 0x02, 0x00, 0x00, 0x21, 0x24, 0x00, 0x00, 0x5F, 0x02, 0x00, 0x00,
    0x09, 0x07, 0x00, 0x00, 0x3F, 0x0C, 0x00, 0x00, 0xFA, 0x1E, 0x00, 0x00, 0x4F, 0x25, 0x00, 0x00,
    0x13, 0x1A, 0x00, 0x00, 0x16, 0xF9, 0xFF, 0xFF, 0xD2, 0xE6, 0xFF, 0xFF, 0x51, 0x02, 0x00, 0x00,
    0x97, 0xF7, 0xFF, 0xFF, 0x02, 0xEC, 0xFF, 0xFF, 0xEA, 0x16, 0x00, 0x00, 0xC6, 0x21, 0x00, 0x00,
    0x51, 0xF8, 0xFF, 0xFF, 0x84, 0x27, 0x00, 0x00, 0x4C, 0xFD, 0xFF, 0xFF, 0x38, 0xFF, 0xFF, 0xFF,
    0xBB, 0xE7, 0xFF, 0xFF, 0xD8, 0xF4, 0xFF, 0xFF, 0xA6, 0xEA, 0xFF, 0xFF, 0x89, 0x3A, 0x00, 0x00,
    0xC3, 0x02, 0x00, 0x00, 0xBB, 0x11, 0x00, 0x00, 0x72, 0xDE, 0xFF, 0xFF, 0x04, 0x00, 0x00, 0x00,
    0xB0, 0x01, 0x00, 0x00, 0x56, 0x6A, 0x3B, 0xFE, 0x13, 0xB4, 0x1A, 0x19, 0xE8, 0x0C, 0xF2, 0x4D,
    0x37, 0x1D, 0x00, 0x0A, 0x34, 0xCD, 0x60, 0x1A, 0x00, 0xE8, 0xEA, 0x09, 0xD2, 0xC4, 0x35, 0x16,
    0xD7, 0xA2, 0xFF, 0x15, 0x1D, 0x8A, 0x2D, 0x1E, 0xD1, 0xF0, 0xEF, 0x81, 0xFF, 0xA6, 0xF7, 0x00,
    0x16, 0x81, 0x1D, 0x81, 0x7F, 0x2D, 0x53, 0x94, 0x29, 0x3B, 0x2A, 0xC0, 0xAB, 0xD3, 0x2E, 0x7F,
    0x00, 0xDC, 0x81, 0x1D, 0xF9, 0x4A, 0x37, 0x6B, 0x32, 0x6A, 0x4D, 0x1B, 0x28, 0xBC, 0x00, 0x81,
    0x81, 0xC5, 0x81, 0x7F, 0x1C, 0x8F, 0xA8, 0x7F, 0x19, 0x98, 0xB4, 0xA2, 0x0D, 0x7F, 0xC1, 0x1A,
    0xDD, 0xAB, 0x2C, 0xFE, 0x54, 0x09, 0x2E, 0xCD, 0xFB, 0xC4, 0x1E, 0x1D, 0xD6, 0x06, 0x44, 0x15,
    0x16, 0x21, 0x19, 0x03, 0xCB, 0x01, 0x33, 0x1C, 0xC7, 0x0E, 0xCA, 0xE7, 0xD1, 0xC1, 0xAC, 0xE4,
    0xC2, 0xC4, 0xF3, 0xF1, 0x2E, 0xC9, 0x28, 0x11, 0xF0, 0xA8, 0x06, 0xCB, 0x07, 0xEB, 0x7F, 0x02,
    0xFC, 0xA7, 0x0B, 0xCA, 0x38, 0x1F, 0x17, 0x28, 0x2E, 0x3C, 0xFF, 0x81, 0x7F, 0x81, 0x92, 0x9A,
    0x06, 0x2F, 0xE2, 0x7F, 0x81, 0x4A, 0x37, 0x62, 0xEB, 0x3F, 0x1F, 0xDB, 0xEB, 0x7F, 0x42, 0xF6,
    0x12, 0xBB, 0xAF, 0x3D, 0x40, 0x57, 0xBE, 0x02, 0xAA, 0xD7, 0xF4, 0xD1, 0xFD, 0xC6, 0x2E, 0xA1,
    0x38, 0xC3, 0x15, 0x17, 0x03, 0x7F, 0x81, 0x4E, 0x5A, 0x39, 0x81, 0x13, 0x6F, 0xDC, 0xFD, 0x6C,
    0x81, 0x7F, 0xF1, 0xF7, 0x27, 0x81, 0x81, 0x32, 0x7F, 0x2B, 0x7F, 0x81, 0x81, 0x58, 0xB2, 0xE2,
    0xF6, 0xB0, 0x38, 0xE5, 0x7F, 0xCB, 0x61, 0xCE, 0x6A, 0x81, 0x7F, 0x61, 0x7F, 0x45, 0x8E, 0x06,
    0x7F, 0x23, 0x81, 0xED, 0x38, 0x07, 0x0D, 0x81, 0x7F, 0x37, 0x0A, 0xAB, 0x70, 0xCE, 0x81, 0xE9,
    0x13, 0x33, 0xD4, 0x61, 0x62, 0xE6, 0xFF, 0x22, 0x09, 0x81, 0x1F, 0x62, 0xC9, 0x7F, 0xAA, 0xD7,
    0x1D, 0xE6, 0xD7, 0x27, 0xE8, 0x5C, 0x7F, 0x36, 0xBE, 0x0C, 0xB9, 0xF0, 0xF5, 0xDB, 0x73, 0x7F,
    0x60, 0xBB, 0x5D, 0x16, 0xFF, 0x30, 0x26, 0x21, 0xF4, 0x08, 0x12, 0x2B, 0x09, 0xDF, 0x05, 0xEB,
    0x2E, 0xD5, 0x1C, 0xDA, 0x0A, 0x17, 0x67, 0xFF, 0x5D, 0xF2, 0xF4, 0xC2, 0xBA, 0xBA, 0x7F, 0x3B,
    0x11, 0x81, 0xEA, 0x3E, 0x1C, 0x11, 0x02, 0xFC, 0xBB, 0x18, 0xF3, 0xEE, 0x01, 0xC4, 0xFF, 0xE6,
    0xFB, 0xE5, 0x00, 0xCB, 0x24, 0x1B, 0x0E, 0xEF, 0x13, 0x81, 0xF5, 0xC3, 0x06, 0xCD, 0x22, 0x0A,
    0xFE, 0xDA, 0xE6, 0x19, 0x0E, 0xCD, 0x4B, 0x61, 0x59, 0x26, 0x3D, 0x16, 0x22, 0xC8, 0xDB, 0x21,
    0xAF, 0x0A, 0xDB, 0x30, 0x17, 0x7F, 0xBE, 0x03, 0x81, 0xA8, 0x14, 0xF3, 0xB9, 0x43, 0xF0, 0x06,
    0xF4, 0x94, 0x40, 0x27, 0x21, 0x04, 0x25, 0xCE, 0x43, 0x04, 0x1B, 0x36, 0xD6, 0xE3, 0xF9, 0x0D,
    0x1A, 0xDF, 0x12, 0xF6, 0x0D, 0xDE, 0x4B, 0x81, 0x07, 0xD1, 0xDD, 0x33, 0x97, 0xC3, 0xB0, 0x1F,
    0x02, 0xA3, 0x02, 0x0C, 0x1F, 0xD9, 0x01, 0x29, 0x91, 0xE6, 0xDC, 0xF4, 0xF4, 0xD1, 0x05, 0xF4,
    0xEA, 0x0C, 0xF3, 0xB9, 0x2E, 0xE0, 0xFF, 0xFF, 0x04, 0x00, 0x00, 0x00, 0xC0, 0x00, 0x00, 0x00,
    0x8D, 0xFA, 0xFF, 0xFF, 0x14, 0xFB, 0xFF, 0xFF, 0xA8, 0x08, 0x00, 0x00, 0x53, 0xFD, 0xFF, 0xFF,
    0xB5, 0xF5, 0xFF, 0xFF, 0xCB, 0x05, 0x00, 0x00, 0x42, 0x06, 0x00, 0x00, 0x90, 0x27, 0x00, 0x00,
    0x51, 0x07, 0x00, 0x00, 0x23, 0x03, 0x00, 0x00, 0x1D, 0x18, 0x00, 0x00, 0x77, 0x08, 0x00, 0x00,
    0x3D, 0x05, 0x00, 0x00, 0x13, 0x1A, 0x00, 0x00, 0x0E, 0x0B, 0x00, 0x00, 0xBB, 0xFA, 0xFF, 0xFF,
    0x3B, 0x2D, 0x00, 0x00, 0xA7, 0x07, 0x00, 0x00, 0x45, 0x01, 0x00, 0x00, 0xCD, 0xF6, 0xFF, 0xFF,
    0x74, 0x00, 0x00, 0x00, 0x1A, 0xFF, 0xFF, 0xFF, 0x9B, 0x05, 0x00, 0x00, 0x57, 0x2E, 0x00, 0x00,
    0xEB, 0x01, 0x00, 0x00, 0x10, 0x0D, 0x00, 0x00, 0xF7, 0x09, 0x00, 0x00, 0x35, 0xFF, 0xFF, 0xFF,
    0x8A, 0x10, 0x00, 0x00, 0xCD, 0x03, 0x00, 0x00, 0x82, 0x03, 0x00, 0x00, 0xA2, 0xFC, 0xFF, 0xFF,
    0xF2, 0xF7, 0xFF, 0xFF, 0x2F, 0xFA, 0xFF, 0xFF, 0xCC, 0xF0, 0xFF, 0xFF, 0x92, 0x04, 0x00, 0x00,
    0x87, 0x07, 0x00, 0x00, 0xFE, 0x01, 0x00, 0x00, 0xFE, 0x03, 0x00, 0x00, 0xC8, 0x06, 0x00, 0x00,
    0x56, 0x04, 0x00, 0x00, 0x29, 0x01, 0x00, 0x00, 0x35, 0x0E, 0x00, 0x00, 0x52, 0x05, 0x00, 0x00,
    0xB8, 0x12, 0x00, 0x00, 0x4F, 0x0E, 0x00, 0x00, 0xC8, 0xFB, 0xFF, 0xFF, 0x35, 0x01, 0x00, 0x00,
    0xFA, 0xE0, 0xFF, 0xFF, 0x04, 0x00, 0x00, 0x00, 0x80, 0x01, 0x00, 0x00, 0xE5, 0xDD, 0xC6, 0x69,
    0x25, 0x9E, 0xA5, 0x81, 0x7F, 0xF9, 0x2D, 0xCD, 0x1D, 0xB4, 0xFF, 0x2C, 0xF3, 0x3A, 0xFF, 0x81,
    0x0A, 0x63, 0xB7, 0x54, 0xD1, 0x7F, 0xCC, 0x85, 0x8A, 0x01, 0x05, 0x86, 0xFD, 0xAC, 0xAB, 0xB1,
    0x24, 0x9B, 0xB4, 0x81, 0xDD, 0xCF, 0x4B, 0x29, 0x19, 0x63, 0x23, 0x81, 0xF4, 0x18, 0xC8, 0x27,
    0x02, 0x06, 0x81, 0xE1, 0x10, 0xEF, 0x0B, 0x18, 0xD2, 0x3D, 0x7F, 0x44, 0xFB, 0x2E, 0x9F, 0xD0,
    0xF0, 0x81, 0x9D, 0x48, 0x25, 0xFA, 0xBF, 0xE6, 0x0C, 0x7F, 0xD8, 0x4C, 0xF5, 0x40, 0x61, 0x7F,
    0x48, 0x6A, 0xE7, 0xDA, 0xED, 0xAC, 0xF0, 0x2D, 0x81, 0x52, 0xE0, 0xE0, 0xF0, 0x20, 0x62, 0xC9,
    0x4C, 0x8D, 0x81, 0xC8, 0x3B, 0x23, 0x9D, 0x81, 0x04, 0xD4, 0xB9, 0x58, 0xDB, 0x96, 0x15, 0xBE,
    0x11, 0xAE, 0x19, 0x81, 0x06, 0x63, 0x5A, 0x5C, 0x61, 0x7F, 0xEF, 0x00, 0x2F, 0x0C, 0xD4, 0x81,
    0x32, 0x4F, 0xCA, 0x72, 0xBE, 0x71, 0x81, 0x12, 0x2C, 0x42, 0x9B, 0x43, 0x81, 0x3C, 0x1D, 0xE4,
    0xAF, 0x13, 0xEB, 0x12, 0x7B, 0x1E, 0xAD, 0xC1, 0x59, 0xCF, 0x5E, 0x81, 0x7F, 0xDC, 0x4A, 0xC8,
    0xA2, 0x1A, 0x5D, 0x1C, 0x21, 0xEA, 0xE3, 0xFD, 0x00, 0x1D, 0x7F, 0x1F, 0x5F, 0x1E, 0xAC, 0x9D,
    0xF4, 0x7F, 0x4A, 0x66, 0xD6, 0x2B, 0xB7, 0x87, 0x4C, 0xE1, 0x81, 0x16, 0x64, 0xC0, 0x81, 0x02,
    0x4F, 0xEB, 0x18, 0x26, 0xDF, 0xB5, 0x3D, 0xC5, 0x54, 0x71, 0x02, 0x81, 0x20, 0xBA, 0x2C, 0x27,
    0x7F, 0xCF, 0xBC, 0xA3, 0xF2, 0x82, 0x52, 0x67, 0x26, 0xEA, 0xE1, 0x7F, 0x02, 0x0F, 0x83, 0xBA,
    0x6D, 0xAC, 0xFE, 0x7F, 0x9B, 0x35, 0x7F, 0xB3, 0xF6, 0xE6, 0x1C, 0x38, 0x68, 0xA3, 0x45, 0xBC,
    0xD9, 0x81, 0x54, 0xEB, 0x11, 0x25, 0x1F, 0xF0, 0xE6, 0xF0, 0x81, 0x10, 0x1A, 0xEC, 0x20, 0x7F,
    0xDB, 0xA8, 0xC8, 0x9F, 0x26, 0xE0, 0xE9, 0x71, 0x88, 0x7F, 0xED, 0xDB, 0x06, 0x93, 0x17, 0xD6,
    0xA2, 0x7F, 0x2D, 0xE4, 0x1D, 0x7F, 0x74, 0x10, 0x01, 0x21, 0xAC, 0xFF, 0xFE, 0x5B, 0xA8, 0x81,
    0xA2, 0x07, 0x50, 0xAD, 0x1C, 0xFC, 0x16, 0x05, 0x34, 0x7F, 0x3B, 0x07, 0xA1, 0xAD, 0x7F, 0x37,
    0x1C, 0xE0, 0xD0, 0x7E, 0x0F, 0x1E, 0x7F, 0xB6, 0xE9, 0x2A, 0xD6, 0x34, 0x21, 0xEC, 0x0F, 0x0A,
    0xF3, 0xF4, 0x7F, 0xED, 0xEA, 0xFF, 0xDA, 0x81, 0xB2, 0xBF, 0xB8, 0x1E, 0x12, 0x03, 0x47, 0xDC,
    0x81, 0xDE, 0xC1, 0x11, 0x3C, 0x00, 0x2C, 0x15, 0xBB, 0xAC, 0x7F, 0x15, 0xC8, 0x9B, 0x03, 0xCD,
    0xFB, 0x14, 0xE5, 0x81, 0x04, 0x56, 0x4F, 0x3C, 0x15, 0x7F, 0xAD, 0xFE, 0x87, 0xFD, 0x23, 0x41,
    0x7F, 0x35, 0xA8, 0x6C, 0x0D, 0x43, 0xBA, 0xE0, 0x1B, 0xDA, 0x21, 0x81, 0x86, 0xE2, 0xFF, 0xFF,
    0x04, 0x00, 0x00, 0x00, 0x20, 0x00, 0x00, 0x00, 0x49, 0x50, 0x00, 0x00, 0xBE, 0x1E, 0x00, 0x00,
    0x88, 0x51, 0x00, 0x00, 0xBC, 0xE8, 0xFF, 0xFF, 0x8E, 0xD5, 0xFF, 0xFF, 0xA4, 0x32, 0x00, 0x00,
    0x9B, 0x04, 0x00, 0x00, 0xD5, 0x53, 0x00, 0x00, 0xB2, 0xE2, 0xFF, 0xFF, 0x04, 0x00, 0x00, 0x00,
    0x80, 0x01, 0x00, 0x00, 0x7F, 0xDA, 0xFB, 0xFA, 0xE7, 0xA1, 0xE8, 0xF4, 0x3D, 0xDD, 0xBE, 0xE0,
    0xD4, 0x57, 0xC0, 0x14, 0x0E, 0xEF, 0x02, 0x0A, 0x2E, 0xD5, 0xF8, 0x09, 0x29, 0x0C, 0xFC, 0x36,
    0x06, 0x3B, 0xC7, 0x8A, 0x0D, 0xC4, 0x0E, 0xE4, 0x20, 0xD6, 0x06, 0x18, 0xBE, 0xE1, 0xDC, 0xC8,
    0xAC, 0x97, 0xFF, 0xF3, 0xB7, 0xF8, 0x4D, 0xC9, 0x32, 0x17, 0x2E, 0x06, 0xF5, 0x19, 0xF2, 0x4E,
    0x1F, 0xE2, 0x81, 0xD5, 0xA0, 0xB5, 0x12, 0xF9, 0x0E, 0x50, 0xC7, 0x02, 0x0C, 0xB0, 0x16, 0x68,
    0x25, 0xE7, 0x15, 0x1F, 0x16, 0x2B, 0xEB, 0x18, 0xBF, 0xD4, 0x17, 0x2D, 0xFD, 0xE4, 0x99, 0x26,
    0xE7, 0xC9, 0xA1, 0x0F, 0x71, 0x30, 0xE1, 0xB4, 0xC7, 0xEF, 0xC5, 0x94, 0x25, 0x20, 0x9F, 0xC0,
    0xF7, 0x3A, 0xB9, 0x2F, 0xED, 0x43, 0xFD, 0x19, 0x40, 0x36, 0xF9, 0x0A, 0x83, 0x20, 0x21, 0xCB,
    0x03, 0x2A, 0x21, 0x99, 0x04, 0xDC, 0x0C, 0x0C, 0xC5, 0xB8, 0x12, 0x34, 0x81, 0x82, 0xD8, 0xD0,
    0xC5, 0x9F, 0x20, 0x09, 0x06, 0x11, 0x17, 0x1C, 0x91, 0xF0, 0xEF, 0x3C, 0xE5, 0xB6, 0xED, 0x5F,
    0x04, 0xE3, 0xAD, 0xC7, 0xE4, 0x29, 0x11, 0xB8, 0xBA, 0x7F, 0x25, 0xA9, 0x26, 0x1E, 0x41, 0xC0,
    0x09, 0x07, 0x17, 0x23, 0x39, 0x16, 0x28, 0x02, 0x2C, 0x45, 0x13, 0xE9, 0x21, 0xD9, 0x29, 0xC7,
    0xF7, 0x0E, 0x21, 0x35, 0xC0, 0x01, 0x81, 0x06, 0xF3, 0x5C, 0x14, 0x17, 0xE4, 0x73, 0x2F, 0x54,
    0x09, 0xA9, 0xE7, 0x21, 0xF9, 0xEC, 0xF5, 0x18, 0xE2, 0x2D, 0xB6, 0x06, 0xF5, 0xEE, 0x30, 0xF2,
    0x30, 0xBF, 0x7B, 0x5A, 0x40, 0x38, 0x1F, 0xD4, 0xA0, 0x20, 0x02, 0xD5, 0x44, 0x16, 0x24, 0x27,
    0x31, 0x10, 0x17, 0x4A, 0xE5, 0xF4, 0x1C, 0xE7, 0x31, 0xB0, 0xC7, 0xD7, 0xE0, 0xBC, 0xFC, 0xE9,
    0x30, 0xFE, 0xE4, 0x12, 0x29, 0xF0, 0xFA, 0x29, 0x1B, 0x35, 0x0F, 0xFA, 0x05, 0xF6, 0xD6, 0xFA,
    0xD9, 0x06, 0x81, 0xE7, 0xD4, 0xF1, 0x22, 0xF4, 0xF8, 0xD9, 0x11, 0xEA, 0xEA, 0x03, 0xD9, 0xFF,
    0x1E, 0x1D, 0xF0, 0x32, 0x0C, 0x3D, 0xFA, 0x34, 0xED, 0x1C, 0xC4, 0x3C, 0xB5, 0xEC, 0x2D, 0x0F,
    0x2F, 0x09, 0x2A, 0x11, 0x0D, 0xDF, 0xE2, 0x22, 0xFC, 0x2F, 0x14, 0xD2, 0xBF, 0xED, 0xE8, 0x0E,
    0xAD, 0xEC, 0xAC, 0x0D, 0x08, 0xE1, 0xE0, 0xD7, 0x7F, 0xFE, 0xE1, 0xCF, 0x2A, 0x22, 0x1C, 0xD2,
    0xCC, 0xF5, 0xCF, 0xF1, 0xC7, 0xFA, 0x99, 0x15, 0xE4, 0xFC, 0xF9, 0xEC, 0xC8, 0xDA, 0x35, 0x38,
    0x46, 0x12, 0xB6, 0xBF, 0xAE, 0x51, 0xF8, 0x1F, 0x45, 0x13, 0x14, 0xD7, 0xC5, 0x7F, 0xCC, 0x9A,
    0xCF, 0xFB, 0x82, 0xEB, 0xD7, 0xEA, 0xB4, 0xFF, 0xE6, 0xB4, 0xD4, 0xF1, 0xDE, 0x35, 0x21, 0xE6,
    0xB5, 0xB6, 0x7A, 0xBA, 0x3E, 0xE4, 0xFF, 0xFF, 0x04, 0x00, 0x00, 0x00, 0xC0, 0x00, 0x00, 0x00,
    0xF7, 0x1E, 0x00, 0x00, 0x24, 0x0E, 0x00, 0x00, 0x74, 0x24, 0x00, 0x00, 0x9C, 0x19, 0x00, 0x00,
    0xEE, 0x84, 0x00, 0x00, 0x75, 0xFA, 0xFF, 0xFF, 0xAC, 0xFE, 0xFF, 0xFF, 0x12, 0x00, 0x00, 0x00,
    0xC7, 0xED, 0xFF, 0xFF, 0x83, 0xD6, 0xFF, 0xFF, 0xA8, 0xF9, 0xFF, 0xFF, 0x14, 0xFF, 0xFF, 0xFF,
    0x13, 0x3A, 0x00, 0x00, 0x33, 0x1F, 0x00, 0x00, 0xB3, 0x0F, 0x00, 0x00, 0x90, 0xF0, 0xFF, 0xFF,
    0x0C, 0x17, 0x00, 0x00, 0xF0, 0x11, 0x00, 0x00, 0xB0, 0x06, 0x00, 0x00, 0x28, 0xF0, 0xFF, 0xFF,
    0x81, 0x26, 0x00, 0x00, 0xA6, 0xF7, 0xFF, 0xFF, 0x5D, 0x17, 0x00, 0x00, 0x21, 0xFB, 0xFF, 0xFF,
    0x34, 0x0F, 0x00, 0x00, 0x35, 0x2D, 0x00, 0x00, 0xEB, 0x00, 0x00, 0x00, 0xDD, 0x01, 0x00, 0x00,
    0x6C, 0x08, 0x00, 0x00, 0x36, 0x04, 0x00, 0x00, 0x10, 0x12, 0x00, 0x00, 0x0D, 0x17, 0x00, 0x00,
    0x48, 0x10, 0x00, 0x00, 0x43, 0xFD, 0xFF, 0xFF, 0x99, 0x00, 0x00, 0x00, 0x3B, 0x01, 0x00, 0x00,
    0xBD, 0x15, 0x00, 0x00, 0x8C, 0x11, 0x00, 0x00, 0xEC, 0x08, 0x00, 0x00, 0x72, 0xFF, 0xFF, 0xFF,
    0x96, 0x1F, 0x00, 0x00, 0x92, 0xEB, 0xFF, 0xFF, 0xD9, 0x14, 0x00, 0x00, 0x0F, 0x09, 0x00, 0x00,
    0x42, 0x02, 0x00, 0x00, 0x6C, 0x0A, 0x00, 0x00, 0xA0, 0x12, 0x00, 0x00, 0x80, 0xF7, 0xFF, 0xFF,
    0x0A, 0xE5, 0xFF, 0xFF, 0x04, 0x00, 0x00, 0x00, 0xB0, 0x01, 0x00, 0x00, 0x99, 0xEC, 0x58, 0x01,
    0x81, 0x10, 0x90, 0x11, 0x03, 0x7F, 0x6E, 0xEB, 0xB0, 0x51, 0x15, 0x31, 0x25, 0x1A, 0xFF, 0x0A,
    0x81, 0xD5, 0x03, 0x3D, 0xCF, 0xFD, 0xEC, 0xC1, 0x12, 0x81, 0x70, 0x49, 0xFB, 0x12, 0x32, 0xDF,
    0x17, 0x81, 0xEA, 0x7F, 0xB8, 0x23, 0xEF, 0xFB, 0xE3, 0x01, 0x06, 0xD3, 0x03, 0x99, 0x1F, 0x1A,
    0xE0, 0x17, 0xB2, 0x0D, 0x2E, 0x0F, 0x7F, 0x66, 0x81, 0x97, 0xAB, 0xD8, 0x00, 0xC5, 0x45, 0x7F,
    0x02, 0x2B, 0xFA, 0x37, 0x85, 0xDF, 0x1C, 0x81, 0xFA, 0xB4, 0xF5, 0x88, 0xE5, 0x02, 0xCA, 0x81,
    0xF1, 0x06, 0x0B, 0x6C, 0x7F, 0xDA, 0xE9, 0x7F, 0xFF, 0x81, 0x07, 0xF8, 0x81, 0x2B, 0x46, 0x1B,
    0xB3, 0x15, 0xC3, 0x08, 0x0A, 0x4F, 0x0E, 0xCB, 0xCB, 0x4D, 0x13, 0x49, 0xF7, 0xFB, 0xF8, 0x1E,
    0x86, 0xE5, 0x2A, 0x2D, 0xFC, 0xDF, 0x06, 0xDA, 0xD8, 0xA6, 0x2A, 0x15, 0x03, 0x19, 0xB5, 0xE0,
    0x23, 0x8B, 0x0E, 0x49, 0xBC, 0x1B, 0xEB, 0x01, 0x0F, 0x02, 0x05, 0x31, 0x3D, 0x06, 0x34, 0x01,
    0x96, 0xF3, 0x1E, 0x05, 0xC6, 0x2B, 0x1D, 0x21, 0xCC, 0xD6, 0xEB, 0x7F, 0xEE, 0x18, 0x1B, 0x0F,
    0xEF, 0x18, 0xCF, 0xE6, 0x04, 0x90, 0xD8, 0xD0, 0x7F, 0x13, 0x3D, 0x6A, 0x81, 0xF5, 0x7F, 0x02,
    0xFB, 0x32, 0x81, 0x91, 0x22, 0xEA, 0x14, 0x00, 0x81, 0x2B, 0x00, 0xBB, 0x64, 0xCA, 0x81, 0x81,
    0x36, 0x7F, 0x0D, 0x7F, 0x81, 0xBE, 0xC3, 0x7F, 0x01, 0x82, 0x81, 0x89, 0xEF, 0x81, 0xAF, 0x2D,
    0x79, 0x7F, 0xFE, 0x7F, 0x81, 0x40, 0x81, 0x4E, 0xB6, 0xD8, 0x81, 0x86, 0x00, 0x7F, 0x93, 0x6C,
    0x81, 0xB2, 0x64, 0xEE, 0xB2, 0x7F, 0x81, 0x99, 0x57, 0x41, 0x81, 0xD9, 0x34, 0x00, 0x51, 0x17,
    0xC9, 0xE8, 0xF8, 0xF1, 0xE9, 0x0A, 0x1C, 0xC0, 0xE3, 0xA7, 0xB4, 0x4F, 0x81, 0xD4, 0xFF, 0x47,
    0xDB, 0x42, 0xFD, 0x86, 0x14, 0xA1, 0x73, 0xFF, 0xC0, 0x66, 0xCF, 0x71, 0x68, 0xDF, 0xE0, 0x17,
    0xF7, 0x01, 0xF1, 0xBE, 0x0E, 0xE6, 0xF0, 0xF1, 0x09, 0x15, 0xF4, 0x7F, 0x92, 0x24, 0x24, 0xDA,
    0xE4, 0x09, 0x42, 0x0B, 0x64, 0x1D, 0x40, 0x12, 0xA6, 0x33, 0x18, 0x16, 0x40, 0x52, 0x00, 0xC6,
    0xD2, 0xF9, 0xE4, 0x2D, 0xFD, 0x07, 0x01, 0x0A, 0x00, 0x1F, 0x5C, 0xCD, 0xEE, 0x05, 0x6D, 0x08,
    0x14, 0xD7, 0xBB, 0xF9, 0xD6, 0x12, 0x09, 0xE9, 0xF5, 0xF4, 0xF7, 0xEC, 0xAE, 0x81, 0x37, 0xDF,
    0xE6, 0xE7, 0x7F, 0x07, 0x6E, 0x25, 0x46, 0xBA, 0x63, 0x81, 0xC8, 0xF7, 0xD8, 0x34, 0x81, 0x27,
    0xBF, 0x23, 0x81, 0xF3, 0x2B, 0x81, 0x0E, 0x25, 0xFD, 0x45, 0x1E, 0x81, 0xDF, 0xCE, 0xCC, 0x18,
    0xFB, 0x43, 0x25, 0xE2, 0xF9, 0x22, 0x13, 0xCB, 0x1E, 0xDF, 0xF1, 0x1A, 0xCA, 0xF2, 0xF5, 0xF9,
    0xED, 0x1A, 0x19, 0x05, 0x37, 0x1A, 0x1D, 0x20, 0x9E, 0x2E, 0x0D, 0x0E, 0xB8, 0x34, 0xEA, 0xE2,
    0xD3, 0xEF, 0x0E, 0xD2, 0x00, 0xE2, 0x03, 0x1F, 0xEC, 0x23, 0x0F, 0xB1, 0xE6, 0x15, 0xE3, 0x0D,
    0x1F, 0x03, 0xF5, 0xCF, 0xEC, 0x1F, 0x14, 0xFF, 0x01, 0x02, 0xFE, 0x01, 0xC6, 0xE6, 0xFF, 0xFF,
    0x04, 0x00, 0x00, 0x00, 0xC0, 0x00, 0x00, 0x00, 0x41, 0x1D, 0x00, 0x00, 0x22, 0xFF, 0xFF, 0xFF,
    0x4C, 0x06, 0x00, 0x00, 0x65, 0x04, 0x00, 0x00, 0x5B, 0x0C, 0x00, 0x00, 0x21, 0x02, 0x00, 0x00,
    0x49, 0x10, 0x00, 0x00, 0x1C, 0xFD, 0xFF, 0xFF, 0x4C, 0x13, 0x00, 0x00, 0xBC, 0x24, 0x00, 0x00,
    0x3B, 0xFF, 0xFF, 0xFF, 0xF0, 0xFC, 0xFF, 0xFF, 0xBC, 0x06, 0x00, 0x00, 0x83, 0x04, 0x00, 0x00,
    0x8A, 0x02, 0x00, 0x00, 0xB4, 0x09, 0x00, 0x00, 0x48, 0x06, 0x00, 0x00, 0x14, 0x07, 0x00, 0x00,
    0x23, 0xFC, 0xFF, 0xFF, 0xAA, 0x00, 0x00, 0x00, 0xF2, 0x0D, 0x00, 0x00, 0x9D, 0x08, 0x00, 0x00,
    0xAE, 0x0C, 0x00, 0x00, 0x43, 0x01, 0x00, 0x00, 0xDB, 0x05, 0x00, 0x00, 0xD3, 0x09, 0x00, 0x00,
    0x09, 0x1B, 0x00, 0x00, 0xD5, 0xFE, 0xFF, 0xFF, 0x85, 0x11, 0x00, 0x00, 0xF0, 0xFE, 0xFF, 0xFF,
    0x9C, 0x0E, 0x00, 0x00, 0x5E, 0x11, 0x00, 0x00, 0x10, 0x0A, 0x00, 0x00, 0x7C, 0x01, 0x00, 0x00,
    0xD3, 0x03, 0x00, 0x00, 0x44, 0x08, 0x00, 0x00, 0x74, 0x07, 0x00, 0x00, 0x54, 0x08, 0x00, 0x00,
    0x71, 0x03, 0x00, 0x00, 0xFA, 0x04, 0x00, 0x00, 0x05, 0xFF, 0xFF, 0xFF, 0x8F, 0x0B, 0x00, 0x00,
    0x4E, 0x04, 0x00, 0x00, 0xD0, 0x10, 0x00, 0x00, 0x71, 0x1A, 0x00, 0x00, 0x00, 0x09, 0x00, 0x00,
    0x37, 0x01, 0x00, 0x00, 0x02, 0x08, 0x00, 0x00, 0x92, 0xE7, 0xFF, 0xFF, 0x04, 0x00, 0x00, 0x00,
    0x80, 0x01, 0x00, 0x00, 0x4B, 0xBD, 0x1A, 0xF8, 0x32, 0x81, 0xFC, 0xCB, 0xBF, 0xD3, 0xA9, 0x4B,
    0x81, 0x3D, 0xE7, 0x1B, 0x31, 0xCC, 0x30, 0xDD, 0x7F, 0xE2, 0xFC, 0x4C, 0xF0, 0x7F, 0xE8, 0x60,
    0x18, 0x0B, 0xC8, 0xE7, 0xEB, 0x7F, 0x4D, 0xDD, 0x36, 0x23, 0xC0, 0x12, 0xAE, 0x1D, 0xFC, 0x04,
    0x7F, 0xF9, 0x54, 0xEF, 0x7F, 0xC6, 0x4D, 0x1C, 0x36, 0x4E, 0x44, 0xF2, 0xEE, 0xD0, 0x29, 0x2C,
    0x57, 0x18, 0xBF, 0x7F, 0x2F, 0x18, 0xD8, 0x81, 0x14, 0x6E, 0xC1, 0x1F, 0x81, 0x22, 0x8E, 0xFD,
    0x72, 0xD6, 0xB8, 0x10, 0xE4, 0xC2, 0x17, 0x0F, 0xF0, 0xB9, 0x81, 0xC9, 0x32, 0x62, 0xE4, 0xF9,
    0xE0, 0xA3, 0x31, 0x7F, 0x43, 0xCA, 0xA2, 0x57, 0xA4, 0x7F, 0x41, 0x5A, 0xE3, 0xE4, 0x81, 0x0D,
    0xBE, 0x3F, 0x19, 0x29, 0xBB, 0x7F, 0xA9, 0x49, 0x46, 0x20, 0xF3, 0x4B, 0xA3, 0x03, 0xEC, 0x0C,
    0x63, 0x5E, 0xBD, 0x81, 0x22, 0x81, 0x89, 0xE8, 0xD6, 0x4A, 0xF7, 0xE4, 0x0D, 0x7F, 0x97, 0xD6,
    0xB2, 0x2A, 0x43, 0x9A, 0xBB, 0x81, 0x1B, 0x13, 0x74, 0xCB, 0xDC, 0x2C, 0xB4, 0x70, 0xED, 0x0F,
    0xFE, 0xA8, 0x81, 0x38, 0x6C, 0xE3, 0x25, 0xC8, 0xE4, 0xAC, 0x1E, 0x7F, 0x48, 0xE3, 0x7F, 0x41,
    0xDA, 0x5F, 0x46, 0xD9, 0xE6, 0x7F, 0xFC, 0x1C, 0x75, 0xAF, 0x95, 0xC8, 0x16, 0xE7, 0x17, 0x7F,
    0x00, 0xE3, 0x2D, 0xF8, 0xE8, 0x36, 0x7F, 0xB3, 0xF2, 0xFA, 0x0A, 0xE4, 0xCD, 0x8E, 0x6D, 0x3C,
    0x24, 0x03, 0xD5, 0x7F, 0x34, 0xD8, 0x81, 0xDC, 0xB5, 0x49, 0x11, 0x5D, 0x21, 0x7F, 0xAF, 0xC5,
    0xE8, 0x16, 0x15, 0x94, 0xF1, 0x24, 0xCF, 0xBB, 0xE9, 0xD1, 0x81, 0xE1, 0x83, 0x45, 0x95, 0xB9,
    0x7F, 0x57, 0xC6, 0xEB, 0x54, 0xC4, 0x0C, 0xFD, 0x81, 0x63, 0x76, 0x3E, 0xA0, 0x70, 0xFF, 0x6C,
    0x7F, 0xBD, 0xD2, 0xF7, 0x0B, 0x5C, 0x38, 0xEB, 0x7F, 0xD1, 0x05, 0xA7, 0x81, 0x30, 0x87, 0x0C,
    0x2B, 0x09, 0xEB, 0xF7, 0x2A, 0x23, 0x56, 0xA3, 0xC3, 0x81, 0x34, 0x66, 0x81, 0x2E, 0x24, 0xEB,
    0xC5, 0x0B, 0x04, 0x0F, 0x03, 0xC8, 0xD9, 0x35, 0xE6, 0xFE, 0x7F, 0x2B, 0xCA, 0xED, 0xA1, 0xD7,
    0xDD, 0x81, 0xA5, 0x00, 0x97, 0x0B, 0x09, 0x21, 0x81, 0x10, 0x2E, 0x09, 0xAD, 0xE3, 0x1B, 0xC9,
    0xBE, 0x41, 0x81, 0xC1, 0x44, 0x84, 0x08, 0x38, 0xD7, 0xC5, 0x7F, 0x3F, 0x19, 0x7F, 0x5A, 0x2C,
    0x21, 0x23, 0x9F, 0xDC, 0x32, 0x7F, 0xD5, 0xF9, 0xDA, 0x22, 0xF3, 0xC8, 0x9E, 0x5C, 0xBD, 0x81,
    0xDB, 0x35, 0xC7, 0x34, 0xC6, 0x0B, 0xE4, 0x17, 0x36, 0x7F, 0x00, 0xFF, 0x0D, 0x6F, 0xB9, 0xD5,
    0xB0, 0x85, 0xD5, 0x7F, 0x0F, 0x7F, 0x90, 0xD5, 0xB3, 0x0C, 0x0A, 0x8D, 0x04, 0x17, 0x0A, 0xD5,
    0xAD, 0x81, 0xD3, 0x20, 0x1E, 0xE9, 0xFF, 0xFF, 0x04, 0x00, 0x00, 0x00, 0x20, 0x00, 0x00, 0x00,
    0xF1, 0x1D, 0x00, 0x00, 0xF6, 0xF1, 0xFF, 0xFF, 0xC6, 0xF7, 0xFF, 0xFF, 0xE5, 0x02, 0x00, 0x00,
    0x42, 0x07, 0x00, 0x00, 0xBA, 0xCD, 0xFF, 0xFF, 0x72, 0xEE, 0xFF, 0xFF, 0x2C, 0xDE, 0xFF, 0xFF,
    0x4A, 0xE9, 0xFF, 0xFF, 0x04, 0x00, 0x00, 0x00, 0x80, 0x01, 0x00, 0x00, 0xE6, 0x15, 0x0E, 0x1C,
    0xEF, 0x0C, 0x02, 0x22, 0xCF, 0xFD, 0xDB, 0xFA, 0xF4, 0x11, 0x2E, 0x02, 0xD5, 0xEA, 0x1B, 0xED,
    0xE9, 0x7F, 0xE6, 0xEF, 0xE9, 0xD8, 0x03, 0x22, 0xD8, 0x20, 0x07, 0xE9, 0xFA, 0x16, 0x1E, 0x20,
    0x13, 0x03, 0x1A, 0xE9, 0x00, 0xDC, 0xEE, 0xF2, 0xEE, 0x18, 0x1C, 0x0C, 0x09, 0x33, 0x06, 0x2F,
    0x1F, 0x24, 0x25, 0x70, 0xD4, 0xD2, 0x50, 0xD9, 0xDF, 0xE4, 0x20, 0xE9, 0xF3, 0x01, 0x2D, 0x00,
    0x1F, 0x81, 0xF7, 0xBA, 0x0C, 0x0F, 0xF2, 0x0C, 0xFD, 0x09, 0xDB, 0xC0, 0xD3, 0xFC, 0x13, 0xEE,
    0x0E, 0x3A, 0x3E, 0xEB, 0x19, 0x19, 0x2A, 0xE2, 0xD8, 0x2A, 0x06, 0x31, 0xF9, 0x1C, 0x05, 0x21,
    0x1F, 0x0C, 0xE5, 0x21, 0x10, 0x0D, 0x3F, 0x14, 0x07, 0xF2, 0x22, 0xCD, 0x14, 0x1D, 0xFB, 0x13,
    0xEF, 0x7F, 0xFD, 0xF6, 0x18, 0xD8, 0xFD, 0x01, 0xED, 0x23, 0xE7, 0xC6, 0xEE, 0x0E, 0x10, 0xDD,
    0x1B, 0xF2, 0xDA, 0xE6, 0x1C, 0xF1, 0xFA, 0xD0, 0xD5, 0x20, 0x09, 0x0F, 0xD7, 0x3B, 0xFA, 0x01,
    0xEE, 0x29, 0x48, 0xFD, 0x06, 0x06, 0x0A, 0x17, 0xF4, 0x29, 0x2F, 0x19, 0xEB, 0x03, 0x07, 0x04,
    0x2D, 0xB5, 0xFC, 0x1B, 0xF0, 0xFC, 0x81, 0x22, 0xDA, 0xE3, 0xFB, 0x0C, 0xDA, 0xF4, 0x12, 0x23,
    0x25, 0xF1, 0xE1, 0xDB, 0xFE, 0xF3, 0x0F, 0x18, 0x13, 0xFD, 0x25, 0x0E, 0x15, 0xF6, 0xD5, 0x0D,
    0x1A, 0xF6, 0x0C, 0xF8, 0xC4, 0x02, 0x01, 0x13, 0xFB, 0xEE, 0xE2, 0x12, 0xE0, 0x1E, 0xF8, 0xF6,
    0xFD, 0x81, 0xFB, 0xFC, 0x20, 0x1C, 0x24, 0xD5, 0x30, 0xF8, 0x08, 0x0E, 0xED, 0x26, 0x1C, 0xF4,
    0xF0, 0x12, 0xFF, 0x0A, 0xF3, 0xC5, 0xB0, 0x15, 0x25, 0x26, 0xFC, 0xFE, 0xFA, 0x35, 0x47, 0x00,
    0x03, 0x0B, 0x14, 0x98, 0x2E, 0xD8, 0xF4, 0x03, 0x45, 0xBA, 0xF4, 0x0A, 0x03, 0xD0, 0x20, 0x02,
    0xEB, 0x7F, 0x28, 0x13, 0x4C, 0x06, 0x51, 0x29, 0x57, 0x30, 0xEF, 0xDF, 0xC6, 0xD8, 0x54, 0x24,
    0xD1, 0xDA, 0xFD, 0x9D, 0x0B, 0xEB, 0x40, 0x3B, 0xC9, 0xD8, 0xD4, 0xE0, 0x3E, 0x01, 0xE4, 0x1C,
    0x3E, 0xDF, 0x3B, 0xC3, 0x33, 0x30, 0xFD, 0xE6, 0xF6, 0x34, 0x0E, 0xA9, 0x11, 0x81, 0xDE, 0xF5,
    0x23, 0xEA, 0xFF, 0x1C, 0xDC, 0xDF, 0x30, 0xE7, 0x3A, 0xDE, 0x72, 0x2C, 0x3F, 0x36, 0x21, 0xCF,
    0xBB, 0x0F, 0x3F, 0xD7, 0xE1, 0x1B, 0xAF, 0x44, 0x0C, 0x06, 0x28, 0xC4, 0xF4, 0x24, 0x2B, 0x30,
    0x05, 0x0C, 0x33, 0x5B, 0x32, 0x0F, 0x04, 0x40, 0xB9, 0xF9, 0x24, 0xEE, 0x4F, 0xEB, 0xE7, 0xEC,
    0x03, 0x81, 0x04, 0x9B, 0xB7, 0x43, 0x32, 0x12, 0x03, 0x1B, 0x1E, 0xED, 0x11, 0xE3, 0xFF, 0x13,
    0xE6, 0x59, 0xA9, 0xF2, 0x10, 0x05, 0x1D, 0xE4, 0xD7, 0xFF, 0x22, 0x14, 0xD6, 0xEA, 0xFF, 0xFF,
    0x04, 0x00, 0x00, 0x00, 0xC0, 0x00, 0x00, 0x00, 0x12, 0x66, 0x00, 0x00, 0x07, 0x4B, 0x00, 0x00,
    0x6D, 0x15, 0x00, 0x00, 0xAF, 0x4A, 0x00, 0x00, 0xF6, 0x1B, 0x00, 0x00, 0xCF, 0x23, 0x00, 0x00,
    0xCD, 0x52, 0x00, 0x00, 0xA4, 0x22, 0x00, 0x00, 0x86, 0xC9, 0x00, 0x00, 0xEC, 0xF9, 0xFF, 0xFF,
    0xD8, 0xFC, 0xFF, 0xFF, 0xDF, 0x54, 0x00, 0x00, 0x6B, 0x47, 0x00, 0x00, 0x10, 0xEE, 0xFF, 0xFF,
    0xB3, 0x1A, 0x00, 0x00, 0x4A, 0xFD, 0xFF, 0xFF, 0xE0, 0x1F, 0x00, 0x00, 0x35, 0x5F, 0x00, 0x00,
    0x3F, 0x3C, 0x00, 0x00, 0x28, 0x01, 0x00, 0x00, 0xAA, 0x17, 0x00, 0x00, 0x46, 0xFE, 0xFF, 0xFF,
    0x56, 0x05, 0x00, 0x00, 0x6A, 0x05, 0x00, 0x00, 0xD9, 0xB2, 0x00, 0x00, 0x3C, 0x70, 0x00, 0x00,
    0xDB, 0x0E, 0x00, 0x00, 0x71, 0x02, 0x00, 0x00, 0x8B, 0x02, 0x00, 0x00, 0x51, 0x3B, 0x00, 0x00,
    0x23, 0xFC, 0xFF, 0xFF, 0x8D, 0x08, 0x00, 0x00, 0xFB, 0xAB, 0xFF, 0xFF, 0xED, 0x3C, 0x00, 0x00,
    0x68, 0x63, 0x00, 0x00, 0x10, 0x77, 0x00, 0x00, 0xE1, 0x53, 0x00, 0x00, 0xAC, 0x5D, 0x00, 0x00,
    0x75, 0x00, 0x00, 0x00, 0xD4, 0xFD, 0xFF, 0xFF, 0xF7, 0x14, 0x00, 0x00, 0x3F, 0xD0, 0x00, 0x00,
    0x32, 0x01, 0x00, 0x00, 0x4F, 0x0D, 0x00, 0x00, 0x6C, 0xFF, 0xFF, 0xFF, 0xD9, 0xF8, 0xFF, 0xFF,
    0x0A, 0x62, 0x00, 0x00, 0x56, 0x34, 0x00, 0x00, 0xA2, 0xEB, 0xFF, 0xFF, 0x04, 0x00, 0x00, 0x00,
    0xB0, 0x01, 0x00, 0x00, 0xFE, 0xC7, 0xE6, 0xC4, 0xC3, 0x27, 0xDB, 0xD6, 0xD3, 0x5E, 0x35, 0x92,
    0xDA, 0x41, 0xAE, 0x48, 0x55, 0xAC, 0xBF, 0x7D, 0xF7, 0x33, 0xC2, 0x47, 0xA8, 0xCC, 0x4D, 0x3F,
    0x38, 0xEF, 0x29, 0x63, 0x6F, 0xD7, 0xAE, 0xED, 0xAC, 0xA6, 0x7F, 0x6B, 0xE8, 0x04, 0x26, 0x43,
    0x45, 0x49, 0xC0, 0xC2, 0x9B, 0x81, 0xB1, 0xCA, 0x9D, 0xE5, 0xC3, 0x8C, 0xAB, 0x46, 0x57, 0xB0,
    0xC8, 0x4C, 0xA9, 0x52, 0x6E, 0xC8, 0xA1, 0xE9, 0x15, 0x3D, 0x4E, 0x57, 0xDA, 0xC8, 0x66, 0x60,
    0x6F, 0x81, 0x45, 0x66, 0x5F, 0xA8, 0x81, 0xB9, 0xC5, 0x84, 0x5E, 0x7F, 0xCA, 0x09, 0x36, 0x7B,
    0x1A, 0x7F, 0x81, 0x9E, 0x06, 0xDD, 0x01, 0xDF, 0x81, 0xF9, 0xDA, 0xB6, 0xD5, 0x4D, 0x32, 0x09,
    0xE5, 0x5E, 0xF4, 0x1A, 0x2A, 0xDD, 0xF7, 0xBD, 0x5E, 0x88, 0xCB, 0x25, 0xF0, 0xDB, 0x51, 0xF1,
    0x49, 0xE1, 0x28, 0xF7, 0x5B, 0xE7, 0xB8, 0xF3, 0xDF, 0xE2, 0xFE, 0x4C, 0xC9, 0x19, 0x1E, 0x51,
    0xFE, 0x27, 0xC2, 0xAD, 0xAC, 0x8E, 0xCC, 0xD2, 0xB1, 0xE0, 0x8A, 0xC8, 0xB2, 0x4B, 0x4E, 0x82,
    0xA0, 0x78, 0xC7, 0x34, 0x48, 0x81, 0xC5, 0x7F, 0x7F, 0x39, 0x96, 0x7F, 0xBE, 0xB9, 0x65, 0x7F,
    0x79, 0x84, 0x6A, 0x4D, 0x54, 0xAC, 0x9A, 0x99, 0xC7, 0x89, 0x7C, 0x70, 0x9E, 0x92, 0x4D, 0x68,
    0x61, 0x40, 0xC0, 0x81, 0x81, 0x82, 0x81, 0x81, 0xB2, 0x81, 0x81, 0x81, 0x8A, 0x7F, 0x7F, 0x81,
    0x81, 0x7F, 0x0B, 0x7F, 0x7F, 0x98, 0x81, 0xE2, 0x5C, 0x39, 0x7F, 0x74, 0x81, 0x81, 0x7F, 0x73,
    0x7F, 0x84, 0x7F, 0x7F, 0x7F, 0x81, 0xAB, 0x81, 0x81, 0x81, 0x41, 0x67, 0x81, 0x81, 0x7F, 0x7F,
    0x53, 0x4F, 0x85, 0x85, 0xC0, 0xF1, 0xC9, 0x90, 0xC8, 0xA5, 0x9E, 0x97, 0xE6, 0x2C, 0x46, 0x9B,
    0xC0, 0x59, 0xE5, 0x27, 0x65, 0xFA, 0xEF, 0xA5, 0x2F, 0x81, 0xD0, 0x18, 0xE9, 0xC5, 0x3E, 0x24,
    0x7C, 0xC5, 0x44, 0x19, 0x4F, 0xCF, 0xD9, 0xC5, 0xBE, 0xE7, 0x3F, 0x1F, 0xCC, 0xA2, 0x3C, 0x57,
    0x3A, 0x0C, 0x96, 0xC8, 0xD5, 0xFC, 0x09, 0x0C, 0x98, 0xEB, 0xCC, 0xE1, 0xA8, 0x45, 0x31, 0xB1,
    0xE5, 0x3E, 0x81, 0x13, 0x21, 0xE6, 0x0C, 0x29, 0x4E, 0x1D, 0xE9, 0x17, 0xDE, 0xFE, 0x22, 0x1B,
    0xFD, 0xEF, 0xFD, 0x46, 0x40, 0xC0, 0x01, 0xBA, 0xEB, 0xE3, 0x18, 0x15, 0xE0, 0x9D, 0x29, 0x0A,
    0x7F, 0x3B, 0xBD, 0xAC, 0xAB, 0x16, 0xC1, 0x8A, 0xB8, 0xC4, 0xC7, 0xBB, 0x81, 0x1C, 0x32, 0xA8,
    0x9E, 0x44, 0xD6, 0x48, 0x5B, 0xDE, 0xF8, 0xC5, 0x54, 0xF9, 0x0B, 0x11, 0xBA, 0xC8, 0x19, 0x2F,
    0x50, 0xD1, 0x3F, 0x34, 0x36, 0x93, 0xDD, 0xC1, 0xDA, 0xAB, 0x01, 0x28, 0xB7, 0xA6, 0x33, 0x5A,
    0x61, 0xFD, 0x91, 0xE3, 0xF8, 0x33, 0xE5, 0xCF, 0xC1, 0x9E, 0xBC, 0xC5, 0xCC, 0x2F, 0x13, 0xC3,
    0xE7, 0x33, 0x28, 0x24, 0x51, 0xEA, 0xD5, 0x8C, 0x11, 0xCD, 0xEA, 0xF3, 0xEC, 0xF6, 0x20, 0xF8,
    0x49, 0xC3, 0x18, 0x2F, 0x1E, 0xBF, 0xC7, 0xC3, 0xDC, 0xF8, 0x07, 0x19, 0xA6, 0xBF, 0x13, 0xFD,
    0x3C, 0x1D, 0x1D, 0xC7, 0x5E, 0xED, 0xFF, 0xFF, 0x04, 0x00, 0x00, 0x00, 0xC0, 0x00, 0x00, 0x00,
    0x6B, 0x02, 0x00, 0x00, 0xD1, 0x09, 0x00, 0x00, 0x69, 0x03, 0x00, 0x00, 0x58, 0xFF, 0xFF, 0xFF,
    0xEE, 0xFE, 0xFF, 0xFF, 0xF0, 0x01, 0x00, 0x00, 0x44, 0x11, 0x00, 0x00, 0xA2, 0x07, 0x00, 0x00,
    0x2A, 0x03, 0x00, 0x00, 0xEC, 0xF8, 0xFF, 0xFF, 0xF6, 0x02, 0x00, 0x00, 0xD7, 0xFF, 0xFF, 0xFF,
    0x26, 0x0D, 0x00, 0x00, 0xAE, 0x00, 0x00, 0x00, 0x51, 0x05, 0x00, 0x00, 0x85, 0xFC, 0xFF, 0xFF,
    0xAD, 0xFF, 0xFF, 0xFF, 0x76, 0x09, 0x00, 0x00, 0x99, 0x02, 0x00, 0x00, 0xA4, 0x02, 0x00, 0x00,
    0xE4, 0xFD, 0xFF, 0xFF, 0x51, 0x3C, 0x00, 0x00, 0x71, 0x03, 0x00, 0x00, 0xDC, 0xFA, 0xFF, 0xFF,
    0x84, 0x03, 0x00, 0x00, 0x0B, 0x0A, 0x00, 0x00, 0xEB, 0x03, 0x00, 0x00, 0x03, 0xFC, 0xFF, 0xFF,
    0xF5, 0xFF, 0xFF, 0xFF, 0x58, 0x00, 0x00, 0x00, 0x4A, 0xFB, 0xFF, 0xFF, 0x1B, 0xFC, 0xFF, 0xFF,
    0xEA, 0x08, 0x00, 0x00, 0x2D, 0x02, 0x00, 0x00, 0x63, 0x11, 0x00, 0x00, 0x0E, 0x1A, 0x00, 0x00,
    0x0F, 0x13, 0x00, 0x00, 0x0A, 0x0D, 0x00, 0x00, 0xD3, 0xFA, 0xFF, 0xFF, 0xEC, 0xFA, 0xFF, 0xFF,
    0x56, 0xFE, 0xFF, 0xFF, 0x3B, 0x03, 0x00, 0x00, 0xB4, 0x02, 0x00, 0x00, 0x07, 0x01, 0x00, 0x00,
    0xF7, 0xFA, 0xFF, 0xFF, 0x80, 0xFB, 0xFF, 0xFF, 0x74, 0x08, 0x00, 0x00, 0xF9, 0x01, 0x00, 0x00,
    0x2A, 0xEE, 0xFF, 0xFF, 0x04, 0x00, 0x00, 0x00, 0x80, 0x01, 0x00, 0x00, 0xDA, 0x3E, 0xDB, 0x32,
    0x15, 0x7F, 0x13, 0x24, 0x32, 0x81, 0xA7, 0xEB, 0xD8, 0x32, 0x4E, 0xD7, 0xD3, 0x27, 0xD5, 0x81,
    0xE7, 0x96, 0xDA, 0xBC, 0xEF, 0x7F, 0x3B, 0x16, 0x01, 0xAE, 0xE6, 0x18, 0x8F, 0x3B, 0x81, 0x53,
    0x18, 0xE0, 0xBC, 0x9B, 0x47, 0xA8, 0x81, 0x1E, 0x0E, 0xED, 0x55, 0xD0, 0xF0, 0xB2, 0xCC, 0x13,
    0x81, 0xCF, 0xD8, 0x49, 0xE2, 0xCC, 0xF3, 0xD3, 0x30, 0xFC, 0xDA, 0x7F, 0x06, 0x1B, 0x99, 0x91,
    0x2B, 0xD6, 0x81, 0xA8, 0x81, 0x2A, 0xFA, 0x54, 0xEC, 0x5B, 0x7A, 0xFA, 0xE9, 0xF2, 0x51, 0x81,
    0xF2, 0x3E, 0x12, 0x22, 0x6E, 0xE3, 0x70, 0x22, 0xD2, 0x2B, 0x58, 0x7F, 0x3C, 0x0E, 0x0C, 0xCB,
    0x33, 0x58, 0x5E, 0x81, 0x2E, 0x34, 0xE1, 0x41, 0xF1, 0x81, 0xCA, 0x3B, 0x1B, 0x81, 0xEF, 0xEB,
    0x0D, 0x4E, 0x30, 0xD7, 0xA6, 0xF0, 0x0F, 0xAF, 0x2B, 0x7F, 0xAE, 0xE4, 0x0C, 0xD8, 0x6B, 0xF9,
    0xE9, 0x0C, 0x7F, 0x3F, 0x2C, 0x16, 0x2A, 0x18, 0xFC, 0x9D, 0xDD, 0x81, 0x8B, 0xF4, 0xB1, 0xE6,
    0x05, 0x81, 0x06, 0x95, 0x40, 0x1C, 0x70, 0xE9, 0xC8, 0x1F, 0x7F, 0x58, 0x17, 0x7F, 0x30, 0xFA,
    0x22, 0x2C, 0x24, 0x0B, 0xDC, 0x24, 0x18, 0x9E, 0xC7, 0x7F, 0xFD, 0xEF, 0x20, 0x00, 0x5B, 0xFF,
    0xC8, 0x03, 0x7F, 0x52, 0xAD, 0x71, 0x34, 0x23, 0x8D, 0xBE, 0x81, 0x6F, 0xEC, 0x00, 0x6A, 0x1C,
    0x81, 0x79, 0xF7, 0xB4, 0xCD, 0x17, 0x43, 0x1C, 0x81, 0x33, 0xBB, 0x19, 0xDC, 0x81, 0x1C, 0xD2,
    0x0F, 0x25, 0xFF, 0xEC, 0xD5, 0x5B, 0x2D, 0x36, 0xDD, 0x7F, 0xDE, 0xFB, 0x2A, 0x81, 0x40, 0x12,
    0x3F, 0x7E, 0x25, 0x1F, 0x0D, 0x7F, 0xE1, 0x1E, 0xB9, 0xC1, 0xE5, 0x1F, 0xDF, 0x35, 0x57, 0x3A,
    0x81, 0xDC, 0xD3, 0x9B, 0x11, 0x48, 0x21, 0x39, 0xD0, 0xF3, 0x17, 0x81, 0xED, 0xE1, 0xC6, 0x45,
    0x81, 0xD8, 0xD3, 0x03, 0x3F, 0x23, 0x52, 0x36, 0xDC, 0x2F, 0x3C, 0x7F, 0x76, 0x05, 0x81, 0xDD,
    0xBC, 0xF5, 0x54, 0x13, 0x7F, 0x55, 0x66, 0x95, 0xE0, 0xA3, 0x1B, 0x66, 0xDC, 0x82, 0x7F, 0x2D,
    0x45, 0x47, 0x14, 0xCF, 0xEC, 0x0C, 0xEF, 0x07, 0xF5, 0xBB, 0xCB, 0x7F, 0x7F, 0xF0, 0x3D, 0x00,
    0xFC, 0x1C, 0xCD, 0x22, 0x4A, 0x53, 0x88, 0x81, 0x99, 0x5B, 0x27, 0xBD, 0xDE, 0x7F, 0xDF, 0x4B,
    0xC7, 0xE3, 0xB7, 0xE0, 0x81, 0x20, 0xDC, 0xB6, 0x3F, 0x3D, 0xF6, 0xA8, 0x2A, 0xD9, 0xFA, 0xE1,
    0xE2, 0x7F, 0x09, 0x5C, 0xBB, 0x28, 0x7F, 0x09, 0x3E, 0x10, 0xD7, 0xFA, 0x16, 0x7F, 0xFF, 0x25,
    0xC4, 0xB8, 0xEC, 0xF8, 0xC4, 0x4C, 0x41, 0x81, 0xD4, 0x02, 0xC2, 0xCB, 0x40, 0xCC, 0xF2, 0x08,
    0x1C, 0x05, 0x81, 0x3D, 0x9F, 0x81, 0x0C, 0x52, 0x28, 0x9D, 0x20, 0x3F, 0xB6, 0xEF, 0xFF, 0xFF,
    0x04, 0x00, 0x00, 0x00, 0x20, 0x00, 0x00, 0x00, 0x13, 0x19, 0x00, 0x00, 0x56, 0xCD, 0xFF, 0xFF,
    0x54, 0xF9, 0xFF, 0xFF, 0xE5, 0x0F, 0x00, 0x00, 0x35, 0x09, 0x00, 0x00, 0x3E, 0xF3, 0xFF, 0xFF,
    0xBA, 0x05, 0x00, 0x00, 0x8C, 0x12, 0x00, 0x00, 0xE2, 0xEF, 0xFF, 0xFF, 0x04, 0x00, 0x00, 0x00,
    0x80, 0x01, 0x00, 0x00, 0xE8, 0xF4, 0xFB, 0xDE, 0xBE, 0xF5, 0xF6, 0xE2, 0x45, 0x0A, 0x14, 0x01,
    0x07, 0x0C, 0xEA, 0x07, 0xE1, 0x07, 0xF1, 0xEB, 0x05, 0x03, 0xF3, 0x00, 0x07, 0xF6, 0x54, 0x0B,
    0xEE, 0xAB, 0xEE, 0x0C, 0xF6, 0x29, 0x7F, 0xFD, 0xE1, 0xD6, 0x1F, 0xD6, 0x1F, 0x04, 0x00, 0xEF,
    0xED, 0xF9, 0xED, 0xA8, 0x18, 0xE4, 0xF1, 0x42, 0x08, 0xF1, 0x10, 0x27, 0x45, 0x4F, 0x24, 0xC8,
    0xC9, 0x48, 0x06, 0x08, 0xFE, 0xE3, 0x19, 0xE9, 0xC0, 0x31, 0xD2, 0x21, 0x56, 0x14, 0xE9, 0x28,
    0x1A, 0x02, 0x7F, 0x19, 0xEF, 0xD8, 0xE8, 0xFD, 0xF7, 0x0B, 0xFA, 0xF8, 0x00, 0xEA, 0x04, 0x1A,
    0xFB, 0x21, 0x1D, 0x13, 0xC6, 0x02, 0xB9, 0x69, 0xCB, 0xD2, 0x1E, 0xBD, 0xBA, 0x1C, 0x3A, 0xB6,
    0xF4, 0x09, 0xD3, 0x04, 0x7F, 0x1C, 0xB0, 0xD5, 0xC2, 0xF2, 0xD6, 0x1E, 0x5D, 0xE5, 0x6C, 0x05,
    0x4D, 0xE9, 0xC4, 0x23, 0x0A, 0xE3, 0x26, 0x07, 0xD9, 0x25, 0xF3, 0xA6, 0x39, 0xAC, 0xD7, 0x99,
    0x02, 0xBD, 0xCB, 0x57, 0x1C, 0xD7, 0x10, 0xDE, 0x2A, 0xE1, 0x03, 0xB9, 0x2B, 0xC2, 0xFC, 0xE2,
    0xAA, 0xB7, 0xF4, 0x11, 0x0D, 0xFA, 0x28, 0xDB, 0xF6, 0x1E, 0xB1, 0xFE, 0x49, 0xE2, 0x38, 0x12,
    0x01, 0x03, 0xFF, 0xE7, 0xDB, 0x25, 0x1D, 0xDD, 0xD1, 0x1C, 0x03, 0xF7, 0x7F, 0x0E, 0xCF, 0x24,
    0xD3, 0x2C, 0xF4, 0xD1, 0x18, 0x06, 0x0E, 0x0F, 0x03, 0x21, 0xF0, 0xFC, 0x2B, 0x13, 0x03, 0xC9,
    0xFF, 0x08, 0xC0, 0x18, 0xFD, 0x16, 0x19, 0xE9, 0xE7, 0x1F, 0x03, 0x24, 0x28, 0x01, 0xE1, 0x08,
    0x33, 0xF5, 0xED, 0x18, 0xFC, 0x02, 0x20, 0x15, 0x81, 0xFE, 0x2F, 0x0A, 0x0F, 0xFA, 0x01, 0x10,
    0xDC, 0x37, 0xE2, 0x9A, 0xD3, 0x8D, 0x29, 0x73, 0xD2, 0xFE, 0xC6, 0x74, 0x8F, 0x5B, 0x3F, 0x1A,
    0xAB, 0x1C, 0x48, 0xCB, 0xF9, 0x20, 0x15, 0x07, 0xFC, 0x23, 0x29, 0x3A, 0xC9, 0xFD, 0xDD, 0x2A,
    0xD1, 0x8F, 0x2F, 0x13, 0x89, 0xC8, 0xD9, 0x06, 0x7F, 0xFA, 0xDA, 0x04, 0xD7, 0xF6, 0x5F, 0x6B,
    0x1B, 0x32, 0x32, 0x35, 0x61, 0xFC, 0xFE, 0xF1, 0x4A, 0xED, 0xDE, 0xBE, 0x24, 0x22, 0x29, 0xEF,
    0xFB, 0x09, 0x09, 0x02, 0x05, 0xFC, 0xF2, 0xEB, 0xE2, 0x12, 0x0C, 0x1A, 0x38, 0xCB, 0x2A, 0xFC,
    0xF1, 0x64, 0xE9, 0x01, 0x2A, 0x1E, 0x81, 0xF6, 0xA8, 0xDF, 0x22, 0xC3, 0xF8, 0xF9, 0x05, 0xAA,
    0x08, 0xFC, 0xF1, 0xF3, 0xE0, 0xBD, 0x40, 0xD5, 0x10, 0x7F, 0x2C, 0xC7, 0xFC, 0xAA, 0xCD, 0x04,
    0xFB, 0xE4, 0xB8, 0x07, 0x0F, 0xC9, 0x61, 0x36, 0x34, 0xD7, 0x16, 0xF2, 0xEB, 0x09, 0x66, 0xF0,
    0x37, 0x14, 0x07, 0xF9, 0xD9, 0xE1, 0xCF, 0x6E, 0x8F, 0x55, 0xCD, 0xE0, 0xD9, 0x37, 0x0D, 0xBA,
    0x10, 0xEB, 0x45, 0xE5, 0x6E, 0xF1, 0xFF, 0xFF, 0x04, 0x00, 0x00, 0x00, 0xC0, 0x00, 0x00, 0x00,
    0x0E, 0x30, 0x00, 0x00, 0xAE, 0x08, 0x00, 0x00, 0xB8, 0xF9, 0xFF, 0xFF, 0xA1, 0x1F, 0x00, 0x00,
    0xD0, 0xFD, 0xFF, 0xFF, 0xDE, 0xF7, 0xFF, 0xFF, 0xA5, 0x15, 0x00, 0x00, 0x40, 0x02, 0x00, 0x00,
    0x3B, 0x0D, 0x00, 0x00, 0xCF, 0x12, 0x00, 0x00, 0xD0, 0xFF, 0xFF, 0xFF, 0x1E, 0x02, 0x00, 0x00,
    0x85, 0xF1, 0xFF, 0xFF, 0x38, 0x24, 0x00, 0x00, 0xA0, 0x12, 0x00, 0x00, 0xB5, 0xFC, 0xFF, 0xFF,
    0x79, 0xED, 0xFF, 0xFF, 0xF8, 0xFE, 0xFF, 0xFF, 0x83, 0xFE, 0xFF, 0xFF, 0xD7, 0xFC, 0xFF, 0xFF,
    0x7F, 0x25, 0x00, 0x00, 0xD8, 0xFF, 0xFF, 0xFF, 0xA0, 0xC6, 0xFF, 0xFF, 0x90, 0xFD, 0xFF, 0xFF,
    0x83, 0xF2, 0xFF, 0xFF, 0x13, 0x0B, 0x00, 0x00, 0x55, 0x02, 0x00, 0x00, 0xF1, 0xFE, 0xFF, 0xFF,
    0x0E, 0xFE, 0xFF, 0xFF, 0xA5, 0xF7, 0xFF, 0xFF, 0x79, 0xEE, 0xFF, 0xFF, 0xB1, 0x00, 0x00, 0x00,
    0xB8, 0x3C, 0x00, 0x00, 0x0E, 0xFB, 0xFF, 0xFF, 0xF8, 0x05, 0x00, 0x00, 0x12, 0x03, 0x00, 0x00,
    0x69, 0xFE, 0xFF, 0xFF, 0x7F, 0x08, 0x00, 0x00, 0xC0, 0xFA, 0xFF, 0xFF, 0xC7, 0x08, 0x00, 0x00,
    0x13, 0x38, 0x00, 0x00, 0x67, 0xFA, 0xFF, 0xFF, 0xCA, 0x06, 0x00, 0x00, 0x97, 0x00, 0x00, 0x00,
    0x1D, 0x04, 0x00, 0x00, 0x91, 0x01, 0x00, 0x00, 0xD3, 0xE7, 0xFF, 0xFF, 0x98, 0x20, 0x00, 0x00,
    0x3A, 0xF2, 0xFF, 0xFF, 0x04, 0x00, 0x00, 0x00, 0xB0, 0x01, 0x00, 0x00, 0xD5, 0x3D, 0xCD, 0xCD,
    0xFB, 0xED, 0x16, 0xF2, 0xFE, 0xED, 0x05, 0x2C, 0xFE, 0xC2, 0x93, 0x2C, 0x7F, 0xFD, 0x37, 0x2F,
    0xBD, 0xC8, 0x66, 0x9C, 0xF2, 0xCD, 0xF6, 0x74, 0xEA, 0x10, 0x0F, 0x7F, 0xE8, 0xF3, 0xF5, 0x09,
    0xFE, 0xDC, 0xFA, 0x14, 0x76, 0xAD, 0xC1, 0x2E, 0x46, 0x8D, 0xDD, 0xFC, 0xEB, 0x81, 0x28, 0x81,
    0x03, 0xEF, 0x84, 0x7F, 0x55, 0xBC, 0x19, 0x25, 0x11, 0x81, 0xAE, 0x0D, 0xE0, 0x08, 0xE1, 0xAC,
    0xE0, 0x02, 0x36, 0x7F, 0x0C, 0xE9, 0x0A, 0x7F, 0xF2, 0x00, 0x02, 0x98, 0xC2, 0x1B, 0xF4, 0xFE,
    0x6D, 0x81, 0x3C, 0xFA, 0x00, 0x9A, 0xBB, 0x1F, 0x5D, 0x48, 0x25, 0xD9, 0xDD, 0xF8, 0x16, 0xDE,
    0xFF, 0x26, 0x18, 0x43, 0x0B, 0x0B, 0x07, 0x14, 0x15, 0x22, 0xB3, 0x24, 0x4A, 0x0B, 0xDE, 0x0F,
    0xEC, 0x24, 0x31, 0x1F, 0xF0, 0x33, 0x02, 0xCB, 0xDB, 0xFF, 0xEF, 0xDE, 0xE9, 0x03, 0xFB, 0x08,
    0xE7, 0x6E, 0xEC, 0x0C, 0x5A, 0xE0, 0x0C, 0xDD, 0x32, 0x25, 0xCF, 0xEE, 0xFC, 0xF3, 0x81, 0xF0,
    0xE5, 0x16, 0x05, 0x03, 0x19, 0xC1, 0xFF, 0x95, 0xEA, 0xE6, 0x81, 0x7F, 0x7C, 0x02, 0x7F, 0x65,
    0xF6, 0x7F, 0x7F, 0x5B, 0x07, 0xBC, 0xD7, 0x0E, 0x36, 0xDF, 0x1F, 0x96, 0xFA, 0xE3, 0xC9, 0x00,
    0x03, 0x99, 0x34, 0x13, 0x4A, 0x7F, 0xED, 0xF1, 0xC1, 0x7F, 0x48, 0xD9, 0x81, 0x3C, 0x7F, 0x7C,
    0x7F, 0x95, 0x81, 0xEE, 0xF5, 0x81, 0x81, 0x81, 0x7F, 0xE4, 0xEC, 0x25, 0x22, 0x81, 0x9E, 0x81,
    0x7F, 0xF8, 0x99, 0xB7, 0x7F, 0xC4, 0x7F, 0xD9, 0x7F, 0x7F, 0xE1, 0x4D, 0x81, 0x81, 0x7F, 0x81,
    0x46, 0xAD, 0x81, 0x81, 0x1A, 0x77, 0xA0, 0x17, 0x81, 0xBB, 0x7F, 0x7F, 0xF5, 0x07, 0x05, 0x0E,
    0x26, 0x7F, 0xF1, 0x32, 0x4F, 0x05, 0x2E, 0xCB, 0xF1, 0xEE, 0xA9, 0xFF, 0x64, 0x2E, 0xE6, 0x37,
    0xC9, 0x8C, 0x71, 0xF4, 0x04, 0x7F, 0x10, 0xF8, 0x29, 0x1B, 0x7F, 0x19, 0x12, 0x0F, 0x35, 0x0A,
    0xD9, 0x57, 0x35, 0xF5, 0xFD, 0x5D, 0x7F, 0xF1, 0xCE, 0xCA, 0x43, 0xF4, 0xD8, 0x0E, 0xBA, 0xFC,
    0xF8, 0xF1, 0x08, 0xED, 0x20, 0x0C, 0xFD, 0x2D, 0x07, 0x09, 0x4C, 0x12, 0x1F, 0x01, 0x3A, 0x0F,
    0xB5, 0xFD, 0x46, 0x16, 0xF1, 0xCF, 0xF3, 0xBF, 0xFB, 0xF8, 0xF5, 0xE0, 0xDE, 0x3B, 0xF2, 0x05,
    0xC8, 0x01, 0x03, 0x02, 0x18, 0xE9, 0xDD, 0xBD, 0xF4, 0x07, 0xC4, 0xD8, 0xDD, 0xDB, 0x33, 0xFE,
    0xB6, 0xEE, 0xB0, 0x94, 0x7F, 0x3F, 0x34, 0x37, 0x03, 0xD3, 0x21, 0x0F, 0x55, 0x5D, 0xF6, 0xF5,
    0x90, 0x08, 0x08, 0xE7, 0xF6, 0xCD, 0xBD, 0xBB, 0xDA, 0xE3, 0x6E, 0x1C, 0xAF, 0x3A, 0xB9, 0x02,
    0x1A, 0x81, 0x2B, 0x27, 0x81, 0xE5, 0x96, 0x7F, 0x16, 0xFE, 0x40, 0xC8, 0xF4, 0xF6, 0x1E, 0xF1,
    0xDA, 0x1A, 0x18, 0x9A, 0x03, 0xED, 0xE8, 0x13, 0x0D, 0x0C, 0x49, 0xA1, 0x1E, 0xEC, 0xD4, 0xF3,
    0xA2, 0x02, 0x21, 0xFC, 0xF7, 0x2D, 0xE3, 0x0A, 0xF6, 0xE8, 0x12, 0x0D, 0xE7, 0x2F, 0xD0, 0x07,
    0x81, 0x4C, 0xED, 0x16, 0xFB, 0xEA, 0x32, 0x34, 0xE8, 0xEE, 0xBB, 0xE8, 0xF6, 0xF3, 0xFF, 0xFF,
    0x04, 0x00, 0x00, 0x00, 0xC0, 0x00, 0x00, 0x00, 0xAC, 0x09, 0x00, 0x00, 0xC9, 0x03, 0x00, 0x00,
    0x14, 0x0D, 0x00, 0x00, 0x8F, 0x0C, 0x00, 0x00, 0xBC, 0x00, 0x00, 0x00, 0xDE, 0x0C, 0x00, 0x00,
    0x59, 0x03, 0x00, 0x00, 0x9E, 0x03, 0x00, 0x00, 0x20, 0x05, 0x00, 0x00, 0xF1, 0x09, 0x00, 0x00,
    0x4F, 0x09, 0x00, 0x00, 0x1B, 0x0A, 0x00, 0x00, 0x7E, 0x07, 0x00, 0x00, 0xC4, 0x04, 0x00, 0x00,
    0x02, 0x08, 0x00, 0x00, 0x49, 0xFE, 0xFF, 0xFF, 0x9D, 0x00, 0x00, 0x00, 0x33, 0xF9, 0xFF, 0xFF,
    0x98, 0x17, 0x00, 0x00, 0xE2, 0x06, 0x00, 0x00, 0xD2, 0x04, 0x00, 0x00, 0x49, 0x0D, 0x00, 0x00,
    0x2F, 0x18, 0x00, 0x00, 0xD0, 0x00, 0x00, 0x00, 0x4F, 0x07, 0x00, 0x00, 0xA5, 0x0A, 0x00, 0x00,
    0x10, 0x05, 0x00, 0x00, 0x4B, 0xFF, 0xFF, 0xFF, 0xCE, 0xFA, 0xFF, 0xFF, 0x15, 0x03, 0x00, 0x00,
    0x94, 0x0C, 0x00, 0x00, 0xE3, 0x06, 0x00, 0x00, 0xEC, 0x03, 0x00, 0x00, 0xC4, 0x03, 0x00, 0x00,
    0xF0, 0x01, 0x00, 0x00, 0x2A, 0xFE, 0xFF, 0xFF, 0x77, 0x02, 0x00, 0x00, 0x80, 0x06, 0x00, 0x00,
    0xCF, 0xFF, 0xFF, 0xFF, 0xA1, 0x04, 0x00, 0x00, 0x4F, 0x04, 0x00, 0x00, 0xFE, 0x0C, 0x00, 0x00,
    0x3B, 0x06, 0x00, 0x00, 0x90, 0x01, 0x00, 0x00, 0xD9, 0x09, 0x00, 0x00, 0xED, 0x02, 0x00, 0x00,
    0xBE, 0xFF, 0xFF, 0xFF, 0xC6, 0x19, 0x00, 0x00, 0xC2, 0xF4, 0xFF, 0xFF, 0x04, 0x00, 0x00, 0x00,
    0x80, 0x01, 0x00, 0x00, 0x8B, 0xFF, 0x24, 0x9F, 0x81, 0x55, 0xF7, 0xCE, 0x62, 0x06, 0x06, 0xE2,
    0x07, 0x3C, 0x81, 0x2D, 0xDD, 0x3D, 0x81, 0x44, 0xC8, 0x6B, 0x19, 0x2E, 0x6B, 0xE6, 0xE8, 0x65,
    0xF3, 0xAE, 0x0D, 0x7F, 0xB1, 0xF6, 0x00, 0x0A, 0xF3, 0xE4, 0x7F, 0x02, 0x2A, 0x7F, 0x13, 0x24,
    0x9B, 0xB2, 0xF5, 0xFA, 0x06, 0xB6, 0x1E, 0x7F, 0x0E, 0xA0, 0xE9, 0x22, 0x7F, 0xF0, 0x52, 0xFD,
    0xBA, 0x22, 0x4B, 0x60, 0xD2, 0x81, 0x34, 0x33, 0x5D, 0xDA, 0xDC, 0x0B, 0xA5, 0x95, 0x18, 0xE4,
    0xE9, 0x0C, 0xCD, 0x7F, 0xEC, 0x88, 0x02, 0x7F, 0x38, 0x75, 0x19, 0xD5, 0xBE, 0x81, 0x0A, 0xC4,
    0x2D, 0x32, 0xEB, 0x5A, 0x57, 0xF0, 0x55, 0xC0, 0x14, 0x81, 0x5B, 0xF0, 0x25, 0x11, 0x1D, 0x7F,
    0xF4, 0x16, 0x2B, 0xBA, 0xC8, 0x00, 0x24, 0x0A, 0x6F, 0xDD, 0xF1, 0x7F, 0xA1, 0x7F, 0x46, 0x67,
    0x3E, 0x79, 0xB7, 0x5C, 0x0E, 0xE9, 0xC5, 0x81, 0xC2, 0x42, 0x11, 0x3B, 0x17, 0x7F, 0x00, 0x35,
    0xDE, 0xD7, 0xF7, 0x19, 0x18, 0x24, 0xEB, 0x81, 0xCA, 0xB6, 0x26, 0xE5, 0x1A, 0xBB, 0x81, 0xB2,
    0xA4, 0x75, 0x25, 0xEB, 0x1A, 0x0B, 0x15, 0x01, 0x7F, 0x22, 0x22, 0xE2, 0x81, 0xD5, 0xC6, 0xA8,
    0x34, 0x10, 0x42, 0x01, 0xBF, 0xCC, 0x65, 0x7C, 0x34, 0xD9, 0xDC, 0x7F, 0x15, 0x32, 0xEF, 0x75,
    0x75, 0x07, 0x02, 0x7F, 0x7F, 0x02, 0x93, 0xE4, 0x04, 0xEF, 0x29, 0xDC, 0xFB, 0xF5, 0xD6, 0xDB,
    0x59, 0xDA, 0x81, 0xC8, 0x75, 0x0B, 0x69, 0xE4, 0xAB, 0x3A, 0x3B, 0x7F, 0x2C, 0xD3, 0xBE, 0x53,
    0x0A, 0xE3, 0xE4, 0x81, 0xBF, 0x7F, 0x59, 0x3F, 0x4A, 0xF3, 0xE9, 0x07, 0x02, 0x07, 0x2D, 0x06,
    0xBA, 0xFD, 0x7F, 0x42, 0xC6, 0xBD, 0x34, 0xC2, 0xB1, 0x7F, 0x3D, 0x30, 0x52, 0x25, 0x64, 0xEB,
    0xA8, 0x46, 0x4F, 0x7F, 0x97, 0xF0, 0xE3, 0x19, 0xE3, 0x1A, 0x7F, 0x0E, 0x8E, 0x7F, 0x50, 0x5E,
    0x16, 0x15, 0xBC, 0xFC, 0x7E, 0x02, 0x22, 0xEC, 0x0C, 0x39, 0x81, 0x14, 0x07, 0xFC, 0x16, 0x1D,
    0xD0, 0x22, 0x0E, 0x81, 0x1A, 0x00, 0xB2, 0x86, 0x25, 0xEE, 0x27, 0x7F, 0x3F, 0xE1, 0xCF, 0xD7,
    0xDE, 0x0A, 0x37, 0x81, 0x1D, 0x7F, 0x0C, 0x6B, 0xBE, 0x9E, 0xF5, 0xF0, 0x65, 0x03, 0x72, 0xEE,
    0xBF, 0x17, 0x7F, 0x7A, 0xC1, 0xB1, 0x7F, 0x57, 0xF2, 0xE6, 0xA3, 0x0F, 0x25, 0xE8, 0xF8, 0x11,
    0x0F, 0xBB, 0xF1, 0x7F, 0x38, 0xA7, 0xA1, 0x95, 0xC1, 0x53, 0x18, 0x81, 0x5A, 0xFD, 0x77, 0xE4,
    0xB0, 0xF4, 0x6C, 0x7F, 0xA0, 0x87, 0xA0, 0x7F, 0x79, 0x06, 0xBC, 0x1E, 0x7F, 0xF3, 0x56, 0xE4,
    0xCA, 0x1D, 0xE7, 0x5C, 0x22, 0x81, 0x00, 0x46, 0x69, 0x03, 0x34, 0x0F, 0x3D, 0x7F, 0xF3, 0x66,
    0xE1, 0xAE, 0x1F, 0xA4, 0x4E, 0xF6, 0xFF, 0xFF, 0x04, 0x00, 0x00, 0x00, 0x20, 0x00, 0x00, 0x00,
    0x01, 0x15, 0x00, 0x00, 0xD9, 0xFE, 0xFF, 0xFF, 0xCC, 0x07, 0x00, 0x00, 0x59, 0x24, 0x00, 0x00,
    0x3A, 0x0E, 0x00, 0x00, 0x90, 0x1B, 0x00, 0x00, 0x15, 0x0A, 0x00, 0x00, 0xD3, 0xF7, 0xFF, 0xFF,
    0x7A, 0xF6, 0xFF, 0xFF, 0x04, 0x00, 0x00, 0x00, 0x80, 0x01, 0x00, 0x00, 0xDF, 0x1C, 0xDE, 0xFD,
    0xD2, 0xE5, 0xB4, 0x1C, 0x0A, 0x15, 0x1C, 0x20, 0x25, 0xFF, 0xD0, 0x08, 0xD1, 0x2E, 0x0A, 0xC1,
    0x1A, 0x2E, 0x81, 0x01, 0xFB, 0x08, 0xDF, 0x2B, 0xFB, 0xFC, 0x13, 0x1B, 0x0D, 0xE4, 0x25, 0x0E,
    0xFC, 0x65, 0xBE, 0xEA, 0xF4, 0x0F, 0xE4, 0x20, 0x06, 0x05, 0x11, 0xFC, 0xC0, 0x98, 0xCC, 0x0A,
    0x5B, 0xF3, 0x85, 0x42, 0xE6, 0xDB, 0xFE, 0xB3, 0xE8, 0x4B, 0x09, 0xF3, 0x76, 0x89, 0xFA, 0xF0,
    0xB7, 0xFF, 0x0C, 0xF6, 0x12, 0xFD, 0xE4, 0xCC, 0x25, 0xE9, 0x81, 0xE7, 0x1C, 0xCF, 0xAE, 0x92,
    0x2F, 0x0D, 0xAF, 0x02, 0xFD, 0x26, 0x0C, 0x4B, 0xFF, 0x0C, 0x03, 0x27, 0x07, 0xC0, 0x05, 0x3C,
    0x6F, 0x13, 0x62, 0xFD, 0xE3, 0xE3, 0xF4, 0xC9, 0x04, 0xE5, 0x0A, 0x2A, 0xE1, 0xA3, 0x35, 0xC3,
    0x03, 0xBB, 0xCD, 0x12, 0xB9, 0x38, 0x3D, 0xA4, 0xE1, 0x01, 0xCE, 0xCA, 0x17, 0x06, 0xC1, 0xCE,
    0xF3, 0x7F, 0x53, 0xDF, 0xEE, 0x18, 0xE3, 0xAE, 0x2D, 0x20, 0x28, 0xEE, 0x0B, 0x00, 0x17, 0xF0,
    0x21, 0x1D, 0x15, 0xA4, 0x17, 0x0E, 0xF8, 0x12, 0x01, 0x8E, 0xEF, 0x02, 0xE8, 0x0F, 0xEE, 0xFD,
    0xFA, 0x31, 0x81, 0x08, 0x13, 0xA2, 0x21, 0x19, 0x2A, 0xE4, 0xE2, 0x2E, 0x04, 0x0A, 0xFB, 0xE2,
    0x9F, 0xD3, 0x0A, 0xFA, 0xFE, 0xFF, 0x28, 0x03, 0xEC, 0xFE, 0x05, 0xCF, 0x25, 0xC7, 0x12, 0x4B,
    0x39, 0x0C, 0xE2, 0xFB, 0xDA, 0xF5, 0x1A, 0xE8, 0x4F, 0x26, 0xEF, 0x24, 0xD4, 0xBF, 0x40, 0x24,
    0x2B, 0xCB, 0x7F, 0x1C, 0xE6, 0x11, 0xCA, 0xF1, 0xEF, 0x13, 0xB2, 0xCE, 0x59, 0xE4, 0xD3, 0xC9,
    0xD2, 0xD2, 0xEB, 0x0C, 0xC0, 0x5C, 0x00, 0xF9, 0x37, 0x57, 0x30, 0x1A, 0xBA, 0xEF, 0xD6, 0x35,
    0x01, 0x09, 0xF5, 0xD1, 0xB5, 0xD6, 0xE9, 0xE3, 0x11, 0x29, 0xAB, 0x16, 0x7F, 0xFC, 0x42, 0x98,
    0x1B, 0x96, 0xFD, 0xF8, 0x66, 0x88, 0x91, 0xF0, 0x3D, 0xC2, 0x1C, 0xAF, 0x03, 0xBB, 0xDE, 0x15,
    0xB6, 0xEC, 0x0D, 0xE8, 0xCC, 0x0F, 0x6C, 0x29, 0x2D, 0x10, 0x1C, 0xD3, 0xDD, 0x06, 0xDB, 0x1E,
    0xEB, 0x45, 0xB1, 0x10, 0xE7, 0x01, 0x81, 0x01, 0x2C, 0x26, 0x75, 0x18, 0x13, 0x09, 0x2B, 0xF7,
    0x24, 0xF6, 0xCF, 0xED, 0x0A, 0xF9, 0xB9, 0x12, 0xFC, 0xCC, 0x01, 0xEE, 0x27, 0xD6, 0x04, 0x07,
    0xFF, 0xF7, 0xC5, 0xDF, 0xE2, 0x32, 0xED, 0x20, 0x1B, 0x19, 0x27, 0x02, 0x1D, 0xFC, 0x26, 0xEE,
    0x04, 0x06, 0x0B, 0xF7, 0x0E, 0x05, 0xF6, 0xFA, 0xF5, 0xF7, 0xFE, 0xF5, 0x0A, 0xFB, 0xE9, 0xEE,
    0xEB, 0x0F, 0x7F, 0x0B, 0x04, 0xEF, 0x00, 0x08, 0x06, 0xF6, 0xEC, 0x0F, 0xFF, 0x14, 0xFF, 0xED,
    0xF5, 0x0C, 0x06, 0x1B, 0x03, 0x00, 0x0A, 0xFF, 0xEF, 0xFC, 0xE6, 0x0E, 0x06, 0xF8, 0xFF, 0xFF,
    0x04, 0x00, 0x00, 0x00, 0xC0, 0x00, 0x00, 0x00, 0x12, 0x1D, 0x00, 0x00, 0x29, 0xFF, 0xFF, 0xFF,
    0x87, 0x03, 0x00, 0x00, 0xCD, 0x03, 0x00, 0x00, 0x59, 0x1A, 0x00, 0x00, 0x37, 0x10, 0x00, 0x00,
    0x19, 0x01, 0x00, 0x00, 0xF3, 0x06, 0x00, 0x00, 0x32, 0x20, 0x00, 0x00, 0xEE, 0x02, 0x00, 0x00,
    0xAA, 0x00, 0x00, 0x00, 0x81, 0x00, 0x00, 0x00, 0xA5, 0xF6, 0xFF, 0xFF, 0x2B, 0x01, 0x00, 0x00,
    0x6B, 0x00, 0x00, 0x00, 0xD3, 0xFF, 0xFF, 0xFF, 0xF5, 0x21, 0x00, 0x00, 0x23, 0xFE, 0xFF, 0xFF,
    0xED, 0x02, 0x00, 0x00, 0xC5, 0x80, 0x00, 0x00, 0xD0, 0xFF, 0xFF, 0xFF, 0x7E, 0x34, 0x00, 0x00,
    0xE8, 0xFD, 0xFF, 0xFF, 0xE4, 0x10, 0x00, 0x00, 0x32, 0x03, 0x00, 0x00, 0x92, 0xE0, 0xFF, 0xFF,
    0xC2, 0x1A, 0x00, 0x00, 0xDC, 0x00, 0x00, 0x00, 0x68, 0x01, 0x00, 0x00, 0xC9, 0xFE, 0xFF, 0xFF,
    0x48, 0x0D, 0x00, 0x00, 0xA8, 0x20, 0x00, 0x00, 0xA1, 0xFF, 0xFF, 0xFF, 0x54, 0x04, 0x00, 0x00,
    0xB3, 0xFB, 0xFF, 0xFF, 0x32, 0x03, 0x00, 0x00, 0xFD, 0x1D, 0x00, 0x00, 0x61, 0xFB, 0xFF, 0xFF,
    0xD7, 0x03, 0x00, 0x00, 0xBE, 0xFE, 0xFF, 0xFF, 0xF3, 0x00, 0x00, 0x00, 0xA4, 0x02, 0x00, 0x00,
    0x99, 0x59, 0x00, 0x00, 0xAB, 0xE9, 0xFF, 0xFF, 0xE8, 0xFE, 0xFF, 0xFF, 0xE0, 0xFF, 0xFF, 0xFF,
    0x39, 0xFF, 0xFF, 0xFF, 0x02, 0x02, 0x00, 0x00, 0xD2, 0xF8, 0xFF, 0xFF, 0x04, 0x00, 0x00, 0x00,
    0xB0, 0x01, 0x00, 0x00, 0x7A, 0xDC, 0xB4, 0x9F, 0x20, 0x9B, 0x5F, 0xCE, 0x33, 0x0E, 0x51, 0x2D,
    0x9D, 0x36, 0x2F, 0x89, 0x47, 0x9A, 0x09, 0xEB, 0x81, 0xC8, 0x25, 0x61, 0xEB, 0x54, 0xFD, 0x37,
    0x81, 0xD5, 0x49, 0x9B, 0xD4, 0xC0, 0x32, 0x56, 0x81, 0x31, 0x71, 0x4D, 0xD3, 0x81, 0xAB, 0x38,
    0xBE, 0xEA, 0x08, 0xAC, 0x5B, 0xBA, 0x4A, 0x7F, 0x6B, 0x21, 0x67, 0xA7, 0xC8, 0x64, 0x3D, 0x3F,
    0x05, 0x2E, 0x4C, 0x78, 0x55, 0xA8, 0x85, 0xCE, 0x60, 0xB7, 0x34, 0xEF, 0x6A, 0x7F, 0xE9, 0x4F,
    0x0F, 0x5C, 0x56, 0xC9, 0x2F, 0x72, 0x7F, 0x7F, 0x9B, 0x29, 0x4A, 0xE3, 0x5F, 0x18, 0xBE, 0x3F,
    0x7F, 0x71, 0x00, 0xF2, 0x1B, 0xE5, 0xFC, 0xD3, 0x25, 0x33, 0x2B, 0xBD, 0xEA, 0x29, 0x97, 0x1D,
    0x6D, 0xEF, 0xC2, 0x01, 0x28, 0xE9, 0x64, 0xDE, 0x27, 0xEE, 0xAC, 0x87, 0x0D, 0x0A, 0xFD, 0x19,
    0x23, 0x3D, 0x14, 0xFD, 0xF7, 0xD8, 0x25, 0x1D, 0xE4, 0x07, 0x03, 0xC1, 0xC4, 0x5D, 0xF8, 0x48,
    0xCB, 0xBF, 0x01, 0x4A, 0x68, 0x4D, 0x81, 0x0D, 0xAD, 0x81, 0x47, 0xB8, 0x40, 0xB5, 0x7F, 0xA2,
    0x6A, 0x3C, 0x7F, 0x7E, 0xDA, 0x6A, 0xF6, 0xA3, 0x7B, 0xB6, 0x32, 0x75, 0xEF, 0xF5, 0xFE, 0x07,
    0xC3, 0x1A, 0x31, 0x81, 0x81, 0xB4, 0xF6, 0x17, 0xFA, 0x7F, 0x7F, 0x7F, 0xC6, 0xB3, 0x8C, 0x2B,
    0x03, 0xE0, 0x81, 0x81, 0x7F, 0x7F, 0x71, 0xE6, 0x81, 0x0C, 0x7F, 0x81, 0x81, 0x81, 0x5D, 0x81,
    0x2D, 0x7F, 0x7B, 0x81, 0xE5, 0x7F, 0x7F, 0x81, 0xB3, 0x81, 0x4B, 0xCA, 0x48, 0x03, 0x81, 0x42,
    0x0D, 0x7F, 0x7F, 0x83, 0x77, 0x7F, 0xEC, 0xFF, 0xED, 0x69, 0x68, 0xDC, 0x7F, 0xF4, 0xB5, 0x7F,
    0xF4, 0x7F, 0x7C, 0x2C, 0x1E, 0x3E, 0xFB, 0xFD, 0xD9, 0x49, 0x24, 0xD1, 0xE8, 0x99, 0x96, 0xBD,
    0x81, 0xE9, 0xBA, 0x02, 0x29, 0x2E, 0x84, 0xB4, 0xCA, 0xF9, 0x81, 0x81, 0xDE, 0x00, 0xAB, 0x16,
    0x28, 0x56, 0x14, 0x03, 0x04, 0xC4, 0x04, 0xFB, 0xEE, 0x2C, 0x15, 0xB1, 0xC9, 0x4B, 0xEB, 0x31,
    0x02, 0xAD, 0x04, 0x5F, 0x2A, 0xCF, 0xE5, 0x03, 0x2A, 0xE3, 0xFF, 0xEE, 0x37, 0x1E, 0x18, 0x32,
    0x09, 0x43, 0xE8, 0xF3, 0x81, 0xDF, 0x02, 0xEB, 0x10, 0xEB, 0x0D, 0x21, 0x5D, 0xF6, 0xFE, 0x98,
    0x12, 0x26, 0xF2, 0xBD, 0xEB, 0xCC, 0xC1, 0x09, 0x5B, 0x13, 0x15, 0x48, 0xAB, 0xC7, 0x81, 0x13,
    0xF9, 0xF6, 0x5D, 0xBC, 0x24, 0xB1, 0x06, 0xFB, 0x2A, 0x01, 0x16, 0xDB, 0xAA, 0x3B, 0x09, 0x3C,
    0xF3, 0x41, 0xF5, 0x0C, 0xA4, 0xE7, 0xED, 0xD5, 0xD7, 0xC5, 0x20, 0xEC, 0x7F, 0xF9, 0xE0, 0x81,
    0x19, 0x37, 0xF9, 0xC7, 0x22, 0x4A, 0xCA, 0x12, 0x65, 0x2F, 0x0F, 0xF1, 0xCB, 0xF4, 0xA9, 0x54,
    0x02, 0xF4, 0x9F, 0x39, 0x0C, 0xE9, 0x13, 0x07, 0x06, 0x0C, 0x17, 0xDD, 0xE0, 0x27, 0xD0, 0x24,
    0x22, 0xF3, 0xE2, 0x00, 0x15, 0x02, 0x0D, 0xE1, 0x18, 0x0F, 0xD9, 0xBF, 0xF4, 0xFC, 0xF2, 0xD2,
    0x15, 0x25, 0xFB, 0x18, 0xFF, 0xD4, 0xD0, 0x04, 0x49, 0x1E, 0xFB, 0xCA, 0x8C, 0x2D, 0xE9, 0x25,
    0x0D, 0x08, 0x06, 0x08, 0x8E, 0xFA, 0xFF, 0xFF, 0x04, 0x00, 0x00, 0x00, 0xC0, 0x00, 0x00, 0x00,
    0xB5, 0xFC, 0xFF, 0xFF, 0x41, 0xE9, 0xFF, 0xFF, 0x92, 0x2E, 0x00, 0x00, 0x7E, 0x09, 0x00, 0x00,
    0xB5, 0x1F, 0x00, 0x00, 0x10, 0x09, 0x00, 0x00, 0x61, 0x09, 0x00, 0x00, 0xCA, 0x01, 0x00, 0x00,
    0x6E, 0xFA, 0xFF, 0xFF, 0xBA, 0xEB, 0xFF, 0xFF, 0xFC, 0x00, 0x00, 0x00, 0x97, 0x0C, 0x00, 0x00,
    0xC6, 0x36, 0x00, 0x00, 0x92, 0xDB, 0xFF, 0xFF, 0x50, 0xFF, 0xFF, 0xFF, 0xB4, 0x10, 0x00, 0x00,
    0x93, 0xEB, 0xFF, 0xFF, 0x5A, 0xFC, 0xFF, 0xFF, 0x10, 0x09, 0x00, 0x00, 0x81, 0x0E, 0x00, 0x00,
    0xEE, 0x1D, 0x00, 0x00, 0x22, 0x09, 0x00, 0x00, 0x26, 0x0A, 0x00, 0x00, 0x91, 0xFF, 0xFF, 0xFF,
    0x04, 0x23, 0x00, 0x00, 0xF7, 0x37, 0x00, 0x00, 0x0F, 0x20, 0x00, 0x00, 0x4E, 0xE0, 0xFF, 0xFF,
    0x87, 0x07, 0x00, 0x00, 0xD2, 0xFB, 0xFF, 0xFF, 0x15, 0x00, 0x00, 0x00, 0xB8, 0xF5, 0xFF, 0xFF,
    0xCD, 0x3D, 0x00, 0x00, 0xAA, 0x15, 0x00, 0x00, 0xC3, 0x1F, 0x00, 0x00, 0x1C, 0xFD, 0xFF, 0xFF,
    0x31, 0xDD, 0xFF, 0xFF, 0xA2, 0x01, 0x00, 0x00, 0xE8, 0xF3, 0xFF, 0xFF, 0xF7, 0xFC, 0xFF, 0xFF,
    0xB3, 0xDE, 0xFF, 0xFF, 0xC3, 0xE3, 0xFF, 0xFF, 0xC6, 0xF7, 0xFF, 0xFF, 0xD2, 0x07, 0x00, 0x00,
    0x37, 0x17, 0x00, 0x00, 0xFA, 0xDA, 0xFF, 0xFF, 0xD8, 0x0E, 0x00, 0x00, 0xE2, 0xFC, 0xFF, 0xFF,
    0x5A, 0xFB, 0xFF, 0xFF, 0x04, 0x00, 0x00, 0x00, 0x80, 0x01, 0x00, 0x00, 0x06, 0x2F, 0x0B, 0xE8,
    0x53, 0xEA, 0x7F, 0x01, 0x7F, 0x45, 0x3C, 0x1C, 0xEB, 0xE9, 0xEC, 0x6A, 0xBD, 0x18, 0xF4, 0x7F,
    0x07, 0xE4, 0xE3, 0x3C, 0x3F, 0xEC, 0x94, 0x02, 0xFC, 0xC7, 0x10, 0x7F, 0x81, 0x46, 0x90, 0xE6,
    0x09, 0x0E, 0xD2, 0xE0, 0x7F, 0xF0, 0xFB, 0xD1, 0xF9, 0xE4, 0x06, 0x81, 0x08, 0xFA, 0xFF, 0xFF,
    0x81, 0xE5, 0x3B, 0x04, 0xF9, 0xC3, 0xFB, 0x01, 0xEB, 0xFF, 0x81, 0xFF, 0xFE, 0x19, 0x28, 0x00,
    0x7F, 0x0D, 0xBB, 0xEB, 0x7F, 0xE6, 0x13, 0xFF, 0xF0, 0xEC, 0x23, 0x61, 0x7F, 0x06, 0xFC, 0xDB,
    0x00, 0x0A, 0x01, 0x85, 0xCB, 0x01, 0xFB, 0x7F, 0xFF, 0xD6, 0xE7, 0x20, 0x98, 0x0E, 0xDF, 0x03,
    0x03, 0x5B, 0xC9, 0x81, 0x73, 0x01, 0x7F, 0x0D, 0xF5, 0x15, 0x1D, 0x2F, 0x86, 0xF6, 0x10, 0x0F,
    0xFD, 0xF9, 0x05, 0x7F, 0x90, 0x13, 0x11, 0x7C, 0x01, 0xF5, 0xF3, 0x7F, 0x39, 0xB6, 0x7F, 0x40,
    0xF7, 0x85, 0x19, 0x36, 0x1B, 0xD1, 0xB6, 0x7F, 0x0B, 0x09, 0xF1, 0x7D, 0x09, 0xD3, 0x81, 0x32,
    0xE0, 0x0D, 0x23, 0x7C, 0x1B, 0x07, 0xFB, 0x7F, 0xFD, 0x06, 0xB3, 0xDB, 0x11, 0x2F, 0x72, 0x95,
    0x07, 0xC4, 0x07, 0x81, 0x07, 0xFE, 0xFB, 0x01, 0x81, 0xF0, 0x3D, 0x02, 0xFF, 0x39, 0xFC, 0xF6,
    0x02, 0x7F, 0xF4, 0x00, 0x70, 0x15, 0xFF, 0x66, 0xFE, 0x0B, 0xE1, 0x81, 0x81, 0x1E, 0xA9, 0xDF,
    0x1A, 0xCE, 0xD3, 0xC3, 0xD3, 0xF9, 0xC5, 0xCD, 0x08, 0x81, 0x09, 0xD5, 0x8E, 0xE9, 0x81, 0x0A,
    0x0E, 0xFF, 0xEC, 0xE3, 0x46, 0x05, 0x7F, 0x12, 0xF3, 0x28, 0x03, 0x2B, 0x01, 0xC4, 0xE5, 0x21,
    0x18, 0x81, 0x05, 0x0A, 0xEC, 0xF2, 0x24, 0x81, 0xF1, 0xFB, 0x23, 0x07, 0xD3, 0x02, 0x7F, 0xF7,
    0xFD, 0x04, 0xF2, 0x8E, 0x00, 0x0A, 0x03, 0x00, 0x7F, 0x18, 0xD7, 0xFD, 0x81, 0xF8, 0x89, 0xFF,
    0xFE, 0xD1, 0xEB, 0xC1, 0x11, 0xCA, 0xFB, 0xE2, 0x22, 0x81, 0x0B, 0xF6, 0xBD, 0x81, 0x8F, 0x22,
    0xF4, 0xD8, 0xE5, 0xFF, 0x31, 0x03, 0x8D, 0xFC, 0xF9, 0xFB, 0xFE, 0x7F, 0x55, 0x23, 0x4E, 0x29,
    0xFB, 0x7F, 0x0B, 0x24, 0xF2, 0x11, 0xFB, 0x7F, 0x09, 0xEB, 0xF1, 0x08, 0x01, 0x18, 0x0C, 0x04,
    0x7F, 0x17, 0xD5, 0x01, 0xF1, 0x0F, 0x04, 0x19, 0xEB, 0x7F, 0x94, 0xFF, 0x61, 0xF1, 0x7F, 0xFC,
    0xE1, 0x16, 0x09, 0x34, 0x71, 0xFE, 0x7F, 0x19, 0xF0, 0x0D, 0x1C, 0x26, 0x4A, 0xC2, 0xF3, 0xE1,
    0x22, 0x7F, 0x13, 0xDC, 0xF7, 0xC2, 0xFA, 0x02, 0xCF, 0xEE, 0x81, 0x06, 0xEF, 0x88, 0x3C, 0x75,
    0x13, 0x08, 0xF8, 0x81, 0x79, 0x13, 0x7F, 0x06, 0x00, 0x0C, 0x0E, 0x35, 0xAF, 0x18, 0x02, 0x7F,
    0x05, 0x00, 0xCE, 0x52, 0xF8, 0x30, 0xF4, 0xFF, 0xFE, 0x7F, 0xF2, 0x01, 0xE6, 0xFC, 0xFF, 0xFF,
    0x04, 0x00, 0x00, 0x00, 0x20, 0x00, 0x00, 0x00, 0x1D, 0x04, 0x00, 0x00, 0x62, 0x05, 0x00, 0x00,
    0x93, 0xFA, 0xFF, 0xFF, 0x9C, 0xDF, 0xFF, 0xFF, 0x1B, 0x03, 0x00, 0x00, 0x76, 0xF8, 0xFF, 0xFF,
    0x83, 0xFD, 0xFF, 0xFF, 0xAA, 0x10, 0x00, 0x00, 0x12, 0xFD, 0xFF, 0xFF, 0x04, 0x00, 0x00, 0x00,
    0x40, 0x00, 0x00, 0x00, 0xF6, 0xF3, 0xEA, 0x0E, 0xF8, 0x81, 0x0E, 0x25, 0xBC, 0x18, 0x81, 0x78,
    0x13, 0x3B, 0xEA, 0x28, 0x04, 0xF2, 0x1F, 0xFD, 0xF6, 0x81, 0x10, 0x1A, 0x16, 0x32, 0x2F, 0x7F,
    0x0D, 0xD7, 0xD0, 0xF5, 0x0D, 0x32, 0x16, 0xF2, 0x81, 0xFA, 0x0C, 0xF5, 0x43, 0xE6, 0x7F, 0x99,
    0x1A, 0xC1, 0xF9, 0xDA, 0x1A, 0x7F, 0x31, 0xD9, 0x2D, 0xF3, 0xC0, 0xEA, 0xEB, 0xE4, 0xD3, 0xF1,
    0xF3, 0x81, 0x0C, 0x2C, 0x5E, 0xFD, 0xFF, 0xFF, 0x04, 0x00, 0x00, 0x00, 0x20, 0x00, 0x00, 0x00,
    0x17, 0x1A, 0x00, 0x00, 0x24, 0x00, 0x00, 0x00, 0xED, 0xF9, 0xFF, 0xFF, 0xDB, 0x03, 0x00, 0x00,
    0x26, 0x2F, 0x00, 0x00, 0x51, 0x02, 0x00, 0x00, 0x1D, 0x01, 0x00, 0x00, 0x7C, 0x11, 0x00, 0x00,
    0x8A, 0xFD, 0xFF, 0xFF, 0x04, 0x00, 0x00, 0x00, 0x48, 0x00, 0x00, 0x00, 0xEA, 0xFE, 0x01, 0x00,
    0x03, 0x1A, 0xFC, 0xFC, 0x0F, 0x01, 0xFE, 0xFB, 0x12, 0x7F, 0x03, 0x7F, 0x07, 0x01, 0x05, 0xFA,
    0xF5, 0x10, 0x00, 0x15, 0x08, 0x81, 0xF3, 0x04, 0xEE, 0xF9, 0x93, 0xF8, 0x81, 0x63, 0xBE, 0x7F,
    0x81, 0xF8, 0x7F, 0xD4, 0x08, 0x01, 0x04, 0xC1, 0xF0, 0x01, 0x37, 0xE6, 0x13, 0xFE, 0x03, 0xFC,
    0x01, 0xE9, 0xFF, 0xF2, 0x3F, 0x02, 0x7F, 0xEB, 0x11, 0x8F, 0x00, 0x00, 0x09, 0x02, 0xFD, 0xF9,
    0xFF, 0xEB, 0x01, 0xFD, 0xDE, 0xFD, 0xFF, 0xFF, 0x04, 0x00, 0x00, 0x00, 0x20, 0x00, 0x00, 0x00,
    0x58, 0x95, 0x00, 0x00, 0xA6, 0x04, 0x00, 0x00, 0x63, 0x8C, 0x00, 0x00, 0x6E, 0x61, 0x00, 0x00,
    0x54, 0x43, 0x00, 0x00, 0xA8, 0xC1, 0x0A, 0x00, 0x5B, 0xBB, 0x00, 0x00, 0xAB, 0x6C, 0x00, 0x00,
    0x0A, 0xFE, 0xFF, 0xFF, 0x04, 0x00, 0x00, 0x00, 0xD8, 0x00, 0x00, 0x00, 0x09, 0xFB, 0x0B, 0x09,
    0xE7, 0x1D, 0x0E, 0xE8, 0x15, 0x28, 0x1C, 0x1A, 0x43, 0x11, 0x3A, 0x1A, 0xDF, 0x27, 0xEC, 0xA3,
    0xF3, 0xE4, 0x81, 0xFF, 0xFC, 0xC9, 0x13, 0x1D, 0x4C, 0x1A, 0x04, 0x08, 0xFF, 0xDF, 0xBB, 0xE6,
    0x34, 0x7B, 0x29, 0x00, 0xFF, 0xFD, 0xC8, 0x81, 0xDA, 0x1C, 0x2E, 0x0D, 0x03, 0xFE, 0x00, 0xDE,
    0xCB, 0xFE, 0x2B, 0x5B, 0x0A, 0x37, 0x7F, 0x0C, 0x13, 0x2B, 0xFF, 0xD0, 0xAB, 0xE3, 0xAF, 0xA1,
    0xD9, 0xE2, 0xFA, 0xEB, 0xFE, 0x09, 0x05, 0x04, 0x0F, 0xFF, 0x01, 0x0B, 0xF9, 0x30, 0xE5, 0xF1,
    0x51, 0xE0, 0xDB, 0x20, 0xF2, 0xF5, 0x4F, 0xC8, 0xD9, 0x7F, 0xCC, 0xB6, 0x3A, 0xE4, 0xE1, 0x0F,
    0xE7, 0xF7, 0x2A, 0xE5, 0xF1, 0x0F, 0xF4, 0xFE, 0xF4, 0xE9, 0xFB, 0x1C, 0x2D, 0x09, 0xF1, 0xE4,
    0xFC, 0xE4, 0xC4, 0xF6, 0x40, 0x7F, 0x13, 0xDE, 0xC3, 0xF9, 0xF7, 0xF3, 0x02, 0x15, 0x19, 0xFD,
    0xF5, 0xF4, 0xFE, 0xAD, 0x9E, 0xCF, 0xAC, 0x9B, 0xD5, 0xB5, 0xC8, 0xDC, 0xAB, 0x8E, 0xDE, 0x9A,
    0x81, 0xDA, 0xC6, 0xE0, 0xF7, 0xFC, 0x11, 0x02, 0xF7, 0x06, 0xFD, 0xF6, 0x06, 0x01, 0x9E, 0xFF,
    0x26, 0x07, 0x19, 0xF4, 0x45, 0x14, 0xED, 0x81, 0xE0, 0x2F, 0x13, 0x1A, 0xE7, 0x72, 0x15, 0xE2,
    0xCE, 0xF5, 0x13, 0x12, 0xFC, 0x00, 0x27, 0xF7, 0x22, 0xFB, 0x10, 0xFF, 0xF1, 0x17, 0xFA, 0xF9,
    0x15, 0xF8, 0x12, 0x54, 0xFA, 0x17, 0x7F, 0xEA, 0xFE, 0x3D, 0xE6, 0xE4, 0xCD, 0xEC, 0xD5, 0xCC,
    0xE0, 0xEB, 0x03, 0xED, 0xEE, 0xFE, 0xFF, 0xFF, 0x04, 0x00, 0x00, 0x00, 0x20, 0x00, 0x00, 0x00,
    0x00, 0x00, 0x00, 0x00, 0x00, 0x00, 0x00, 0x00, 0x00, 0x00, 0x00, 0x00, 0x01, 0x00, 0x00, 0x00,
    0x00, 0x00, 0x00, 0x00, 0x01, 0x00, 0x00, 0x00, 0x00, 0x00, 0x00, 0x00, 0x00, 0x00, 0x00, 0x00,
    0x78, 0x90, 0xFF, 0xFF, 0x7C, 0x90, 0xFF, 0xFF, 0x0F, 0x00, 0x00, 0x00, 0x4D, 0x4C, 0x49, 0x52,
    0x20, 0x43, 0x6F, 0x6E, 0x76, 0x65, 0x72, 0x74, 0x65, 0x64, 0x2E, 0x00, 0x01, 0x00, 0x00, 0x00,
    0x14, 0x00, 0x00, 0x00, 0x00, 0x00, 0x0E, 0x00, 0x18, 0x00, 0x14, 0x00, 0x10, 0x00, 0x0C, 0x00,
    0x08, 0x00, 0x04, 0x00, 0x0E, 0x00, 0x00, 0x00, 0x14, 0x00, 0x00, 0x00, 0x1C, 0x00, 0x00, 0x00,
    0x64, 0x07, 0x00, 0x00, 0x68, 0x07, 0x00, 0x00, 0x6C, 0x07, 0x00, 0x00, 0x04, 0x00, 0x00, 0x00,
    0x6D, 0x61, 0x69, 0x6E, 0x00, 0x00, 0x00, 0x00, 0x1C, 0x00, 0x00, 0x00, 0x00, 0x07, 0x00, 0x00,
    0x98, 0x06, 0x00, 0x00, 0x40, 0x06, 0x00, 0x00, 0x0C, 0x06, 0x00, 0x00, 0xCC, 0x05, 0x00, 0x00,
    0x98, 0x05, 0x00, 0x00, 0x3C, 0x05, 0x00, 0x00, 0x00, 0x05, 0x00, 0x00, 0xC0, 0x04, 0x00, 0x00,
    0x78, 0x04, 0x00, 0x00, 0x3C, 0x04, 0x00, 0x00, 0x08, 0x04, 0x00, 0x00, 0xC8, 0x03, 0x00, 0x00,
    0x94, 0x03, 0x00, 0x00, 0x48, 0x03, 0x00, 0x00, 0x0C, 0x03, 0x00, 0x00, 0xCC, 0x02, 0x00, 0x00,
    0x84, 0x02, 0x00, 0x00, 0x48, 0x02, 0x00, 0x00, 0x14, 0x02, 0x00, 0x00, 0xD4, 0x01, 0x00, 0x00,
    0x8C, 0x01, 0x00, 0x00, 0x50, 0x01, 0x00, 0x00, 0x1C, 0x01, 0x00, 0x00, 0xDC, 0x00, 0x00, 0x00,
    0x8C, 0x00, 0x00, 0x00, 0x40, 0x00, 0x00, 0x00, 0x04, 0x00, 0x00, 0x00, 0xE2, 0xF9, 0xFF, 0xFF,
    0x1C, 0x00, 0x00, 0x00, 0x00, 0x00, 0x00, 0x09, 0x1C, 0x00, 0x00, 0x00, 0x20, 0x00, 0x00, 0x00,
    0x04, 0x00, 0x00, 0x00, 0x00, 0x00, 0x06, 0x00, 0x08, 0x00, 0x04, 0x00, 0x06, 0x00, 0x00, 0x00,
    0x00, 0x00, 0x80, 0x3F, 0x01, 0x00, 0x00, 0x00, 0x47, 0x00, 0x00, 0x00, 0x01, 0x00, 0x00, 0x00,
    0x46, 0x00, 0x00, 0x00, 0xB6, 0xF9, 0xFF, 0xFF, 0x1C, 0x00, 0x00, 0x00, 0x00, 0x00, 0x00, 0x01,
    0x24, 0x00, 0x00, 0x00, 0x28, 0x00, 0x00, 0x00, 0x00, 0x00, 0x0A, 0x00, 0x10, 0x00, 0x0F, 0x00,
    0x08, 0x00, 0x04, 0x00, 0x0A, 0x00, 0x00, 0x00, 0x01, 0x00, 0x00, 0x00, 0x01, 0x00, 0x00, 0x00,
    0x00, 0x00, 0x00, 0x01, 0x01, 0x00, 0x00, 0x00, 0x46, 0x00, 0x00, 0x00, 0x03, 0x00, 0x00, 0x00,
    0x45, 0x00, 0x00, 0x00, 0x2A, 0x00, 0x00, 0x00, 0x2B, 0x00, 0x00, 0x00, 0xFE, 0xF9, 0xFF, 0xFF,
    0x1C, 0x00, 0x00, 0x00, 0x00, 0x00, 0x00, 0x01, 0x28, 0x00, 0x00, 0x00, 0x2C, 0x00, 0x00, 0x00,
    0x0C, 0x00, 0x14, 0x00, 0x13, 0x00, 0x0C, 0x00, 0x08, 0x00, 0x07, 0x00, 0x0C, 0x00, 0x00, 0x00,
    0x00, 0x00, 0x00, 0x01, 0x01, 0x00, 0x00, 0x00, 0x01, 0x00, 0x00, 0x00, 0x00, 0x00, 0x00, 0x01,
    0x01, 0x00, 0x00, 0x00, 0x45, 0x00, 0x00, 0x00, 0x03, 0x00, 0x00, 0x00, 0x44, 0x00, 0x00, 0x00,
    0x28, 0x00, 0x00, 0x00, 0x29, 0x00, 0x00, 0x00, 0x4A, 0xFA, 0xFF, 0xFF, 0x10, 0x00, 0x00, 0x00,
    0x00, 0x00, 0x00, 0x01, 0x18, 0x00, 0x00, 0x00, 0x1C, 0x00, 0x00, 0x00, 0x3C, 0xFA, 0xFF, 0xFF,
    0x00, 0x00, 0x00, 0x03, 0x01, 0x00, 0x00, 0x00, 0x01, 0x00, 0x00, 0x00, 0x01, 0x00, 0x00, 0x00,
    0x44, 0x00, 0x00, 0x00, 0x03, 0x00, 0x00, 0x00, 0x43, 0x00, 0x00, 0x00, 0x26, 0x00, 0x00, 0x00,
    0x27, 0x00, 0x00, 0x00, 0xEA, 0xFA, 0xFF, 0xFF, 0x14, 0x00, 0x00, 0x00, 0x00, 0x00, 0x00, 0x0B,
    0x10, 0x00, 0x00, 0x00, 0x14, 0x00, 0x00, 0x00, 0x02, 0x00, 0x00, 0x00, 0x64, 0x92, 0xFF, 0xFF,
    0x01, 0x00, 0x00, 0x00, 0x43, 0x00, 0x00, 0x00, 0x02, 0x00, 0x00, 0x00, 0x3F, 0x00, 0x00, 0x00,
    0x42, 0x00, 0x00, 0x00, 0xB6, 0xFA, 0xFF, 0xFF, 0x10, 0x00, 0x00, 0x00, 0x00, 0x00, 0x00, 0x01,
    0x14, 0x00, 0x00, 0x00, 0x18, 0x00, 0x00, 0x00, 0x5E, 0xFB, 0xFF, 0xFF, 0x01, 0x00, 0x00, 0x00,
    0x01, 0x00, 0x00, 0x00, 0x01, 0x00, 0x00, 0x00, 0x42, 0x00, 0x00, 0x00, 0x03, 0x00, 0x00, 0x00,
    0x41, 0x00, 0x00, 0x00, 0x24, 0x00, 0x00, 0x00, 0x25, 0x00, 0x00, 0x00, 0x52, 0xFB, 0xFF, 0xFF,
    0x14, 0x00, 0x00, 0x00, 0x00, 0x00, 0x00, 0x02, 0x20, 0x00, 0x00, 0x00, 0x24, 0x00, 0x00, 0x00,
    0x01, 0x00, 0x00, 0x00, 0x42, 0xFB, 0xFF, 0xFF, 0x00, 0x00, 0x00, 0x03, 0x01, 0x00, 0x00, 0x00,
    0x01, 0x00, 0x00, 0x00, 0x01, 0x00, 0x00, 0x00, 0x01, 0x00, 0x00, 0x00, 0x41, 0x00, 0x00, 0x00,
    0x03, 0x00, 0x00, 0x00, 0x40, 0x00, 0x00, 0x00, 0x22, 0x00, 0x00, 0x00, 0x23, 0x00, 0x00, 0x00,
    0x32, 0xFB, 0xFF, 0xFF, 0x10, 0x00, 0x00, 0x00, 0x00, 0x00, 0x00, 0x01, 0x18, 0x00, 0x00, 0x00,
    0x1C, 0x00, 0x00, 0x00, 0x24, 0xFB, 0xFF, 0xFF, 0x00, 0x00, 0x00, 0x03, 0x01, 0x00, 0x00, 0x00,
    0x01, 0x00, 0x00, 0x00, 0x01, 0x00, 0x00, 0x00, 0x40, 0x00, 0x00, 0x00, 0x03, 0x00, 0x00, 0x00,
    0x3F, 0x00, 0x00, 0x00, 0x20, 0x00, 0x00, 0x00, 0x21, 0x00, 0x00, 0x00, 0xD2, 0xFB, 0xFF, 0xFF,
    0x14, 0x00, 0x00, 0x00, 0x00, 0x00, 0x00, 0x0B, 0x10, 0x00, 0x00, 0x00, 0x14, 0x00, 0x00, 0x00,
    0x02, 0x00, 0x00, 0x00, 0x4C, 0x93, 0xFF, 0xFF, 0x01, 0x00, 0x00, 0x00, 0x3F, 0x00, 0x00, 0x00,
    0x02, 0x00, 0x00, 0x00, 0x3B, 0x00, 0x00, 0x00, 0x3E, 0x00, 0x00, 0x00, 0x9E, 0xFB, 0xFF, 0xFF,
    0x10, 0x00, 0x00, 0x00, 0x00, 0x00, 0x00, 0x01, 0x14, 0x00, 0x00, 0x00, 0x18, 0x00, 0x00, 0x00,
    0x46, 0xFC, 0xFF, 0xFF, 0x01, 0x00, 0x00, 0x00, 0x01, 0x00, 0x00, 0x00, 0x01, 0x00, 0x00, 0x00,
    0x3E, 0x00, 0x00, 0x00, 0x03, 0x00, 0x00, 0x00, 0x3D, 0x00, 0x00, 0x00, 0x1E, 0x00, 0x00, 0x00,
    0x1F, 0x00, 0x00, 0x00, 0x3A, 0xFC, 0xFF, 0xFF, 0x14, 0x00, 0x00, 0x00, 0x00, 0x00, 0x00, 0x02,
    0x20, 0x00, 0x00, 0x00, 0x24, 0x00, 0x00, 0x00, 0x01, 0x00, 0x00, 0x00, 0x2A, 0xFC, 0xFF, 0xFF,
    0x00, 0x00, 0x00, 0x03, 0x01, 0x00, 0x00, 0x00, 0x01, 0x00, 0x00, 0x00, 0x01, 0x00, 0x00, 0x00,
    0x01, 0x00, 0x00, 0x00, 0x3D, 0x00, 0x00, 0x00, 0x03, 0x00, 0x00, 0x00, 0x3C, 0x00, 0x00, 0x00,
    0x1C, 0x00, 0x00, 0x00, 0x1D, 0x00, 0x00, 0x00, 0x1A, 0xFC, 0xFF, 0xFF, 0x10, 0x00, 0x00, 0x00,
    0x00, 0x00, 0x00, 0x01, 0x18, 0x00, 0x00, 0x00, 0x1C, 0x00, 0x00, 0x00, 0x0C, 0xFC, 0xFF, 0xFF,
    0x00, 0x00, 0x00, 0x03, 0x01, 0x00, 0x00, 0x00, 0x01, 0x00, 0x00, 0x00, 0x01, 0x00, 0x00, 0x00,
    0x3C, 0x00, 0x00, 0x00, 0x03, 0x00, 0x00, 0x00, 0x3B, 0x00, 0x00, 0x00, 0x1A, 0x00, 0x00, 0x00,
    0x1B, 0x00, 0x00, 0x00, 0x56, 0xFC, 0xFF, 0xFF, 0x10, 0x00, 0x00, 0x00, 0x00, 0x00, 0x00, 0x01,
    0x14, 0x00, 0x00, 0x00, 0x18, 0x00, 0x00, 0x00, 0xFE, 0xFC, 0xFF, 0xFF, 0x01, 0x00, 0x00, 0x00,
    0x01, 0x00, 0x00, 0x00, 0x01, 0x00, 0x00, 0x00, 0x3B, 0x00, 0x00, 0x00, 0x03, 0x00, 0x00, 0x00,
    0x3A, 0x00, 0x00, 0x00, 0x18, 0x00, 0x00, 0x00, 0x19, 0x00, 0x00, 0x00, 0xF2, 0xFC, 0xFF, 0xFF,
    0x14, 0x00, 0x00, 0x00, 0x00, 0x00, 0x00, 0x02, 0x24, 0x00, 0x00, 0x00, 0x28, 0x00, 0x00, 0x00,
    0x01, 0x00, 0x00, 0x00, 0x2A, 0xFE, 0xFF, 0xFF, 0x00, 0x00, 0x00, 0x03, 0x01, 0x00, 0x00, 0x00,
    0x02, 0x00, 0x00, 0x00, 0x02, 0x00, 0x00, 0x00, 0x00, 0x00, 0x00, 0x01, 0x01, 0x00, 0x00, 0x00,
    0x3A, 0x00, 0x00, 0x00, 0x03, 0x00, 0x00, 0x00, 0x39, 0x00, 0x00, 0x00, 0x16, 0x00, 0x00, 0x00,
    0x17, 0x00, 0x00, 0x00, 0x3A, 0xFD, 0xFF, 0xFF, 0x14, 0x00, 0x00, 0x00, 0x00, 0x00, 0x00, 0x16,
    0x10, 0x00, 0x00, 0x00, 0x14, 0x00, 0x00, 0x00, 0x03, 0x00, 0x00, 0x00, 0xB4, 0x94, 0xFF, 0xFF,
    0x01, 0x00, 0x00, 0x00, 0x39, 0x00, 0x00, 0x00, 0x02, 0x00, 0x00, 0x00, 0x38, 0x00, 0x00, 0x00,
    0x01, 0x00, 0x00, 0x00, 0x06, 0xFD, 0xFF, 0xFF, 0x10, 0x00, 0x00, 0x00, 0x00, 0x00, 0x00, 0x01,
    0x18, 0x00, 0x00, 0x00, 0x1C, 0x00, 0x00, 0x00, 0xF8, 0xFC, 0xFF, 0xFF, 0x00, 0x00, 0x00, 0x03,
    0x01, 0x00, 0x00, 0x00, 0x01, 0x00, 0x00, 0x00, 0x01, 0x00, 0x00, 0x00, 0x38, 0x00, 0x00, 0x00,
    0x03, 0x00, 0x00, 0x00, 0x37, 0x00, 0x00, 0x00, 0x14, 0x00, 0x00, 0x00, 0x15, 0x00, 0x00, 0x00,
    0xA6, 0xFD, 0xFF, 0xFF, 0x14, 0x00, 0x00, 0x00, 0x00, 0x00, 0x00, 0x0B, 0x10, 0x00, 0x00, 0x00,
    0x14, 0x00, 0x00, 0x00, 0x02, 0x00, 0x00, 0x00, 0x20, 0x95, 0xFF, 0xFF, 0x01, 0x00, 0x00, 0x00,
    0x37, 0x00, 0x00, 0x00, 0x02, 0x00, 0x00, 0x00, 0x33, 0x00, 0x00, 0x00, 0x36, 0x00, 0x00, 0x00,
    0x72, 0xFD, 0xFF, 0xFF, 0x10, 0x00, 0x00, 0x00, 0x00, 0x00, 0x00, 0x01, 0x14, 0x00, 0x00, 0x00,
    0x18, 0x00, 0x00, 0x00, 0x1A, 0xFE, 0xFF, 0xFF, 0x01, 0x00, 0x00, 0x00, 0x01, 0x00, 0x00, 0x00,
    0x01, 0x00, 0x00, 0x00, 0x36, 0x00, 0x00, 0x00, 0x03, 0x00, 0x00, 0x00, 0x35, 0x00, 0x00, 0x00,
    0x12, 0x00, 0x00, 0x00, 0x13, 0x00, 0x00, 0x00, 0x0E, 0xFE, 0xFF, 0xFF, 0x14, 0x00, 0x00, 0x00,
    0x00, 0x00, 0x00, 0x02, 0x20, 0x00, 0x00, 0x00, 0x24, 0x00, 0x00, 0x00, 0x01, 0x00, 0x00, 0x00,
    0xFE, 0xFD, 0xFF, 0xFF, 0x00, 0x00, 0x00, 0x03, 0x01, 0x00, 0x00, 0x00, 0x01, 0x00, 0x00, 0x00,
    0x01, 0x00, 0x00, 0x00, 0x01, 0x00, 0x00, 0x00, 0x35, 0x00, 0x00, 0x00, 0x03, 0x00, 0x00, 0x00,
    0x34, 0x00, 0x00, 0x00, 0x10, 0x00, 0x00, 0x00, 0x11, 0x00, 0x00, 0x00, 0xEE, 0xFD, 0xFF, 0xFF,
    0x10, 0x00, 0x00, 0x00, 0x00, 0x00, 0x00, 0x01, 0x18, 0x00, 0x00, 0x00, 0x1C, 0x00, 0x00, 0x00,
    0xE0, 0xFD, 0xFF, 0xFF, 0x00, 0x00, 0x00, 0x03, 0x01, 0x00, 0x00, 0x00, 0x01, 0x00, 0x00, 0x00,
    0x01, 0x00, 0x00, 0x00, 0x34, 0x00, 0x00, 0x00, 0x03, 0x00, 0x00, 0x00, 0x33, 0x00, 0x00, 0x00,
    0x0E, 0x00, 0x00, 0x00, 0x0F, 0x00, 0x00, 0x00, 0x2A, 0xFE, 0xFF, 0xFF, 0x10, 0x00, 0x00, 0x00,
    0x00, 0x00, 0x00, 0x01, 0x14, 0x00, 0x00, 0x00, 0x18, 0x00, 0x00, 0x00, 0xD2, 0xFE, 0xFF, 0xFF,
    0x01, 0x00, 0x00, 0x00, 0x01, 0x00, 0x00, 0x00, 0x01, 0x00, 0x00, 0x00, 0x33, 0x00, 0x00, 0x00,
    0x03, 0x00, 0x00, 0x00, 0x32, 0x00, 0x00, 0x00, 0x0C, 0x00, 0x00, 0x00, 0x0D, 0x00, 0x00, 0x00,
    0xC6, 0xFE, 0xFF, 0xFF, 0x24, 0x00, 0x00, 0x00, 0x00, 0x00, 0x00, 0x02, 0x34, 0x00, 0x00, 0x00,
    0x38, 0x00, 0x00, 0x00, 0x01, 0x00, 0x00, 0x00, 0x00, 0x00, 0x0E, 0x00, 0x18, 0x00, 0x17, 0x00,
    0x10, 0x00, 0x0C, 0x00, 0x08, 0x00, 0x07, 0x00, 0x0E, 0x00, 0x00, 0x00, 0x00, 0x00, 0x00, 0x03,
    0x01, 0x00, 0x00, 0x00, 0x02, 0x00, 0x00, 0x00, 0x02, 0x00, 0x00, 0x00, 0x00, 0x00, 0x00, 0x01,
    0x01, 0x00, 0x00, 0x00, 0x32, 0x00, 0x00, 0x00, 0x03, 0x00, 0x00, 0x00, 0x31, 0x00, 0x00, 0x00,
    0x0A, 0x00, 0x00, 0x00, 0x0B, 0x00, 0x00, 0x00, 0x1E, 0xFF, 0xFF, 0xFF, 0x14, 0x00, 0x00, 0x00,
    0x00, 0x00, 0x00, 0x16, 0x10, 0x00, 0x00, 0x00, 0x14, 0x00, 0x00, 0x00, 0x03, 0x00, 0x00, 0x00,
    0x98, 0x96, 0xFF, 0xFF, 0x01, 0x00, 0x00, 0x00, 0x31, 0x00, 0x00, 0x00, 0x02, 0x00, 0x00, 0x00,
    0x30, 0x00, 0x00, 0x00, 0x01, 0x00, 0x00, 0x00, 0xEA, 0xFE, 0xFF, 0xFF, 0x10, 0x00, 0x00, 0x00,
    0x00, 0x00, 0x00, 0x01, 0x18, 0x00, 0x00, 0x00, 0x1C, 0x00, 0x00, 0x00, 0xDC, 0xFE, 0xFF, 0xFF,
    0x00, 0x00, 0x00, 0x03, 0x01, 0x00, 0x00, 0x00, 0x01, 0x00, 0x00, 0x00, 0x01, 0x00, 0x00, 0x00,
    0x30, 0x00, 0x00, 0x00, 0x03, 0x00, 0x00, 0x00, 0x2F, 0x00, 0x00, 0x00, 0x08, 0x00, 0x00, 0x00,
    0x09, 0x00, 0x00, 0x00, 0x8A, 0xFF, 0xFF, 0xFF, 0x14, 0x00, 0x00, 0x00, 0x00, 0x00, 0x00, 0x0B,
    0x10, 0x00, 0x00, 0x00, 0x14, 0x00, 0x00, 0x00, 0x02, 0x00, 0x00, 0x00, 0x04, 0x97, 0xFF, 0xFF,
    0x01, 0x00, 0x00, 0x00, 0x2F, 0x00, 0x00, 0x00, 0x02, 0x00, 0x00, 0x00, 0x2C, 0x00, 0x00, 0x00,
    0x2E, 0x00, 0x00, 0x00, 0x56, 0xFF, 0xFF, 0xFF, 0x1C, 0x00, 0x00, 0x00, 0x00, 0x00, 0x00, 0x01,
    0x20, 0x00, 0x00, 0x00, 0x24, 0x00, 0x00, 0x00, 0x00, 0x00, 0x0A, 0x00, 0x0C, 0x00, 0x00, 0x00,
    0x08, 0x00, 0x04, 0x00, 0x0A, 0x00, 0x00, 0x00, 0x01, 0x00, 0x00, 0x00, 0x01, 0x00, 0x00, 0x00,
    0x01, 0x00, 0x00, 0x00, 0x2E, 0x00, 0x00, 0x00, 0x03, 0x00, 0x00, 0x00, 0x2D, 0x00, 0x00, 0x00,
    0x06, 0x00, 0x00, 0x00, 0x07, 0x00, 0x00, 0x00, 0x00, 0x00, 0x0E, 0x00, 0x1A, 0x00, 0x14, 0x00,
    0x10, 0x00, 0x0C, 0x00, 0x0B, 0x00, 0x04, 0x00, 0x0E, 0x00, 0x00, 0x00, 0x24, 0x00, 0x00, 0x00,
    0x00, 0x00, 0x00, 0x02, 0x30, 0x00, 0x00, 0x00, 0x34, 0x00, 0x00, 0x00, 0x01, 0x00, 0x00, 0x00,
    0x00, 0x00, 0x0E, 0x00, 0x14, 0x00, 0x00, 0x00, 0x10, 0x00, 0x0C, 0x00, 0x08, 0x00, 0x07, 0x00,
    0x0E, 0x00, 0x00, 0x00, 0x00, 0x00, 0x00, 0x03, 0x01, 0x00, 0x00, 0x00, 0x01, 0x00, 0x00, 0x00,
    0x01, 0x00, 0x00, 0x00, 0x01, 0x00, 0x00, 0x00, 0x2D, 0x00, 0x00, 0x00, 0x03, 0x00, 0x00, 0x00,
    0x2C, 0x00, 0x00, 0x00, 0x04, 0x00, 0x00, 0x00, 0x05, 0x00, 0x00, 0x00, 0x00, 0x00, 0x0E, 0x00,
    0x14, 0x00, 0x00, 0x00, 0x10, 0x00, 0x0C, 0x00, 0x0B, 0x00, 0x04, 0x00, 0x0E, 0x00, 0x00, 0x00,
    0x1C, 0x00, 0x00, 0x00, 0x00, 0x00, 0x00, 0x01, 0x24, 0x00, 0x00, 0x00, 0x28, 0x00, 0x00, 0x00,
    0x0C, 0x00, 0x10, 0x00, 0x00, 0x00, 0x0C, 0x00, 0x08, 0x00, 0x07, 0x00, 0x0C, 0x00, 0x00, 0x00,
    0x00, 0x00, 0x00, 0x03, 0x02, 0x00, 0x00, 0x00, 0x02, 0x00, 0x00, 0x00, 0x01, 0x00, 0x00, 0x00,
    0x2C, 0x00, 0x00, 0x00, 0x03, 0x00, 0x00, 0x00, 0x00, 0x00, 0x00, 0x00, 0x02, 0x00, 0x00, 0x00,
    0x03, 0x00, 0x00, 0x00, 0x01, 0x00, 0x00, 0x00, 0x47, 0x00, 0x00, 0x00, 0x01, 0x00, 0x00, 0x00,
    0x00, 0x00, 0x00, 0x00, 0x48, 0x00, 0x00, 0x00, 0x1C, 0x68, 0x00, 0x00, 0xB4, 0x67, 0x00, 0x00,
    0xF0, 0x66, 0x00, 0x00, 0x2C, 0x66, 0x00, 0x00, 0xE8, 0x64, 0x00, 0x00, 0x14, 0x64, 0x00, 0x00,
    0x40, 0x63, 0x00, 0x00, 0x2C, 0x62, 0x00, 0x00, 0x80, 0x5F, 0x00, 0x00, 0xD4, 0x5C, 0x00, 0x00,
    0xD4, 0x59, 0x00, 0x00, 0x24, 0x57, 0x00, 0x00, 0x58, 0x56, 0x00, 0x00, 0x4C, 0x55, 0x00, 0x00,
    0xA0, 0x52, 0x00, 0x00, 0xF4, 0x4F, 0x00, 0x00, 0xF4, 0x4C, 0x00, 0x00, 0x44, 0x4A, 0x00, 0x00,
    0x78, 0x49, 0x00, 0x00, 0x6C, 0x48, 0x00, 0x00, 0xC0, 0x45, 0x00, 0x00, 0x14, 0x43, 0x00, 0x00,
    0x14, 0x40, 0x00, 0x00, 0x64, 0x3D, 0x00, 0x00, 0x98, 0x3C, 0x00, 0x00, 0x8C, 0x3B, 0x00, 0x00,
    0xE0, 0x38, 0x00, 0x00, 0x34, 0x36, 0x00, 0x00, 0x34, 0x33, 0x00, 0x00, 0x84, 0x30, 0x00, 0x00,
    0xB8, 0x2F, 0x00, 0x00, 0xAC, 0x2E, 0x00, 0x00, 0x00, 0x2C, 0x00, 0x00, 0x54, 0x29, 0x00, 0x00,
    0x54, 0x26, 0x00, 0x00, 0xA4, 0x23, 0x00, 0x00, 0xD8, 0x22, 0x00, 0x00, 0xEC, 0x21, 0x00, 0x00,
    0x40, 0x1F, 0x00, 0x00, 0x94, 0x1C, 0x00, 0x00, 0xB8, 0x1A, 0x00, 0x00, 0xEC, 0x18, 0x00, 0x00,
    0x68, 0x18, 0x00, 0x00, 0xCC, 0x17, 0x00, 0x00, 0xA8, 0x16, 0x00, 0x00, 0xAC, 0x15, 0x00, 0x00,
    0xE0, 0x14, 0x00, 0x00, 0x6C, 0x14, 0x00, 0x00, 0x38, 0x13, 0x00, 0x00, 0xCC, 0x12, 0x00, 0x00,
    0x90, 0x11, 0x00, 0x00, 0xCC, 0x10, 0x00, 0x00, 0x98, 0x0F, 0x00, 0x00, 0x5C, 0x0E, 0x00, 0x00,
    0x98, 0x0D, 0x00, 0x00, 0x2C, 0x0D, 0x00, 0x00, 0xF8, 0x0B, 0x00, 0x00, 0x8C, 0x0B, 0x00, 0x00,
    0x50, 0x0A, 0x00, 0x00, 0x8C, 0x09, 0x00, 0x00, 0x58, 0x08, 0x00, 0x00, 0x1C, 0x07, 0x00, 0x00,
    0x58, 0x06, 0x00, 0x00, 0xEC, 0x05, 0x00, 0x00, 0xB8, 0x04, 0x00, 0x00, 0xCC, 0x03, 0x00, 0x00,
    0x28, 0x03, 0x00, 0x00, 0xBC, 0x02, 0x00, 0x00, 0xA8, 0x01, 0x00, 0x00, 0x0C, 0x01, 0x00, 0x00,
    0x78, 0x00, 0x00, 0x00, 0x04, 0x00, 0x00, 0x00, 0x12, 0x99, 0xFF, 0xFF, 0x14, 0x00, 0x00, 0x00,
    0x34, 0x00, 0x00, 0x00, 0x48, 0x00, 0x00, 0x00, 0x00, 0x00, 0x00, 0x09, 0x48, 0x00, 0x00, 0x00,
    0x04, 0x99, 0xFF, 0xFF, 0x08, 0x00, 0x00, 0x00, 0x14, 0x00, 0x00, 0x00, 0x01, 0x00, 0x00, 0x00,
    0x80, 0xFF, 0xFF, 0xFF, 0xFF, 0xFF, 0xFF, 0xFF, 0x00, 0x00, 0x00, 0x00, 0x01, 0x00, 0x00, 0x00,
    0x00, 0x00, 0x80, 0x3B, 0x19, 0x00, 0x00, 0x00, 0x53, 0x74, 0x61, 0x74, 0x65, 0x66, 0x75, 0x6C,
    0x50, 0x61, 0x72, 0x74, 0x69, 0x74, 0x69, 0x6F, 0x6E, 0x65, 0x64, 0x43, 0x61, 0x6C, 0x6C, 0x3A,
    0x30, 0x00, 0x00, 0x00, 0x04, 0x00, 0x00, 0x00, 0x01, 0x00, 0x00, 0x00, 0x18, 0x00, 0x00, 0x00,
    0x18, 0x00, 0x00, 0x00, 0x03, 0x00, 0x00, 0x00, 0x82, 0x99, 0xFF, 0xFF, 0x14, 0x00, 0x00, 0x00,
    0x34, 0x00, 0x00, 0x00, 0x47, 0x00, 0x00, 0x00, 0x00, 0x00, 0x00, 0x09, 0x68, 0x00, 0x00, 0x00,
    0x74, 0x99, 0xFF, 0xFF, 0x08, 0x00, 0x00, 0x00, 0x14, 0x00, 0x00, 0x00, 0x01, 0x00, 0x00, 0x00,
    0xFE, 0xFF, 0xFF, 0xFF, 0xFF, 0xFF, 0xFF, 0xFF, 0x00, 0x00, 0x00, 0x00, 0x01, 0x00, 0x00, 0x00,
    0xAD, 0xA2, 0x2B, 0x3E, 0x39, 0x00, 0x00, 0x00, 0x6D, 0x6F, 0x64, 0x65, 0x6C, 0x5F, 0x31, 0x2F,
    0x6C, 0x6F, 0x67, 0x69, 0x74, 0x73, 0x2F, 0x42, 0x69, 0x61, 0x73, 0x41, 0x64, 0x64, 0x3B, 0x6D,
    0x6F, 0x64, 0x65, 0x6C, 0x5F, 0x31, 0x2F, 0x6C, 0x6F, 0x67, 0x69, 0x74, 0x73, 0x2F, 0x43, 0x6F,
    0x6E, 0x76, 0x32, 0x44, 0x3B, 0x6C, 0x6F, 0x67, 0x69, 0x74, 0x73, 0x2F, 0x62, 0x69, 0x61, 0x73,
    0x31, 0x00, 0x00, 0x00, 0x04, 0x00, 0x00, 0x00, 0x01, 0x00, 0x00, 0x00, 0x18, 0x00, 0x00, 0x00,
    0x18, 0x00, 0x00, 0x00, 0x03, 0x00, 0x00, 0x00, 0x12, 0x9A, 0xFF, 0xFF, 0x14, 0x00, 0x00, 0x00,
    0x30, 0x00, 0x00, 0x00, 0x46, 0x00, 0x00, 0x00, 0x00, 0x00, 0x00, 0x09, 0x70, 0x00, 0x00, 0x00,
    0x04, 0x9A, 0xFF, 0xFF, 0x08, 0x00, 0x00, 0x00, 0x10, 0x00, 0x00, 0x00, 0x01, 0x00, 0x00, 0x00,
    0x80, 0xFF, 0xFF, 0xFF, 0xFF, 0xFF, 0xFF, 0xFF, 0x01, 0x00, 0x00, 0x00, 0x13, 0x56, 0x3E, 0x3D,
    0x44, 0x00, 0x00, 0x00, 0x6D, 0x6F, 0x64, 0x65, 0x6C, 0x5F, 0x31, 0x2F, 0x68, 0x65, 0x61, 0x64,
    0x2F, 0x52, 0x65, 0x6C, 0x75, 0x3B, 0x6D, 0x6F, 0x64, 0x65, 0x6C, 0x5F, 0x31, 0x2F, 0x68, 0x65,
    0x61, 0x64, 0x2F, 0x42, 0x69, 0x61, 0x73, 0x41, 0x64, 0x64, 0x3B, 0x6D, 0x6F, 0x64, 0x65, 0x6C,
    0x5F, 0x31, 0x2F, 0x68, 0x65, 0x61, 0x64, 0x2F, 0x43, 0x6F, 0x6E, 0x76, 0x32, 0x44, 0x3B, 0x68,
    0x65, 0x61, 0x64, 0x2F, 0x62, 0x69, 0x61, 0x73, 0x00, 0x00, 0x00, 0x00, 0x04, 0x00, 0x00, 0x00,
    0x01, 0x00, 0x00, 0x00, 0x18, 0x00, 0x00, 0x00, 0x18, 0x00, 0x00, 0x00, 0x20, 0x00, 0x00, 0x00,
    0xAA, 0x9A, 0xFF, 0xFF, 0x14, 0x00, 0x00, 0x00, 0x30, 0x00, 0x00, 0x00, 0x45, 0x00, 0x00, 0x00,
    0x00, 0x00, 0x00, 0x09, 0xE8, 0x00, 0x00, 0x00, 0x9C, 0x9A, 0xFF, 0xFF, 0x08, 0x00, 0x00, 0x00,
    0x10, 0x00, 0x00, 0x00, 0x01, 0x00, 0x00, 0x00, 0x80, 0xFF, 0xFF, 0xFF, 0xFF, 0xFF, 0xFF, 0xFF,
    0x01, 0x00, 0x00, 0x00, 0xC1, 0xC0, 0xC0, 0x3C, 0xBC, 0x00, 0x00, 0x00, 0x6D, 0x6F, 0x64, 0x65,
    0x6C, 0x5F, 0x31, 0x2F, 0x62, 0x6C, 0x6F, 0x63, 0x6B, 0x5F, 0x36, 0x5F, 0x65, 0x78, 0x70, 0x61,
    0x6E, 0x64, 0x5F, 0x72, 0x65, 0x6C, 0x75, 0x2F, 0x52, 0x65, 0x6C, 0x75, 0x36, 0x3B, 0x6D, 0x6F,
    0x64, 0x65, 0x6C, 0x5F, 0x31, 0x2F, 0x62, 0x6C, 0x6F, 0x63, 0x6B, 0x5F, 0x36, 0x5F, 0x65, 0x78,
    0x70, 0x61, 0x6E, 0x64, 0x5F, 0x42, 0x4E, 0x2F, 0x46, 0x75, 0x73, 0x65, 0x64, 0x42, 0x61, 0x74,
    0x63, 0x68, 0x4E, 0x6F, 0x72, 0x6D, 0x56, 0x33, 0x3B, 0x6D, 0x6F, 0x64, 0x65, 0x6C, 0x5F, 0x31,
    0x2F, 0x62, 0x6C, 0x6F, 0x63, 0x6B, 0x5F, 0x35, 0x5F, 0x64, 0x65, 0x70, 0x74, 0x68, 0x77, 0x69,
    0x73, 0x65, 0x5F, 0x42, 0x4E, 0x2F, 0x46, 0x75, 0x73, 0x65, 0x64, 0x42, 0x61, 0x74, 0x63, 0x68,
    0x4E, 0x6F, 0x72, 0x6D, 0x56, 0x33, 0x3B, 0x6D, 0x6F, 0x64, 0x65, 0x6C, 0x5F, 0x31, 0x2F, 0x62,
    0x6C, 0x6F, 0x63, 0x6B, 0x5F, 0x35, 0x5F, 0x64, 0x65, 0x70, 0x74, 0x68, 0x77, 0x69, 0x73, 0x65,
    0x2F, 0x64, 0x65, 0x70, 0x74, 0x68, 0x77, 0x69, 0x73, 0x65, 0x3B, 0x6D, 0x6F, 0x64, 0x65, 0x6C,
    0x5F, 0x31, 0x2F, 0x62, 0x6C, 0x6F, 0x63, 0x6B, 0x5F, 0x36, 0x5F, 0x65, 0x78, 0x70, 0x61, 0x6E,
    0x64, 0x2F, 0x43, 0x6F, 0x6E, 0x76, 0x32, 0x44, 0x00, 0x00, 0x00, 0x00, 0x04, 0x00, 0x00, 0x00,
    0x01, 0x00, 0x00, 0x00, 0x18, 0x00, 0x00, 0x00, 0x18, 0x00, 0x00, 0x00, 0x30, 0x00, 0x00, 0x00,
    0xBA, 0x9B, 0xFF, 0xFF, 0x14, 0x00, 0x00, 0x00, 0x30, 0x00, 0x00, 0x00, 0x44, 0x00, 0x00, 0x00,
    0x00, 0x00, 0x00, 0x09, 0x40, 0x00, 0x00, 0x00, 0xAC, 0x9B, 0xFF, 0xFF, 0x08, 0x00, 0x00, 0x00,
    0x10, 0x00, 0x00, 0x00, 0x01, 0x00, 0x00, 0x00, 0xF4, 0xFF, 0xFF, 0xFF, 0xFF, 0xFF, 0xFF, 0xFF,
    0x01, 0x00, 0x00, 0x00, 0x3E, 0x08, 0xC1, 0x3D, 0x17, 0x00, 0x00, 0x00, 0x6D, 0x6F, 0x64, 0x65,
    0x6C, 0x5F, 0x31, 0x2F, 0x62, 0x6C, 0x6F, 0x63, 0x6B, 0x5F, 0x35, 0x5F, 0x61, 0x64, 0x64, 0x2F,
    0x61, 0x64, 0x64, 0x00, 0x04, 0x00, 0x00, 0x00, 0x01, 0x00, 0x00, 0x00, 0x18, 0x00, 0x00, 0x00,
    0x18, 0x00, 0x00, 0x00, 0x08, 0x00, 0x00, 0x00, 0x22, 0x9C, 0xFF, 0xFF, 0x14, 0x00, 0x00, 0x00,
    0x34, 0x00, 0x00, 0x00, 0x43, 0x00, 0x00, 0x00, 0x00, 0x00, 0x00, 0x09, 0x78, 0x00, 0x00, 0x00,
    0x14, 0x9C, 0xFF, 0xFF, 0x08, 0x00, 0x00, 0x00, 0x14, 0x00, 0x00, 0x00, 0x01, 0x00, 0x00, 0x00,
    0xFE, 0xFF, 0xFF, 0xFF, 0xFF, 0xFF, 0xFF, 0xFF, 0x00, 0x00, 0x00, 0x00, 0x01, 0x00, 0x00, 0x00,
    0x95, 0x42, 0x72, 0x3D, 0x4B, 0x00, 0x00, 0x00, 0x6D, 0x6F, 0x64, 0x65, 0x6C, 0x5F, 0x31, 0x2F,
    0x62, 0x6C, 0x6F, 0x63, 0x6B, 0x5F, 0x35, 0x5F, 0x70, 0x72, 0x6F, 0x6A, 0x65, 0x63, 0x74, 0x5F,
    0x42, 0x4E, 0x2F, 0x46, 0x75, 0x73, 0x65, 0x64, 0x42, 0x61, 0x74, 0x63, 0x68, 0x4E, 0x6F, 0x72,
    0x6D, 0x56, 0x33, 0x3B, 0x6D, 0x6F, 0x64, 0x65, 0x6C, 0x5F, 0x31, 0x2F, 0x62, 0x6C, 0x6F, 0x63,
    0x6B, 0x5F, 0x35, 0x5F, 0x70, 0x72, 0x6F, 0x6A, 0x65, 0x63, 0x74, 0x2F, 0x43, 0x6F, 0x6E, 0x76,
    0x32, 0x44, 0x31, 0x00, 0x04, 0x00, 0x00, 0x00, 0x01, 0x00, 0x00, 0x00, 0x18, 0x00, 0x00, 0x00,
    0x18, 0x00, 0x00, 0x00, 0x08, 0x00, 0x00, 0x00, 0xC2, 0x9C, 0xFF, 0xFF, 0x14, 0x00, 0x00, 0x00,
    0x30, 0x00, 0x00, 0x00, 0x42, 0x00, 0x00, 0x00, 0x00, 0x00, 0x00, 0x09, 0xC0, 0x00, 0x00, 0x00,
    0xB4, 0x9C, 0xFF, 0xFF, 0x08, 0x00, 0x00, 0x00, 0x10, 0x00, 0x00, 0x00, 0x01, 0x00, 0x00, 0x00,
    0x80, 0xFF, 0xFF, 0xFF, 0xFF, 0xFF, 0xFF, 0xFF, 0x01, 0x00, 0x00, 0x00, 0xC1, 0xC0, 0xC0, 0x3C,
    0x94, 0x00, 0x00, 0x00, 0x6D, 0x6F, 0x64, 0x65, 0x6C, 0x5F, 0x31, 0x2F, 0x62, 0x6C, 0x6F, 0x63,
    0x6B, 0x5F, 0x35, 0x5F, 0x64, 0x65, 0x70, 0x74, 0x68, 0x77, 0x69, 0x73, 0x65, 0x5F, 0x72, 0x65,
    0x6C, 0x75, 0x2F, 0x52, 0x65, 0x6C, 0x75, 0x36, 0x3B, 0x6D, 0x6F, 0x64, 0x65, 0x6C, 0x5F, 0x31,
    0x2F, 0x62, 0x6C, 0x6F, 0x63, 0x6B, 0x5F, 0x35, 0x5F, 0x64, 0x65, 0x70, 0x74, 0x68, 0x77, 0x69,
    0x73, 0x65, 0x5F, 0x42, 0x4E, 0x2F, 0x46, 0x75, 0x73, 0x65, 0x64, 0x42, 0x61, 0x74, 0x63, 0x68,
    0x4E, 0x6F, 0x72, 0x6D, 0x56, 0x33, 0x3B, 0x6D, 0x6F, 0x64, 0x65, 0x6C, 0x5F, 0x31, 0x2F, 0x62,
    0x6C, 0x6F, 0x63, 0x6B, 0x5F, 0x35, 0x5F, 0x64, 0x65, 0x70, 0x74, 0x68, 0x77, 0x69, 0x73, 0x65,
    0x2F, 0x64, 0x65, 0x70, 0x74, 0x68, 0x77, 0x69, 0x73, 0x65, 0x3B, 0x6D, 0x6F, 0x64, 0x65, 0x6C,
    0x5F, 0x31, 0x2F, 0x62, 0x6C, 0x6F, 0x63, 0x6B, 0x5F, 0x36, 0x5F, 0x65, 0x78, 0x70, 0x61, 0x6E,
    0x64, 0x2F, 0x43, 0x6F, 0x6E, 0x76, 0x32, 0x44, 0x00, 0x00, 0x00, 0x00, 0x04, 0x00, 0x00, 0x00,
    0x01, 0x00, 0x00, 0x00, 0x18, 0x00, 0x00, 0x00, 0x18, 0x00, 0x00, 0x00, 0x30, 0x00, 0x00, 0x00,
    0xAA, 0x9D, 0xFF, 0xFF, 0x14, 0x00, 0x00, 0x00, 0x34, 0x00, 0x00, 0x00, 0x41, 0x00, 0x00, 0x00,
    0x00, 0x00, 0x00, 0x09, 0x08, 0x01, 0x00, 0x00, 0x9C, 0x9D, 0xFF, 0xFF, 0x08, 0x00, 0x00, 0x00,
    0x14, 0x00, 0x00, 0x00, 0x01, 0x00, 0x00, 0x00, 0x80, 0xFF, 0xFF, 0xFF, 0xFF, 0xFF, 0xFF, 0xFF,
    0x00, 0x00, 0x00, 0x00, 0x01, 0x00, 0x00, 0x00, 0xC1, 0xC0, 0xC0, 0x3C, 0xDA, 0x00, 0x00, 0x00,
    0x6D, 0x6F, 0x64, 0x65, 0x6C, 0x5F, 0x31, 0x2F, 0x62, 0x6C, 0x6F, 0x63, 0x6B, 0x5F, 0x35, 0x5F,
    0x65, 0x78, 0x70, 0x61, 0x6E, 0x64, 0x5F, 0x72, 0x65, 0x6C, 0x75, 0x2F, 0x52, 0x65, 0x6C, 0x75,
    0x36, 0x3B, 0x6D, 0x6F, 0x64, 0x65, 0x6C, 0x5F, 0x31, 0x2F, 0x62, 0x6C, 0x6F, 0x63, 0x6B, 0x5F,
    0x35, 0x5F, 0x65, 0x78, 0x70, 0x61, 0x6E, 0x64, 0x5F, 0x42, 0x4E, 0x2F, 0x46, 0x75, 0x73, 0x65,
    0x64, 0x42, 0x61, 0x74, 0x63, 0x68, 0x4E, 0x6F, 0x72, 0x6D, 0x56, 0x33, 0x3B, 0x6D, 0x6F, 0x64,
    0x65, 0x6C, 0x5F, 0x31, 0x2F, 0x62, 0x6C, 0x6F, 0x63, 0x6B, 0x5F, 0x35, 0x5F, 0x64, 0x65, 0x70,
    0x74, 0x68, 0x77, 0x69, 0x73, 0x65, 0x5F, 0x42, 0x4E, 0x2F, 0x46, 0x75, 0x73, 0x65, 0x64, 0x42,
    0x61, 0x74, 0x63, 0x68, 0x4E, 0x6F, 0x72, 0x6D, 0x56, 0x33, 0x3B, 0x6D, 0x6F, 0x64, 0x65, 0x6C,
    0x5F, 0x31, 0x2F, 0x62, 0x6C, 0x6F, 0x63, 0x6B, 0x5F, 0x35, 0x5F, 0x64, 0x65, 0x70, 0x74, 0x68,
    0x77, 0x69, 0x73, 0x65, 0x2F, 0x64, 0x65, 0x70, 0x74, 0x68, 0x77, 0x69, 0x73, 0x65, 0x3B, 0x6D,
    0x6F, 0x64, 0x65, 0x6C, 0x5F, 0x31, 0x2F, 0x62, 0x6C, 0x6F, 0x63, 0x6B, 0x5F, 0x36, 0x5F, 0x65,
    0x78, 0x70, 0x61, 0x6E, 0x64, 0x2F, 0x43, 0x6F, 0x6E, 0x76, 0x32, 0x44, 0x3B, 0x6D, 0x6F, 0x64,
    0x65, 0x6C, 0x5F, 0x31, 0x2F, 0x62, 0x6C, 0x6F, 0x63, 0x6B, 0x5F, 0x35, 0x5F, 0x65, 0x78, 0x70,
    0x61, 0x6E, 0x64, 0x2F, 0x43, 0x6F, 0x6E, 0x76, 0x32, 0x44, 0x00, 0x00, 0x04, 0x00, 0x00, 0x00,
    0x01, 0x00, 0x00, 0x00, 0x18, 0x00, 0x00, 0x00, 0x18, 0x00, 0x00, 0x00, 0x30, 0x00, 0x00, 0x00,
    0xDA, 0x9E, 0xFF, 0xFF, 0x14, 0x00, 0x00, 0x00, 0x30, 0x00, 0x00, 0x00, 0x40, 0x00, 0x00, 0x00,
    0x00, 0x00, 0x00, 0x09, 0x40, 0x00, 0x00, 0x00, 0xCC, 0x9E, 0xFF, 0xFF, 0x08, 0x00, 0x00, 0x00,
    0x10, 0x00, 0x00, 0x00, 0x01, 0x00, 0x00, 0x00, 0xEE, 0xFF, 0xFF, 0xFF, 0xFF, 0xFF, 0xFF, 0xFF,
    0x01, 0x00, 0x00, 0x00, 0x65, 0x67, 0xB6, 0x3D, 0x17, 0x00, 0x00, 0x00, 0x6D, 0x6F, 0x64, 0x65,
    0x6C, 0x5F, 0x31, 0x2F, 0x62, 0x6C, 0x6F, 0x63, 0x6B, 0x5F, 0x34, 0x5F, 0x61, 0x64, 0x64, 0x2F,
    0x61, 0x64, 0x64, 0x00, 0x04, 0x00, 0x00, 0x00, 0x01, 0x00, 0x00, 0x00, 0x18, 0x00, 0x00, 0x00,
    0x18, 0x00, 0x00, 0x00, 0x08, 0x00, 0x00, 0x00, 0x42, 0x9F, 0xFF, 0xFF, 0x14, 0x00, 0x00, 0x00,
    0x34, 0x00, 0x00, 0x00, 0x3F, 0x00, 0x00, 0x00, 0x00, 0x00, 0x00, 0x09, 0x98, 0x00, 0x00, 0x00,
