#include <stdint.h>

#include "fomo_mobilenetv2_model_data.h"

const unsigned char g_fomo_mobilenetv2_model_data[] = {
0x18, 0x00, 0x00, 0x00, 0x54, 0x46, 0x4c, 0x33, 0x00, 0x00, 0x0e, 0x00, 0x18, 0x00, 0x0c, 0x00, 0x08, 0x00, 
0x04, 0x00, 0x10, 0x00, 0x14, 0x00, 0x0e, 0x00, 0x00, 0x00, 0x38, 0x00, 0x00, 0x00, 0x3c, 0x00, 0x00, 0x00, 
0x03, 0x00, 0x00, 0x00, 0x08, 0x00, 0x00, 0x00, 0x70, 0x00, 0x00, 0x00, 0x1c, 0x00, 0x00, 0x00, 0x54, 0x69, 
0x6e, 0x79, 0x4e, 0x65, 0x75, 0x72, 0x61, 0x6c, 0x4e, 0x65, 0x74, 0x77, 0x6f, 0x72, 0x6b, 0x20, 0x43, 0x6f, 
0x6e, 0x76, 0x65, 0x72, 0x74, 0x65, 0x64, 0x2e, 0x00, 0x00, 0x00, 0x00, 0x01, 0x00, 0x00, 0x00, 0xc0, 0x00, 
0x00, 0x00, 0x0f, 0x00, 0x00, 0x00, 0x40, 0x27, 0x00, 0x00, 0x28, 0x27, 0x00, 0x00, 0x10, 0x27, 0x00, 0x00, 
0x00, 0x27, 0x00, 0x00, 0xf0, 0x26, 0x00, 0x00, 0xe0, 0x26, 0x00, 0x00, 0xd0, 0x26, 0x00, 0x00, 0xc0, 0x26, 
0x00, 0x00, 0xb0, 0x26, 0x00, 0x00, 0xa0, 0x26, 0x00, 0x00, 0x90, 0x26, 0x00, 0x00, 0x80, 0x26, 0x00, 0x00, 
0x70, 0x26, 0x00, 0x00, 0x60, 0x26, 0x00, 0x00, 0x50, 0x26, 0x00, 0x00, 0x1a, 0x00, 0x00, 0x00, 0x44, 0x26, 
0x00, 0x00, 0xf4, 0x25, 0x00, 0x00, 0x9c, 0x25, 0x00, 0x00, 0xfc, 0x24, 0x00, 0x00, 0xcc, 0x24, 0x00, 0x00, 
0x5c, 0x24, 0x00, 0x00, 0x8c, 0x23, 0x00, 0x00, 0x3c, 0x23, 0x00, 0x00, 0xe4, 0x22, 0x00, 0x00, 0x94, 0x22, 
0x00, 0x00, 0x44, 0x22, 0x00, 0x00, 0xec, 0x21, 0x00, 0x00, 0xdc, 0x06, 0x00, 0x00, 0xac, 0x06, 0x00, 0x00, 
0x7c, 0x06, 0x00, 0x00, 0x4c, 0x06, 0x00, 0x00, 0x1c, 0x06, 0x00, 0x00, 0xec, 0x05, 0x00, 0x00, 0x4c, 0x05, 
0x00, 0x00, 0xfc, 0x04, 0x00, 0x00, 0x3c, 0x03, 0x00, 0x00, 0xac, 0x02, 0x00, 0x00, 0x0c, 0x02, 0x00, 0x00, 
0x7c, 0x01, 0x00, 0x00, 0x64, 0x01, 0x00, 0x00, 0x34, 0x01, 0x00, 0x00, 0x00, 0x00, 0x0e, 0x00, 0x18, 0x00, 
0x08, 0x00, 0x14, 0x00, 0x10, 0x00, 0x04, 0x00, 0x0c, 0x00, 0x0e, 0x00, 0x00, 0x00, 0xcc, 0x00, 0x00, 0x00, 
0x20, 0x00, 0x00, 0x00, 0x0c, 0x00, 0x00, 0x00, 0x00, 0x01, 0x00, 0x00, 0x04, 0x01, 0x00, 0x00, 0x0a, 0x00, 
0x00, 0x00, 0x6d, 0x61, 0x69, 0x6e, 0x5f, 0x67, 0x72, 0x61, 0x70, 0x68, 0x00, 0x00, 0x29, 0x00, 0x00, 0x00, 
0x10, 0x47, 0x00, 0x00, 0x9c, 0x46, 0x00, 0x00, 0x28, 0x46, 0x00, 0x00, 0xbc, 0x45, 0x00, 0x00, 0xec, 0x44, 
0x00, 0x00, 0x84, 0x44, 0x00, 0x00, 0x68, 0x43, 0x00, 0x00, 0xb8, 0x42, 0x00, 0x00, 0x50, 0x42, 0x00, 0x00, 
0xe0, 0x41, 0x00, 0x00, 0x78, 0x41, 0x00, 0x00, 0xf0, 0x3e, 0x00, 0x00, 0xe4, 0x3d, 0x00, 0x00, 0x24, 0x3d, 
0x00, 0x00, 0xc0, 0x3c, 0x00, 0x00, 0xb0, 0x3b, 0x00, 0x00, 0xa4, 0x3a, 0x00, 0x00, 0x2c, 0x3a, 0x00, 0x00, 
0xc0, 0x39, 0x00, 0x00, 0x04, 0x39, 0x00, 0x00, 0x6c, 0x36, 0x00, 0x00, 0x04, 0x36, 0x00, 0x00, 0xb8, 0x35, 
0x00, 0x00, 0x44, 0x35, 0x00, 0x00, 0xd8, 0x34, 0x00, 0x00, 0x8c, 0x34, 0x00, 0x00, 0xdc, 0x33, 0x00, 0x00, 
0x64, 0x33, 0x00, 0x00, 0xb4, 0x32, 0x00, 0x00, 0x68, 0x32, 0x00, 0x00, 0x00, 0x32, 0x00, 0x00, 0xe4, 0x30, 
0x00, 0x00, 0x78, 0x30, 0x00, 0x00, 0x70, 0x2f, 0x00, 0x00, 0x5c, 0x2e, 0x00, 0x00, 0xa8, 0x2d, 0x00, 0x00, 
0x88, 0x2c, 0x00, 0x00, 0x70, 0x2b, 0x00, 0x00, 0x0c, 0x2b, 0x00, 0x00, 0x60, 0x2a, 0x00, 0x00, 0xe8, 0x29, 
0x00, 0x00, 0x0f, 0x00, 0x00, 0x00, 0xb0, 0x29, 0x00, 0x00, 0x50, 0x29, 0x00, 0x00, 0xe8, 0x28, 0x00, 0x00, 
0x94, 0x28, 0x00, 0x00, 0x60, 0x28, 0x00, 0x00, 0x04, 0x28, 0x00, 0x00, 0xbc, 0x27, 0x00, 0x00, 0x88, 0x27, 
0x00, 0x00, 0x3c, 0x27, 0x00, 0x00, 0xf4, 0x26, 0x00, 0x00, 0xac, 0x26, 0x00, 0x00, 0x64, 0x26, 0x00, 0x00, 
0x14, 0x26, 0x00, 0x00, 0xc4, 0x25, 0x00, 0x00, 0x88, 0x25, 0x00, 0x00, 0x01, 0x00, 0x00, 0x00, 0x1e, 0x00, 
0x00, 0x00, 0x01, 0x00, 0x00, 0x00, 0x18, 0x00, 0x00, 0x00, 0x62, 0xda, 0xff, 0xff, 0x04, 0x00, 0x00, 0x00, 
0x20, 0x00, 0x00, 0x00, 0x9b, 0xfc, 0xff, 0xff, 0x44, 0x00, 0x00, 0x00, 0xab, 0xff, 0xff, 0xff, 0x18, 0x48, 
0x00, 0x00, 0xac, 0x00, 0x00, 0x00, 0x13, 0x00, 0x00, 0x00, 0x30, 0xf8, 0xff, 0xff, 0xd9, 0xec, 0xff, 0xff, 
0x8e, 0xda, 0xff, 0xff, 0x04, 0x00, 0x00, 0x00, 0x08, 0x00, 0x00, 0x00, 0x7c, 0x10, 0x00, 0x00, 0xb3, 0xfa, 
0xff, 0xff, 0xa2, 0xda, 0xff, 0xff, 0x04, 0x00, 0x00, 0x00, 0x80, 0x00, 0x00, 0x00, 0x81, 0x7f, 0xed, 0x04, 
0xf8, 0x46, 0x8c, 0xaf, 0xcc, 0xf1, 0xbb, 0xfe, 0xf1, 0x7f, 0x32, 0x0c, 0x58, 0x80, 0x1b, 0xd0, 0xdd, 0xcb, 
0x29, 0xa7, 0xc4, 0x11, 0x0f, 0x1d, 0x81, 0x10, 0x7e, 0xcf, 0x80, 0xc8, 0xe7, 0xfb, 0x05, 0xcc, 0xd2, 0xf5, 
0xfc, 0x80, 0x16, 0x0d, 0xf8, 0x08, 0x11, 0x00, 0x5e, 0x7f, 0x16, 0x90, 0x46, 0x10, 0x36, 0x0a, 0xfe, 0x05, 
0x05, 0x81, 0xfa, 0xff, 0xfc, 0xf9, 0xfb, 0x1a, 0x08, 0xfe, 0xd0, 0x07, 0x80, 0xc0, 0xd8, 0x5d, 0xbf, 0xf8, 
0xf4, 0x1f, 0x1e, 0x80, 0xa2, 0x68, 0xc8, 0xee, 0x0e, 0xf5, 0xb7, 0x80, 0x2b, 0x3d, 0xc7, 0x21, 0x7f, 0x23, 
0x76, 0xf8, 0xf6, 0xfd, 0xe6, 0x80, 0x29, 0x25, 0x1e, 0xf7, 0x2e, 0x7f, 0xe4, 0xa5, 0x4e, 0x23, 0x2e, 0xd8, 
0xd8, 0x7f, 0xc8, 0x2a, 0x39, 0x48, 0xf0, 0x4d, 0x9c, 0x53, 0x80, 0xe4, 0xcd, 0x5b, 0x69, 0xa2, 0x2e, 0xdb, 
0xff, 0xff, 0x04, 0x00, 0x00, 0x00, 0x90, 0x00, 0x00, 0x00, 0x22, 0x3a, 0x30, 0x27, 0x11, 0xfd, 0xd5, 0x74, 
0xbc, 0xcb, 0xf7, 0x90, 0x3d, 0x1e, 0x4c, 0x26, 0xd8, 0x5d, 0x7f, 0x14, 0x29, 0xfa, 0x81, 0xbc, 0xc4, 0xdc, 
0x0e, 0x80, 0x64, 0x5d, 0x7f, 0x5c, 0x60, 0x33, 0x65, 0x08, 0x1c, 0x00, 0xc4, 0x7f, 0xc3, 0xb5, 0x02, 0xd3, 
0x32, 0x23, 0x4f, 0x37, 0x6f, 0x44, 0x19, 0xe0, 0x2b, 0xf6, 0x29, 0x35, 0xb1, 0xdd, 0xfb, 0xa4, 0x48, 0x14, 
0x28, 0x13, 0x1c, 0x7f, 0x76, 0x3e, 0x7f, 0x81, 0x98, 0xec, 0x81, 0x8f, 0x7f, 0xb4, 0x7f, 0xfc, 0x09, 0x80, 
0x7f, 0x4d, 0x65, 0x16, 0x26, 0xfc, 0x1f, 0x40, 0xb7, 0x80, 0xf8, 0x00, 0x47, 0x0f, 0xe3, 0x3b, 0x38, 0x0a, 
0xf4, 0x7f, 0x1e, 0xfd, 0x5e, 0x52, 0xd6, 0xe0, 0xf4, 0xd9, 0x2e, 0xc7, 0x56, 0x59, 0x58, 0x43, 0x2b, 0xff, 
0x34, 0x00, 0x51, 0xad, 0x95, 0xcf, 0x0f, 0xf7, 0x5a, 0x80, 0x31, 0xcb, 0x48, 0x26, 0x4c, 0x5e, 0x17, 0x04, 
0x64, 0x64, 0xd8, 0x98, 0xfb, 0xc7, 0x30, 0xbd, 0x06, 0x1e, 0xca, 0xdb, 0xff, 0xff, 0x04, 0x00, 0x00, 0x00, 
0x80, 0x00, 0x00, 0x00, 0x01, 0x12, 0xe7, 0xe8, 0xec, 0x01, 0x00, 0xed, 0x12, 0x00, 0xf3, 0xec, 0x4b, 0x7f, 
0x04, 0xdb, 0xcb, 0x91, 0x73, 0x9d, 0x7d, 0x1a, 0x24, 0x44, 0x4f, 0xef, 0x80, 0x70, 0xf8, 0xd4, 0xdb, 0x41, 
0xe7, 0xc8, 0x4c, 0x33, 0x39, 0x73, 0x81, 0x1f, 0x47, 0xe8, 0xcf, 0xff, 0x50, 0x1c, 0x10, 0x79, 0xe0, 0x67, 
0x07, 0x14, 0x97, 0x80, 0x27, 0x33, 0xa3, 0x1d, 0x61, 0xb4, 0xc5, 0x04, 0x0a, 0x9c, 0x05, 0xfd, 0x05, 0x01, 
0xfe, 0x06, 0xfc, 0x01, 0x80, 0x9c, 0x24, 0x09, 0x07, 0x01, 0xdb, 0x15, 0x80, 0xe3, 0xf3, 0xfd, 0x09, 0x01, 
0xe9, 0x05, 0x21, 0xa1, 0xd2, 0x17, 0x0c, 0x06, 0x8f, 0x25, 0x01, 0x9d, 0x1e, 0x25, 0x14, 0x08, 0x21, 0x17, 
0x1c, 0x0b, 0xbc, 0x31, 0x3e, 0x03, 0xa2, 0x7f, 0xcb, 0xca, 0xb7, 0x48, 0xcb, 0x65, 0x4c, 0x80, 0x06, 0xe2, 
0xf0, 0xbe, 0x18, 0xea, 0xf1, 0x17, 0x56, 0xdc, 0xff, 0xff, 0x04, 0x00, 0x00, 0x00, 0xb0, 0x01, 0x00, 0x00, 
0x16, 0xce, 0x1f, 0x26, 0xa7, 0x2d, 0x28, 0x9d, 0x39, 0x14, 0xcf, 0x21, 0x3b, 0x80, 0x43, 0x2c, 0x8c, 0x4e, 
0x11, 0xef, 0xfb, 0x28, 0xb9, 0x1c, 0xf6, 0xf0, 0x1c, 0x1c, 0x00, 0xd0, 0x48, 0xdb, 0xe5, 0x7f, 0xdc, 0xcb, 
0xb2, 0x22, 0x11, 0xd3, 0x0f, 0x21, 0xf7, 0x2c, 0x0e, 0xb6, 0x12, 0x09, 0xdb, 0x27, 0x0b, 0xd4, 0x22, 0x0e, 
0xcd, 0x09, 0x32, 0x32, 0xdb, 0xe1, 0xff, 0x0a, 0xf9, 0xab, 0xf5, 0x7f, 0x48, 0xbb, 0xce, 0xf8, 0x18, 0xfd, 
0xd4, 0xf6, 0x54, 0x1c, 0xd7, 0xef, 0x02, 0x16, 0xf5, 0xd1, 0x21, 0x2e, 0xff, 0xed, 0x1a, 0xf2, 0x14, 0x15, 
0xc9, 0x7f, 0xfc, 0xe5, 0xee, 0x18, 0x10, 0xe7, 0x19, 0x42, 0x83, 0xa7, 0x47, 0x14, 0xcc, 0xf5, 0x12, 0xf1, 
0xfa, 0x25, 0x36, 0xe9, 0xdf, 0x30, 0x30, 0xd6, 0xd7, 0xe3, 0x32, 0x78, 0xcf, 0xcd, 0x7f, 0x0a, 0xa2, 0xa3, 
0x12, 0xf9, 0x18, 0xfb, 0xe7, 0x59, 0xfc, 0xc7, 0x97, 0x47, 0x16, 0xa3, 0x2d, 0xf5, 0xef, 0xdd, 0xe3, 0x30, 
0x3c, 0x11, 0x80, 0x0c, 0xe7, 0x08, 0xe6, 0xdf, 0x5d, 0xab, 0x15, 0xfa, 0x00, 0xdf, 0xf7, 0x13, 0xf3, 0x26, 
0x51, 0xf0, 0x37, 0x28, 0x38, 0x1c, 0x09, 0x3c, 0xab, 0xdb, 0xff, 0x38, 0xd3, 0x49, 0xf5, 0xcc, 0x7f, 0xe2, 
0xba, 0x22, 0x25, 0x88, 0x20, 0x03, 0xa4, 0x78, 0xfa, 0xf4, 0xf4, 0x16, 0x55, 0xdd, 0xe0, 0xfa, 0xf1, 0x12, 
0x08, 0xe4, 0x13, 0x7f, 0xc2, 0xd2, 0xdd, 0xe2, 0x33, 0x18, 0xe6, 0x03, 0x4e, 0xd6, 0xe4, 0xd3, 0xf5, 0x2b, 
0x1e, 0xe2, 0x01, 0x2c, 0xba, 0x25, 0xfd, 0xd7, 0x34, 0xee, 0xe4, 0x1a, 0xdc, 0xc9, 0x4b, 0xbe, 0xe2, 0x62, 
0xd8, 0x0b, 0x14, 0xa2, 0xdc, 0x5f, 0x80, 0xe4, 0x6a, 0x0f, 0x06, 0xee, 0xf0, 0x28, 0xed, 0x26, 0x29, 0xb8, 
0x23, 0xe0, 0xf5, 0x7f, 0xcf, 0xab, 0x56, 0x23, 0x84, 0x27, 0xec, 0xe5, 0x46, 0xcd, 0xe9, 0xf0, 0x18, 0xf2, 
0x0b, 0xe7, 0x48, 0xdf, 0xf1, 0x2c, 0xc2, 0xbc, 0x31, 0xe3, 0xd6, 0x33, 0xc5, 0x19, 0x64, 0xb3, 0xf0, 0x7f, 
0xd3, 0xd0, 0x42, 0xaa, 0xf7, 0x59, 0xa5, 0xd4, 0x6b, 0xd1, 0xec, 0xfe, 0x0e, 0x06, 0xe9, 0x49, 0xfa, 0xfe, 
0xbd, 0xcf, 0x04, 0x0e, 0xfa, 0x0d, 0x7f, 0xcd, 0x15, 0xdc, 0xd2, 0xeb, 0x2e, 0x03, 0x08, 0x53, 0xde, 0xff, 
0x30, 0xf2, 0xdd, 0x7c, 0xae, 0xd0, 0x71, 0xbf, 0xcc, 0xb8, 0x0a, 0x3f, 0xdd, 0xe8, 0x46, 0x1e, 0xdb, 0x02, 
0x05, 0xe3, 0x10, 0x9f, 0xe5, 0x7f, 0x93, 0x03, 0x6c, 0x38, 0x11, 0x0c, 0x5d, 0x00, 0x16, 0x33, 0xf8, 0x09, 
0xf4, 0xeb, 0x18, 0x05, 0xd9, 0x33, 0x01, 0xef, 0x34, 0xc4, 0x33, 0xe5, 0x80, 0x1d, 0xe1, 0x98, 0x13, 0xe7, 
0xf2, 0x0f, 0x00, 0x0e, 0xec, 0x08, 0x21, 0xce, 0x10, 0xe2, 0x27, 0xfd, 0x14, 0xdc, 0x0c, 0x55, 0x80, 0x09, 
0xe1, 0x21, 0x00, 0xf4, 0x0b, 0x04, 0x12, 0xe5, 0x0c, 0xda, 0x3d, 0xe9, 0xfd, 0x00, 0x03, 0x33, 0xba, 0x13, 
0xc9, 0x5a, 0xde, 0xef, 0x0c, 0x05, 0x6b, 0x80, 0x15, 0xc0, 0x42, 0xfe, 0xe2, 0x29, 0xf5, 0x28, 0xc9, 0x0f, 
0x12, 0xde, 0xff, 0xff, 0x04, 0x00, 0x00, 0x00, 0x40, 0x00, 0x00, 0x00, 0x26, 0x12, 0x00, 0x00, 0x6f, 0x18, 
0x00, 0x00, 0xd0, 0x09, 0x00, 0x00, 0xf9, 0x06, 0x00, 0x00, 0x7d, 0x16, 0x00, 0x00, 0x18, 0x32, 0x00, 0x00, 
0xcc, 0x26, 0x00, 0x00, 0x69, 0x02, 0x00, 0x00, 0xd3, 0x34, 0x00, 0x00, 0xad, 0x18, 0x00, 0x00, 0x67, 0x0f, 
0x00, 0x00, 0x92, 0x09, 0x00, 0x00, 0xd0, 0x0a, 0x00, 0x00, 0x86, 0x44, 0x00, 0x00, 0x31, 0xfc, 0xff, 0xff, 
0x8e, 0x03, 0x00, 0x00, 0x5e, 0xde, 0xff, 0xff, 0x04, 0x00, 0x00, 0x00, 0x90, 0x00, 0x00, 0x00, 0xb9, 0x17, 
0xf2, 0x1f, 0xed, 0xff, 0x25, 0x7f, 0xff, 0x7f, 0x00, 0x7f, 0x78, 0x36, 0xa4, 0x2a, 0xb1, 0xdc, 0xa7, 0xb9, 
0x01, 0x08, 0x7f, 0x7a, 0xf2, 0x03, 0x00, 0x1c, 0xe2, 0xea, 0xe0, 0x5e, 0xcf, 0xe7, 0x7f, 0x0f, 0xf2, 0xf7, 
0x44, 0x7f, 0xff, 0xd0, 0x00, 0x33, 0x7f, 0x35, 0x4d, 0x49, 0x1c, 0xe6, 0xfb, 0x74, 0x07, 0xfc, 0x29, 0x0b, 
0xfc, 0x77, 0x00, 0x30, 0xad, 0x2e, 0x80, 0x42, 0x7f, 0x80, 0xc2, 0xb6, 0x7f, 0x81, 0xdb, 0xe8, 0x7f, 0x9b, 
0x7f, 0x07, 0xb8, 0xee, 0x29, 0x7f, 0x21, 0xfd, 0x1a, 0x53, 0x06, 0xf7, 0x2e, 0x03, 0xfe, 0xbd, 0x00, 0x43, 
0xa0, 0x1d, 0x49, 0x49, 0xfe, 0xfd, 0xf9, 0x4b, 0xed, 0xf4, 0x30, 0x1e, 0xfa, 0x7d, 0x00, 0x36, 0x62, 0x3d, 
0xb0, 0x19, 0x0e, 0xeb, 0xff, 0x5c, 0x09, 0x0d, 0xe3, 0x3a, 0x8f, 0xb8, 0x00, 0x5e, 0x10, 0x7f, 0x0e, 0x28, 
0xfa, 0x03, 0x26, 0x7f, 0xf0, 0xea, 0x32, 0x68, 0xf6, 0x00, 0x00, 0x3d, 0x70, 0x3d, 0x3d, 0x11, 0xfa, 0xde, 
0xff, 0xff, 0x04, 0x00, 0x00, 0x00, 0x20, 0x00, 0x00, 0x00, 0x00, 0x00, 0x00, 0x00, 0x00, 0x00, 0x00, 0x00, 
0x01, 0x00, 0x00, 0x00, 0x01, 0x00, 0x00, 0x00, 0x01, 0x00, 0x00, 0x00, 0x01, 0x00, 0x00, 0x00, 0x00, 0x00, 
0x00, 0x00, 0x00, 0x00, 0x00, 0x00, 0x26, 0xdf, 0xff, 0xff, 0x04, 0x00, 0x00, 0x00, 0x20, 0x00, 0x00, 0x00, 
0x5c, 0x09, 0x00, 0x00, 0x75, 0x10, 0x00, 0x00, 0xb9, 0x00, 0x00, 0x00, 0x09, 0x52, 0x00, 0x00, 0x3a, 0x05, 
0x00, 0x00, 0xff, 0xff, 0xff, 0xff, 0x41, 0x01, 0x00, 0x00, 0xbe, 0x00, 0x00, 0x00, 0x52, 0xdf, 0xff, 0xff, 
0x04, 0x00, 0x00, 0x00, 0x20, 0x00, 0x00, 0x00, 0x1d, 0x00, 0x00, 0x00, 0x96, 0x3e, 0x00, 0x00, 0xcb, 0x0a, 
0x00, 0x00, 0xc7, 0x0c, 0x00, 0x00, 0xf3, 0x0c, 0x00, 0x00, 0xba, 0x00, 0x00, 0x00, 0x8b, 0x1f, 0x00, 0x00, 
0x2d, 0xfe, 0xff, 0xff, 0x7e, 0xdf, 0xff, 0xff, 0x04, 0x00, 0x00, 0x00, 0x20, 0x00, 0x00, 0x00, 0x00, 0x00, 
0x00, 0x00, 0x00, 0x00, 0x00, 0x00, 0x01, 0x00, 0x00, 0x00, 0x01, 0x00, 0x00, 0x00, 0x01, 0x00, 0x00, 0x00, 
0x01, 0x00, 0x00, 0x00, 0x00, 0x00, 0x00, 0x00, 0x00, 0x00, 0x00, 0x00, 0xaa, 0xdf, 0xff, 0xff, 0x04, 0x00, 
0x00, 0x00, 0x20, 0x00, 0x00, 0x00, 0x00, 0x00, 0x00, 0x00, 0x00, 0x00, 0x00, 0x00, 0x01, 0x00, 0x00, 0x00, 
0x01, 0x00, 0x00, 0x00, 0x01, 0x00, 0x00, 0x00, 0x01, 0x00, 0x00, 0x00, 0x00, 0x00, 0x00, 0x00, 0x00, 0x00, 
0x00, 0x00, 0xd6, 0xdf, 0xff, 0xff, 0x04, 0x00, 0x00, 0x00, 0x00, 0x1b, 0x00, 0x00, 0x00, 0x00, 0x00, 0x00, 
0x00, 0x00, 0x00, 0x00, 0x00, 0x00, 0x00, 0x00, 0x00, 0x00, 0x00, 0x00, 0x00, 0x00, 0x00, 0x00, 0x00, 0x00, 
0x00, 0x00, 0x00, 0x00, 0x00, 0x00, 0x00, 0x00, 0x00, 0x00, 0x00, 0x00, 0x00, 0x00, 0x00, 0x00, 0x00, 0x00, 
0x00, 0x00, 0x00, 0x00, 0x00, 0x00, 0x00, 0x00, 0x00, 0x00, 0x00, 0x00, 0x00, 0x00, 0x00, 0x00, 0x00, 0x00, 
0x00, 0x00, 0x00, 0x00, 0x00, 0x00, 0x00, 0x00, 0x00, 0x00, 0x00, 0x00, 0x00, 0x00, 0x00, 0x00, 0x00, 0x00, 
0x00, 0x00, 0x00, 0x00, 0x00, 0x00, 0x00, 0x00, 0x00, 0x00, 0x00, 0x00, 0x00, 0x00, 0x00, 0x00, 0x00, 0x00, 
0x00, 0x00, 0x00, 0x00, 0x00, 0x00, 0x00, 0x00, 0x00, 0x00, 0x00, 0x00, 0x00, 0x00, 0x00, 0x00, 0x00, 0x00, 
0x00, 0x00, 0x00, 0x00, 0x00, 0x00, 0x00, 0x00, 0x00, 0x00, 0x00, 0x00, 0x00, 0x00, 0x00, 0x00, 0x00, 0x00, 
0x00, 0x00, 0x00, 0x00, 0x00, 0x00, 0x00, 0x00, 0x00, 0x00, 0x00, 0x00, 0x00, 0x00, 0x16, 0xf4, 0xd6, 0x28, 
0xf2, 0x19, 0xf8, 0xfe, 0xfb, 0xdf, 0xfa, 0x0f, 0x18, 0xe9, 0xb4, 0xe7, 0xee, 0xd8, 0xe7, 0xdc, 0xf0, 0x0f, 
0x1f, 0x05, 0xe7, 0xfb, 0x11, 0xf4, 0xd6, 0xd6, 0xfd, 0x10, 0xf6, 0xe7, 0xcf, 0x4d, 0xf4, 0x19, 0x06, 0x17, 
0xf6, 0xf0, 0xed, 0x38, 0x15, 0xf3, 0xd2, 0xd1, 0xe5, 0xf8, 0x24, 0x05, 0x32, 0x2d, 0xf3, 0x12, 0x09, 0x3f, 
0xd8, 0xec, 0x12, 0xd6, 0x69, 0x07, 0xfb, 0x28, 0x44, 0xe3, 0x0d, 0x80, 0x07, 0x08, 0x03, 0x47, 0x3b, 0xc4, 
0xe4, 0x43, 0x36, 0x38, 0x04, 0xf7, 0x35, 0xe3, 0x34, 0x36, 0xf7, 0x09, 0x10, 0x0e, 0xde, 0x15, 0x08, 0xe0, 
0x19, 0x07, 0xf3, 0xe4, 0xee, 0x18, 0xe5, 0x15, 0x12, 0x2d, 0xfd, 0xe9, 0xd9, 0x38, 0xf5, 0xf8, 0x09, 0xd5, 
0x29, 0x2d, 0xeb, 0x10, 0xed, 0xd9, 0xbc, 0xe0, 0x10, 0xd9, 0xf8, 0x30, 0xf8, 0x57, 0xd2, 0xe9, 0x08, 0xe3, 
0x1c, 0xf4, 0xf0, 0xfa, 0x0e, 0xea, 0x10, 0xc5, 0xf9, 0x26, 0x00, 0xfd, 0xd8, 0xeb, 0xf1, 0x1f, 0x10, 0x11, 
0x0d, 0x0b, 0x02, 0x14, 0x0d, 0xfd, 0x0a, 0x1f, 0xd8, 0x0d, 0x01, 0xfd, 0x21, 0x2a, 0xf0, 0xfd, 0x0e, 0x05, 
0xf9, 0x12, 0xfe, 0xf9, 0xeb, 0xf8, 0x02, 0xeb, 0xeb, 0xe7, 0xfc, 0x31, 0x10, 0x21, 0x12, 0x10, 0x0a, 0x1e, 
0x10, 0xd9, 0x06, 0x04, 0xdc, 0x14, 0xfb, 0x0a, 0x52, 0xb0, 0xe8, 0x1b, 0xfb, 0x31, 0x03, 0xf1, 0xe2, 0xd5, 
0x0f, 0x3a, 0xfe, 0x18, 0xdc, 0x03, 0xf1, 0xd0, 0xea, 0x27, 0xda, 0x80, 0x20, 0xfd, 0xea, 0x21, 0x7e, 0x2c, 
0x05, 0x33, 0xf6, 0xdc, 0x38, 0xad, 0xca, 0xfe, 0xf4, 0x2a, 0x07, 0xfb, 0xe2, 0x23, 0x17, 0x0d, 0xff, 0x17, 
0xe2, 0xfc, 0xf4, 0x0d, 0x08, 0xee, 0xf4, 0x16, 0xf2, 0xfe, 0xf1, 0xf7, 0x0a, 0xe8, 0xf7, 0xf5, 0x00, 0x18, 
0xfb, 0x27, 0xff, 0x1a, 0x11, 0x13, 0xd5, 0x0f, 0x02, 0xfa, 0xdb, 0xf7, 0xf2, 0xe1, 0xfe, 0xf3, 0x00, 0x04, 
0x04, 0xfa, 0xff, 0x19, 0x09, 0xfe, 0xf1, 0xfc, 0x01, 0x0f, 0x01, 0xed, 0x11, 0x2a, 0xc9, 0xea, 0xf3, 0x9b, 
0x24, 0xfd, 0xbe, 0xcd, 0xe6, 0x54, 0xe9, 0xfa, 0xe0, 0x04, 0xbf, 0x99, 0xd5, 0x48, 0xc7, 0xa8, 0xfc, 0x1d, 
0x13, 0x1b, 0x01, 0xe5, 0x04, 0xe4, 0x4b, 0xb6, 0xcf, 0x11, 0x08, 0xe9, 0xb3, 0xa7, 0x34, 0xf4, 0xe8, 0x2f, 
0xf7, 0xe5, 0xf1, 0x0d, 0x07, 0xd8, 0x0b, 0x92, 0xc9, 0x08, 0xd1, 0xb0, 0x1b, 0x25, 0xe5, 0xd6, 0x0b, 0x41, 
0xde, 0xf7, 0xd4, 0x0e, 0xdf, 0xc3, 0x23, 0x27, 0xd2, 0xcf, 0x00, 0x2f, 0xfa, 0x19, 0xf9, 0xd0, 0xc5, 0xbe, 
0x4b, 0xcf, 0xef, 0x32, 0xbe, 0x07, 0xf3, 0xd8, 0x27, 0x33, 0xfc, 0x30, 0x20, 0xbd, 0xe1, 0x1f, 0x1e, 0x02, 
0xce, 0xbd, 0x1d, 0xff, 0xe4, 0xd6, 0x11, 0xd0, 0xef, 0xf2, 0x0d, 0xf1, 0xd9, 0x5e, 0x80, 0x3e, 0xc8, 0xb3, 
0x32, 0x11, 0xf5, 0x06, 0xd8, 0x9a, 0xfa, 0x49, 0x09, 0xcf, 0x1c, 0x3c, 0x3a, 0x24, 0xf0, 0x07, 0x19, 0x25, 
0xc3, 0xd7, 0x26, 0xae, 0x0c, 0x75, 0x1c, 0xc0, 0x0c, 0x75, 0xe9, 0x2f, 0xb3, 0xbb, 0xa9, 0xea, 0x14, 0xdb, 
0x0e, 0x0d, 0x16, 0x01, 0x32, 0x2e, 0xec, 0x7b, 0xc6, 0xb0, 0xa8, 0xb1, 0xd8, 0x39, 0x25, 0xf5, 0xe7, 0xed, 
0xfb, 0x00, 0x1b, 0xc8, 0xd6, 0x45, 0x21, 0xd4, 0xac, 0xfe, 0xeb, 0xff, 0x2d, 0xc2, 0x0a, 0xf8, 0xb7, 0x01, 
0xe7, 0x1e, 0xfe, 0xb5, 0xad, 0x21, 0x6d, 0xe9, 0xb9, 0x12, 0xee, 0xe9, 0xf8, 0x01, 0x06, 0x1d, 0x23, 0x1c, 
0x22, 0x3b, 0xcc, 0xdf, 0xc6, 0xbc, 0xdc, 0x30, 0x30, 0xeb, 0xa2, 0x35, 0x23, 0xf9, 0x1c, 0xee, 0x0d, 0x36, 
0x2f, 0x11, 0xc7, 0x25, 0xe0, 0xbe, 0xfb, 0xfe, 0x0a, 0x0e, 0xee, 0xee, 0xda, 0x4c, 0x03, 0xb3, 0xfd, 0x11, 
0x49, 0x04, 0xcd, 0xdf, 0xd2, 0x11, 0x5b, 0xd9, 0xee, 0x59, 0x20, 0x2e, 0x19, 0x0b, 0xb4, 0xf7, 0xbf, 0xe1, 
0x44, 0x36, 0x51, 0x0a, 0xd6, 0xe5, 0x20, 0x28, 0x00, 0xf0, 0x03, 0xe8, 0x30, 0x10, 0xe9, 0x44, 0xcd, 0xd1, 
0x3e, 0xe3, 0x22, 0x30, 0xe9, 0x0a, 0xc2, 0x57, 0xfa, 0x80, 0x0e, 0x16, 0x55, 0xf1, 0xe4, 0xe1, 0xf1, 0x07, 
0xbf, 0x11, 0xd9, 0xea, 0x04, 0x05, 0x25, 0x1b, 0xe1, 0x14, 0xf1, 0xf5, 0xdd, 0xf4, 0xf5, 0x0f, 0x00, 0x36, 
0xfe, 0xe9, 0x05, 0xce, 0x25, 0x18, 0x0b, 0xe6, 0xbe, 0x0c, 0x20, 0xeb, 0x2b, 0xfe, 0xae, 0x06, 0x00, 0xf3, 
0xf2, 0xd1, 0x13, 0x28, 0xf8, 0xeb, 0xc4, 0xfc, 0xde, 0x46, 0xf1, 0xe7, 0xfe, 0x06, 0xf2, 0xfd, 0x17, 0x46, 
0xdd, 0x04, 0xbb, 0xff, 0xf9, 0xf4, 0xf9, 0x2b, 0x12, 0xf0, 0x5e, 0x7f, 0xe3, 0xf6, 0xe8, 0x26, 0xac, 0x24, 
0x0a, 0xed, 0xfc, 0xf5, 0xd3, 0x38, 0x00, 0xeb, 0x04, 0x0a, 0xf5, 0xf3, 0x19, 0xfc, 0xce, 0x1c, 0xcc, 0xe2, 
0xf8, 0x15, 0x1a, 0xf3, 0xc9, 0xfd, 0xc4, 0xe5, 0x33, 0x1f, 0x1d, 0x94, 0x1e, 0x2d, 0xc2, 0x03, 0xec, 0xf4, 
0x0e, 0xb7, 0xf9, 0xf3, 0xe5, 0xf4, 0x24, 0x39, 0xf5, 0xd8, 0x5d, 0x51, 0x37, 0x05, 0xfc, 0x16, 0x33, 0xf9, 
0xfa, 0xe7, 0xc0, 0xd4, 0x3f, 0x28, 0x14, 0x2d, 0x2b, 0x3e, 0xe9, 0x03, 0xd4, 0xfd, 0x2e, 0x50, 0xcd, 0x1e, 
0x18, 0x0a, 0xed, 0xda, 0x20, 0x96, 0xe1, 0x3b, 0xf5, 0x3d, 0xaf, 0xf5, 0xc4, 0xe4, 0xda, 0x07, 0xf2, 0xdb, 
0x34, 0x0a, 0xea, 0xe4, 0x66, 0x17, 0xe7, 0xf1, 0x07, 0xde, 0x06, 0x42, 0xbe, 0x19, 0x20, 0xfb, 0xeb, 0x22, 
0xf4, 0xd2, 0x00, 0x3b, 0xc5, 0x1f, 0xfb, 0xf1, 0xf4, 0xe2, 0x16, 0x13, 0xed, 0x37, 0xfd, 0xd2, 0xf5, 0x10, 
0x12, 0x2c, 0x13, 0x14, 0x13, 0x12, 0x09, 0xad, 0x2d, 0xfc, 0x81, 0xcd, 0x37, 0xf0, 0x11, 0x6a, 0x6f, 0x15, 
0xcd, 0x0b, 0x05, 0x33, 0xda, 0xdf, 0x09, 0xfb, 0xe3, 0x32, 0xed, 0x0f, 0xf3, 0x3c, 0x1f, 0xff, 0xf0, 0xff, 
0xf2, 0x12, 0xf0, 0x43, 0x16, 0x23, 0x3b, 0x0c, 0x1c, 0xfb, 0xe7, 0xda, 0xe8, 0xd5, 0x3b, 0xec, 0x17, 0xe4, 
0x3d, 0xf9, 0x0b, 0x5b, 0xc7, 0xe9, 0xde, 0xeb, 0xe2, 0xee, 0x6c, 0x1f, 0xee, 0x6d, 0xf9, 0xda, 0xfc, 0x21, 
0xfa, 0x1a, 0x23, 0x16, 0x1a, 0xfd, 0xe2, 0xeb, 0xfa, 0x06, 0x06, 0xe5, 0x1d, 0xfe, 0x0d, 0xe7, 0x06, 0x07, 
0x14, 0x15, 0x0d, 0x03, 0xfd, 0xe4, 0xfc, 0x1b, 0x05, 0x0e, 0x1c, 0x08, 0x0c, 0x17, 0x06, 0x00, 0xf0, 0xff, 
0x15, 0x29, 0x23, 0xf0, 0x2c, 0x20, 0xf2, 0x12, 0x08, 0xea, 0x0b, 0xf5, 0xfe, 0xe5, 0x0b, 0x0f, 0x08, 0x11, 
0xfe, 0xf8, 0x15, 0x12, 0xe3, 0x0f, 0x25, 0x21, 0xea, 0x1f, 0x14, 0xf8, 0xfd, 0x12, 0xf9, 0xec, 0x04, 0x2c, 
0xf1, 0xfb, 0x06, 0x10, 0xfd, 0xfa, 0x3f, 0x0e, 0xfd, 0x07, 0x2e, 0x16, 0xfd, 0xe9, 0xf3, 0x14, 0x81, 0xe3, 
0xed, 0x09, 0xfb, 0xf2, 0xfe, 0x17, 0x05, 0x0f, 0x08, 0x11, 0xfb, 0xf9, 0x00, 0xdc, 0xec, 0xd9, 0xfb, 0x0b, 
0x20, 0x14, 0x19, 0x2a, 0x2b, 0x24, 0x21, 0x0a, 0xfb, 0xf6, 0x21, 0xdf, 0xfb, 0x14, 0x06, 0x03, 0xcb, 0x05, 
0x32, 0xe5, 0xef, 0x3b, 0x09, 0x0f, 0x05, 0xf6, 0xf6, 0xf1, 0x17, 0x30, 0xf3, 0x07, 0xe2, 0x17, 0x21, 0x08, 
0xf4, 0x0b, 0xfd, 0x0f, 0xfb, 0x21, 0x13, 0xf7, 0x0a, 0x08, 0xff, 0x08, 0xfb, 0x09, 0x00, 0x00, 0x00, 0x00, 
0x00, 0x00, 0x00, 0x00, 0x00, 0x00, 0x00, 0x00, 0x00, 0x00, 0x00, 0x00, 0x00, 0x00, 0x00, 0x00, 0x00, 0x00, 
0x00, 0x00, 0x00, 0x00, 0x00, 0x00, 0x00, 0x00, 0x00, 0x00, 0x00, 0x00, 0x00, 0x00, 0x00, 0x00, 0x00, 0x00, 
0x00, 0x00, 0x00, 0x00, 0x00, 0x00, 0x00, 0x00, 0x00, 0x00, 0x00, 0x00, 0x00, 0x00, 0x00, 0x00, 0x00, 0x00, 
0x00, 0x00, 0x00, 0x00, 0x00, 0x00, 0x00, 0x00, 0x00, 0x00, 0x00, 0x00, 0x00, 0x00, 0x00, 0x00, 0x00, 0x00, 
0x00, 0x00, 0x00, 0x00, 0x00, 0x00, 0x00, 0x00, 0x00, 0x00, 0x00, 0x00, 0x00, 0x00, 0x00, 0x00, 0x00, 0x00, 
0x00, 0x00, 0x00, 0x00, 0x00, 0x00, 0x00, 0x00, 0x00, 0x00, 0x00, 0x00, 0x00, 0x00, 0x00, 0x00, 0x00, 0x00, 
0x00, 0x00, 0x00, 0x00, 0x00, 0x00, 0x00, 0x00, 0x00, 0x00, 0x00, 0x00, 0x00, 0x00, 0x00, 0x00, 0x00, 0x00, 
0x00, 0x00, 0x00, 0x00, 0x00, 0x00, 0x00, 0x00, 0x00, 0x00, 0x00, 0x00, 0x00, 0x00, 0x00, 0x00, 0x00, 0x00, 
0x00, 0x00, 0x00, 0x00, 0x00, 0x00, 0x00, 0x00, 0x00, 0x00, 0x00, 0x00, 0x00, 0x00, 0x00, 0x00, 0x00, 0x00, 
0x00, 0x00, 0x00, 0x00, 0x00, 0x00, 0x00, 0x00, 0x00, 0x00, 0x00, 0x00, 0x00, 0x00, 0x00, 0x00, 0x00, 0x00, 
0x00, 0x00, 0x00, 0x00, 0x00, 0x00, 0x00, 0x00, 0x00, 0x00, 0x00, 0x00, 0x00, 0x00, 0x00, 0x00, 0x00, 0x00, 
0x00, 0x00, 0x00, 0x00, 0x00, 0x00, 0x00, 0x00, 0x00, 0x00, 0x00, 0x00, 0x00, 0x00, 0x00, 0x00, 0x00, 0x00, 
0x00, 0x00, 0x00, 0x00, 0x00, 0x00, 0x00, 0x00, 0x00, 0x00, 0x00, 0x00, 0x00, 0x00, 0x00, 0x00, 0x00, 0x00, 
0x00, 0x00, 0x00, 0x00, 0x00, 0x00, 0x00, 0x00, 0x00, 0x00, 0x00, 0x00, 0x00, 0x00, 0x00, 0x00, 0x00, 0x00, 
0x00, 0x00, 0x00, 0x00, 0x00, 0x00, 0x00, 0x00, 0x00, 0x00, 0x00, 0x00, 0x00, 0x00, 0x00, 0x00, 0x00, 0x00, 
0x00, 0x00, 0x00, 0x00, 0x00, 0x00, 0x00, 0x00, 0x00, 0x00, 0x00, 0x00, 0x00, 0x00, 0x18, 0x67, 0x18, 0x22, 
0x0c, 0x1c, 0x1d, 0xda, 0x28, 0xbc, 0xfc, 0xf1, 0xdb, 0x1a, 0xba, 0x28, 0xec, 0x37, 0x06, 0x21, 0xf9, 0x1d, 
0x32, 0xed, 0xfb, 0x97, 0xfc, 0x30, 0xd5, 0x07, 0x2f, 0xef, 0xf1, 0x04, 0xe1, 0xea, 0x48, 0x3a, 0x2a, 0xd8, 
0xef, 0xa8, 0x01, 0x41, 0x12, 0x2b, 0x03, 0x11, 0x20, 0xbc, 0x0a, 0x15, 0xfb, 0x24, 0x0d, 0x00, 0x00, 0xcd, 
0xcc, 0xda, 0x28, 0xdc, 0x2a, 0xf8, 0x33, 0xbb, 0xcd, 0x11, 0xeb, 0x2e, 0x0f, 0xf5, 0xd6, 0xe8, 0x80, 0x17, 
0xf1, 0xd8, 0x49, 0xf9, 0x23, 0xe1, 0x1c, 0x24, 0x3b, 0x3c, 0xfd, 0x04, 0xef, 0x8e, 0xcb, 0x12, 0x15, 0x1d, 
0x1c, 0x1f, 0xf6, 0x79, 0x52, 0x04, 0x15, 0x1c, 0x32, 0xe9, 0xfb, 0x1e, 0xd9, 0xe4, 0x24, 0xdd, 0x4f, 0x2a, 
0xae, 0x08, 0xb2, 0xd7, 0xc2, 0x0e, 0x38, 0xdb, 0xe3, 0xf9, 0xc5, 0xc7, 0xfc, 0x0d, 0x60, 0xe8, 0xd0, 0xe6, 
0x17, 0xd4, 0x70, 0x03, 0x0a, 0x16, 0x08, 0x0b, 0xe3, 0xc2, 0xf4, 0x31, 0x1d, 0xf4, 0xf3, 0xcf, 0xf5, 0xf6, 
0xb7, 0xfe, 0x29, 0xc3, 0x28, 0x1d, 0x01, 0x28, 0xd5, 0x24, 0xd4, 0x98, 0xdb, 0xdb, 0x0a, 0xe1, 0xba, 0x12, 
0x1d, 0xe5, 0x2c, 0x0a, 0xf9, 0x2c, 0x46, 0x1a, 0xf5, 0xea, 0xf1, 0xe1, 0xe5, 0xe6, 0x94, 0xf6, 0x29, 0xcf, 
0x1f, 0x19, 0x0a, 0x30, 0xb4, 0x2b, 0xdf, 0xb6, 0xef, 0xe8, 0xf1, 0x03, 0x0a, 0xdf, 0x07, 0x09, 0xf6, 0xec, 
0x10, 0xfb, 0xcb, 0xdd, 0x17, 0xaa, 0xc5, 0xd8, 0x05, 0xde, 0x02, 0xfb, 0xf8, 0x28, 0x07, 0xac, 0x0d, 0xeb, 
0x2a, 0xe9, 0xeb, 0x0c, 0x08, 0xe5, 0x0c, 0xf7, 0xe9, 0xd5, 0x0e, 0x08, 0xe5, 0xf3, 0x29, 0x37, 0xc3, 0xf8, 
0xdd, 0xdb, 0xf8, 0x22, 0x08, 0xe9, 0xd5, 0xfe, 0x22, 0x03, 0xf2, 0x2a, 0xdf, 0x0a, 0xda, 0xdf, 0x17, 0x80, 
0xd0, 0x12, 0x12, 0xce, 0xd6, 0x09, 0x32, 0x31, 0x14, 0x0f, 0xb1, 0xe1, 0x32, 0x07, 0xfa, 0xc9, 0xd1, 0x0b, 
0x36, 0xe4, 0xbe, 0xf1, 0x34, 0x22, 0xf6, 0x1f, 0xde, 0x20, 0xe4, 0xdb, 0x0c, 0x91, 0x00, 0x00, 0x00, 0x00, 
0x00, 0x00, 0x00, 0x00, 0x00, 0x00, 0x00, 0x00, 0x00, 0x00, 0x00, 0x00, 0x00, 0x00, 0x00, 0x00, 0x00, 0x00, 
0x00, 0x00, 0x00, 0x00, 0x00, 0x00, 0x00, 0x00, 0x00, 0x00, 0x00, 0x00, 0x00, 0x00, 0x00, 0x00, 0x00, 0x00, 
0x00, 0x00, 0x00, 0x00, 0x00, 0x00, 0x00, 0x00, 0x00, 0x00, 0x00, 0x00, 0x00, 0x00, 0x00, 0x00, 0x00, 0x00, 
0x00, 0x00, 0x00, 0x00, 0x00, 0x00, 0x00, 0x00, 0x00, 0x00, 0x00, 0x00, 0x00, 0x00, 0x00, 0x00, 0x00, 0x00, 
0x00, 0x00, 0x00, 0x00, 0x00, 0x00, 0x00, 0x00, 0x00, 0x00, 0x00, 0x00, 0x00, 0x00, 0x00, 0x00, 0x00, 0x00, 
0x00, 0x00, 0x00, 0x00, 0x00, 0x00, 0x00, 0x00, 0x00, 0x00, 0x00, 0x00, 0x00, 0x00, 0x00, 0x00, 0x00, 0x00, 
0x00, 0x00, 0x00, 0x00, 0x00, 0x00, 0x00, 0x00, 0x00, 0x00, 0x00, 0x00, 0x00, 0x00, 0x00, 0x00, 0x00, 0x00, 
0x00, 0x00, 0x00, 0x00, 0x00, 0x00, 0x00, 0x00, 0x00, 0x00, 0x00, 0x00, 0x00, 0x00, 0xa5, 0xf0, 0xed, 0x11, 
0xef, 0x01, 0xde, 0x0d, 0x26, 0x0a, 0xe2, 0xd6, 0xc1, 0x20, 0x35, 0x1f, 0xd2, 0x05, 0xf0, 0xcd, 0xee, 0xe3, 
0x01, 0xe9, 0x23, 0xcc, 0xb5, 0x1e, 0xe8, 0x20, 0x4c, 0x27, 0x11, 0xaa, 0x24, 0xbe, 0x55, 0xeb, 0x18, 0xdc, 
0x13, 0x03, 0xd7, 0x13, 0x4c, 0xdf, 0x44, 0xc8, 0xc4, 0x0a, 0xf8, 0x2e, 0x09, 0x01, 0x06, 0x17, 0xfc, 0x1a, 
0x03, 0xef, 0xe7, 0x3f, 0x37, 0xf7, 0xc6, 0x4d, 0x11, 0x03, 0x08, 0x52, 0x16, 0xfb, 0x47, 0x20, 0xca, 0x3a, 
0x02, 0x76, 0x4d, 0x14, 0xee, 0x46, 0x04, 0xf7, 0x05, 0xf5, 0x24, 0xfe, 0x02, 0xd2, 0xe8, 0xfd, 0x0f, 0x1c, 
0x18, 0xe1, 0xb4, 0xd3, 0xfe, 0x7f, 0x01, 0x2a, 0x5c, 0xf8, 0xfd, 0xdd, 0xf7, 0xd5, 0xbb, 0x16, 0x1c, 0xf5, 
0xf8, 0x0b, 0xbf, 0x04, 0x22, 0x09, 0x42, 0xfb, 0x19, 0xf0, 0xeb, 0x11, 0x02, 0x16, 0x11, 0xe5, 0x12, 0x08, 
0xdc, 0xbe, 0x5e, 0x25, 0x16, 0x1a, 0xf3, 0xee, 0xed, 0x01, 0xee, 0x28, 0x1a, 0xee, 0xfd, 0xe2, 0x08, 0x33, 
0x26, 0x10, 0xf1, 0x80, 0xfe, 0x33, 0xe4, 0xd1, 0x36, 0x29, 0xd9, 0xd4, 0x0d, 0x3c, 0x03, 0x08, 0xf9, 0xf9, 
0x3a, 0x94, 0xec, 0x08, 0xd7, 0xbe, 0x19, 0x0e, 0x20, 0x27, 0x2b, 0x21, 0xc2, 0x02, 0x37, 0xee, 0x08, 0xb2, 
0x21, 0x3c, 0xdc, 0xaf, 0xdc, 0x0b, 0x1d, 0xc3, 0xe1, 0xc1, 0xd0, 0x19, 0x39, 0xf3, 0x04, 0xcc, 0x0c, 0x12, 
0xe6, 0xff, 0x11, 0x0a, 0xf4, 0xe3, 0x1e, 0xf7, 0xdd, 0x08, 0x13, 0xbe, 0x08, 0xf8, 0xf8, 0xb3, 0xfc, 0xf1, 
0x32, 0xfe, 0x0b, 0x31, 0xf4, 0xf6, 0xfe, 0xe4, 0x3c, 0xea, 0x17, 0x2c, 0x18, 0xda, 0xf7, 0x1f, 0x21, 0xec, 
0xe7, 0xc5, 0xf4, 0x0a, 0x05, 0xe9, 0xe7, 0xf3, 0xed, 0xd8, 0xd2, 0x1b, 0xd1, 0x06, 0x94, 0x34, 0x00, 0xe1, 
0x18, 0x2c, 0x03, 0xe0, 0xb8, 0x0d, 0xcb, 0x13, 0xdb, 0xd4, 0xd5, 0x19, 0x0a, 0x28, 0xfd, 0x09, 0x09, 0x36, 
0x2a, 0xc4, 0xe1, 0xf8, 0xf8, 0x52, 0xe0, 0xdb, 0xd4, 0x23, 0xd4, 0x19, 0xdb, 0xcb, 0x00, 0x00, 0x00, 0x00, 
0x00, 0x00, 0x00, 0x00, 0x00, 0x00, 0x00, 0x00, 0x00, 0x00, 0x00, 0x00, 0x00, 0x00, 0x00, 0x00, 0x00, 0x00, 
0x00, 0x00, 0x00, 0x00, 0x00, 0x00, 0x00, 0x00, 0x00, 0x00, 0x00, 0x00, 0x00, 0x00, 0x00, 0x00, 0x00, 0x00, 
0x00, 0x00, 0x00, 0x00, 0x00, 0x00, 0x00, 0x00, 0x00, 0x00, 0x00, 0x00, 0x00, 0x00, 0x00, 0x00, 0x00, 0x00, 
0x00, 0x00, 0x00, 0x00, 0x00, 0x00, 0x00, 0x00, 0x00, 0x00, 0x00, 0x00, 0x00, 0x00, 0x00, 0x00, 0x00, 0x00, 
0x00, 0x00, 0x00, 0x00, 0x00, 0x00, 0x00, 0x00, 0x00, 0x00, 0x00, 0x00, 0x00, 0x00, 0x00, 0x00, 0x00, 0x00, 
0x00, 0x00, 0x00, 0x00, 0x00, 0x00, 0x00, 0x00, 0x00, 0x00, 0x00, 0x00, 0x00, 0x00, 0x00, 0x00, 0x00, 0x00, 
0x00, 0x00, 0x00, 0x00, 0x00, 0x00, 0x00, 0x00, 0x00, 0x00, 0x00, 0x00, 0x00, 0x00, 0x00, 0x00, 0x00, 0x00, 
0x00, 0x00, 0x00, 0x00, 0x00, 0x00, 0x00, 0x00, 0x00, 0x00, 0x00, 0x00, 0x00, 0x00, 0x2e, 0xe5, 0x29, 0xd7, 
0x57, 0x22, 0x32, 0xb0, 0xdc, 0xf9, 0xee, 0xe1, 0x6b, 0x16, 0xef, 0x01, 0xc4, 0x55, 0x15, 0x04, 0x04, 0xee, 
0x10, 0xef, 0xf4, 0x52, 0x09, 0xf1, 0xfb, 0x0f, 0xc7, 0xf1, 0xb5, 0x56, 0x22, 0x29, 0xfa, 0xf2, 0xf7, 0x07, 
0x48, 0xed, 0x18, 0x10, 0x96, 0x10, 0x0a, 0x2d, 0x26, 0xdd, 0x13, 0xee, 0x1d, 0x2b, 0x34, 0xf8, 0x08, 0x34, 
0xcc, 0x13, 0x38, 0x0b, 0x17, 0x13, 0x1e, 0x1d, 0xdc, 0xea, 0xd9, 0x3a, 0x0e, 0x0a, 0xee, 0x7d, 0xb1, 0x1d, 
0xe2, 0x07, 0xdb, 0xf9, 0xc1, 0x08, 0xed, 0x28, 0x0d, 0x2a, 0xdd, 0x1f, 0x14, 0xf8, 0xec, 0x69, 0xf8, 0xe5, 
0xf5, 0x05, 0x40, 0xd2, 0x7f, 0xb8, 0x3e, 0x1e, 0x26, 0x12, 0xfb, 0x33, 0x01, 0xbe, 0x34, 0x1e, 0x2a, 0x4c, 
0xcc, 0xfc, 0x4e, 0xf7, 0xd4, 0x02, 0x51, 0x0b, 0xf0, 0x54, 0xde, 0x8b, 0xb8, 0x0c, 0x00, 0x05, 0xc8, 0x06, 
0x1a, 0x25, 0x26, 0x17, 0x24, 0x27, 0x01, 0xdd, 0xe6, 0xc8, 0xd0, 0xec, 0x0f, 0xf8, 0x08, 0x02, 0xf2, 0x0c, 
0xd9, 0x11, 0x5c, 0xee, 0xf5, 0xea, 0x1b, 0x30, 0x00, 0x37, 0x00, 0x11, 0xc0, 0xc3, 0xf1, 0x28, 0xe9, 0x4a, 
0x5c, 0xfd, 0xed, 0xf5, 0x10, 0x6a, 0x2a, 0xe0, 0xfa, 0xfc, 0xde, 0x02, 0xcd, 0xd1, 0xa0, 0x1a, 0x1f, 0x05, 
0xec, 0xe4, 0x1a, 0x56, 0xf0, 0x25, 0x00, 0x06, 0x1d, 0x06, 0x01, 0x1a, 0x08, 0xd1, 0x09, 0xee, 0x1f, 0x1b, 
0xec, 0xda, 0xeb, 0x43, 0x12, 0xf9, 0x20, 0xa9, 0x06, 0x21, 0x79, 0x43, 0x3d, 0xdf, 0x14, 0x39, 0x80, 0x41, 
0x30, 0xc6, 0xe4, 0x0a, 0x36, 0x16, 0x04, 0x2a, 0x03, 0xec, 0x0d, 0x05, 0x1b, 0xca, 0xf4, 0x16, 0xd4, 0x24, 
0x05, 0x11, 0xc4, 0x57, 0x08, 0x16, 0xfc, 0xe0, 0x13, 0xa9, 0x4c, 0x0f, 0xee, 0xe1, 0xc1, 0x09, 0xf1, 0xc7, 
0xb1, 0xe0, 0xdf, 0xfd, 0xe2, 0xf1, 0x29, 0xaa, 0x22, 0x27, 0x04, 0x3e, 0x4b, 0xef, 0xf2, 0x0b, 0x97, 0x4f, 
0xfd, 0xf4, 0xef, 0xe7, 0x2f, 0xed, 0x3e, 0x08, 0xe1, 0x39, 0xde, 0x08, 0x0d, 0xe2, 0x00, 0x00, 0x00, 0x00, 
0x00, 0x00, 0x00, 0x00, 0x00, 0x00, 0x00, 0x00, 0x00, 0x00, 0x00, 0x00, 0x00, 0x00, 0x00, 0x00, 0x00, 0x00, 
0x00, 0x00, 0x00, 0x00, 0x00, 0x00, 0x00, 0x00, 0x00, 0x00, 0x00, 0x00, 0x00, 0x00, 0x00, 0x00, 0x00, 0x00, 
0x00, 0x00, 0x00, 0x00, 0x00, 0x00, 0x00, 0x00, 0x00, 0x00, 0x00, 0x00, 0x00, 0x00, 0x00, 0x00, 0x00, 0x00, 
0x00, 0x00, 0x00, 0x00, 0x00, 0x00, 0x00, 0x00, 0x00, 0x00, 0x00, 0x00, 0x00, 0x00, 0x00, 0x00, 0x00, 0x00, 
0x00, 0x00, 0x00, 0x00, 0x00, 0x00, 0x00, 0x00, 0x00, 0x00, 0x00, 0x00, 0x00, 0x00, 0x00, 0x00, 0x00, 0x00, 
0x00, 0x00, 0x00, 0x00, 0x00, 0x00, 0x00, 0x00, 0x00, 0x00, 0x00, 0x00, 0x00, 0x00, 0x00, 0x00, 0x00, 0x00, 
0x00, 0x00, 0x00, 0x00, 0x00, 0x00, 0x00, 0x00, 0x00, 0x00, 0x00, 0x00, 0x00, 0x00, 0x00, 0x00, 0x00, 0x00, 
0x00, 0x00, 0x00, 0x00, 0x00, 0x00, 0x00, 0x00, 0x00, 0x00, 0x00, 0x00, 0x00, 0x00, 0x00, 0x00, 0x00, 0x00, 
0x00, 0x00, 0x00, 0x00, 0x00, 0x00, 0x00, 0x00, 0x00, 0x00, 0x00, 0x00, 0x00, 0x00, 0x00, 0x00, 0x00, 0x00, 
0x00, 0x00, 0x00, 0x00, 0x00, 0x00, 0x00, 0x00, 0x00, 0x00, 0x00, 0x00, 0x00, 0x00, 0x00, 0x00, 0x00, 0x00, 
0x00, 0x00, 0x00, 0x00, 0x00, 0x00, 0x00, 0x00, 0x00, 0x00, 0x00, 0x00, 0x00, 0x00, 0x00, 0x00, 0x00, 0x00, 
0x00, 0x00, 0x00, 0x00, 0x00, 0x00, 0x00, 0x00, 0x00, 0x00, 0x00, 0x00, 0x00, 0x00, 0x00, 0x00, 0x00, 0x00, 
0x00, 0x00, 0x00, 0x00, 0x00, 0x00, 0x00, 0x00, 0x00, 0x00, 0x00, 0x00, 0x00, 0x00, 0x00, 0x00, 0x00, 0x00, 
0x00, 0x00, 0x00, 0x00, 0x00, 0x00, 0x00, 0x00, 0x00, 0x00, 0x00, 0x00, 0x00, 0x00, 0x00, 0x00, 0x00, 0x00, 
0x00, 0x00, 0x00, 0x00, 0x00, 0x00, 0x00, 0x00, 0x00, 0x00, 0x00, 0x00, 0x00, 0x00, 0x00, 0x00, 0x00, 0x00, 
0x00, 0x00, 0x00, 0x00, 0x00, 0x00, 0x00, 0x00, 0x00, 0x00, 0x00, 0x00, 0x00, 0x00, 0x00, 0x00, 0x00, 0x00, 
0x00, 0x00, 0x00, 0x00, 0x00, 0x00, 0x00, 0x00, 0x00, 0x00, 0x00, 0x00, 0x00, 0x00, 0x00, 0x00, 0x00, 0x00, 
0x00, 0x00, 0x00, 0x00, 0x00, 0x00, 0x00, 0x00, 0x00, 0x00, 0x00, 0x00, 0x00, 0x00, 0x00, 0x00, 0x00, 0x00, 
0x00, 0x00, 0x00, 0x00, 0x00, 0x00, 0x00, 0x00, 0x00, 0x00, 0x00, 0x00, 0x00, 0x00, 0x00, 0x00, 0x00, 0x00, 
0x00, 0x00, 0x00, 0x00, 0x00, 0x00, 0x00, 0x00, 0x00, 0x00, 0x00, 0x00, 0x00, 0x00, 0x00, 0x00, 0x00, 0x00, 
0x00, 0x00, 0x00, 0x00, 0x00, 0x00, 0x00, 0x00, 0x00, 0x00, 0x00, 0x00, 0x00, 0x00, 0x00, 0x00, 0x00, 0x00, 
0x00, 0x00, 0x00, 0x00, 0x00, 0x00, 0x00, 0x00, 0x00, 0x00, 0x00, 0x00, 0x00, 0x00, 0x00, 0x00, 0x00, 0x00, 
0x00, 0x00, 0x00, 0x00, 0x00, 0x00, 0x00, 0x00, 0x00, 0x00, 0x00, 0x00, 0x00, 0x00, 0x00, 0x00, 0x00, 0x00, 
0x00, 0x00, 0x00, 0x00, 0x00, 0x00, 0x00, 0x00, 0x00, 0x00, 0x00, 0x00, 0x00, 0x00, 0x00, 0x00, 0x00, 0x00, 
0x00, 0x00, 0x00, 0x00, 0x00, 0x00, 0x00, 0x00, 0x00, 0x00, 0x00, 0x00, 0x00, 0x00, 0x00, 0x00, 0x00, 0x00, 
0x00, 0x00, 0x00, 0x00, 0x00, 0x00, 0x00, 0x00, 0x00, 0x00, 0x00, 0x00, 0x00, 0x00, 0x00, 0x00, 0x00, 0x00, 
0x00, 0x00, 0x00, 0x00, 0x00, 0x00, 0x00, 0x00, 0x00, 0x00, 0x00, 0x00, 0x00, 0x00, 0x00, 0x00, 0x00, 0x00, 
0x00, 0x00, 0x00, 0x00, 0x00, 0x00, 0x00, 0x00, 0x00, 0x00, 0x00, 0x00, 0x00, 0x00, 0x00, 0x00, 0x00, 0x00, 
0x00, 0x00, 0x00, 0x00, 0x00, 0x00, 0x00, 0x00, 0x00, 0x00, 0x00, 0x00, 0x00, 0x00, 0x00, 0x00, 0x00, 0x00, 
0x00, 0x00, 0x00, 0x00, 0x00, 0x00, 0x00, 0x00, 0x00, 0x00, 0x00, 0x00, 0x00, 0x00, 0x00, 0x00, 0x00, 0x00, 
0x00, 0x00, 0x00, 0x00, 0x00, 0x00, 0x00, 0x00, 0x00, 0x00, 0x00, 0x00, 0x00, 0x00, 0x00, 0x00, 0x00, 0x00, 
0x00, 0x00, 0x00, 0x00, 0x00, 0x00, 0x00, 0x00, 0x00, 0x00, 0x00, 0x00, 0x00, 0x00, 0x00, 0x00, 0x00, 0x00, 
0x00, 0x00, 0x00, 0x00, 0x00, 0x00, 0x00, 0x00, 0x00, 0x00, 0x00, 0x00, 0x00, 0x00, 0x00, 0x00, 0x00, 0x00, 
0x00, 0x00, 0x00, 0x00, 0x00, 0x00, 0x00, 0x00, 0x00, 0x00, 0x00, 0x00, 0x00, 0x00, 0x00, 0x00, 0x00, 0x00, 
0x00, 0x00, 0x00, 0x00, 0x00, 0x00, 0x00, 0x00, 0x00, 0x00, 0x00, 0x00, 0x00, 0x00, 0x00, 0x00, 0x00, 0x00, 
0x00, 0x00, 0x00, 0x00, 0x00, 0x00, 0x00, 0x00, 0x00, 0x00, 0x00, 0x00, 0x00, 0x00, 0x00, 0x00, 0x00, 0x00, 
0x00, 0x00, 0x00, 0x00, 0x00, 0x00, 0x00, 0x00, 0x00, 0x00, 0x00, 0x00, 0x00, 0x00, 0x00, 0x00, 0x00, 0x00, 
0x00, 0x00, 0x00, 0x00, 0x00, 0x00, 0x00, 0x00, 0x00, 0x00, 0x00, 0x00, 0x00, 0x00, 0x00, 0x00, 0x00, 0x00, 
0x00, 0x00, 0x00, 0x00, 0x00, 0x00, 0x00, 0x00, 0x00, 0x00, 0x00, 0x00, 0x00, 0x00, 0x00, 0x00, 0x00, 0x00, 
0x00, 0x00, 0x00, 0x00, 0x00, 0x00, 0x00, 0x00, 0x00, 0x00, 0x00, 0x00, 0x00, 0x00, 0x0a, 0xd6, 0x47, 0x9d, 
0xbe, 0xd0, 0xd8, 0xe9, 0x0c, 0xf7, 0xc1, 0x1a, 0x9e, 0x04, 0x32, 0x9c, 0x05, 0x00, 0xb0, 0xb1, 0xef, 0xc7, 
0xfa, 0x33, 0x3c, 0xd7, 0xdc, 0x20, 0x2d, 0xd4, 0xeb, 0xd0, 0x01, 0xaf, 0x0b, 0xed, 0xd1, 0xb6, 0xe2, 0x24, 
0x2d, 0xab, 0xf2, 0x6f, 0xd3, 0xf3, 0x00, 0x9d, 0xc0, 0x2e, 0x0c, 0xb7, 0xec, 0x09, 0x06, 0xfc, 0xf9, 0x29, 
0x0f, 0xe2, 0xce, 0xf2, 0x25, 0xd4, 0xbe, 0x62, 0xbc, 0xc2, 0xe4, 0x59, 0x0a, 0x37, 0x3b, 0xf6, 0xe1, 0xb8, 
0x0e, 0x09, 0x1b, 0x06, 0x88, 0x36, 0x1c, 0xff, 0xd7, 0x21, 0xf5, 0x13, 0x39, 0xfb, 0x0a, 0x22, 0xb3, 0xf9, 
0xcf, 0xd6, 0xf9, 0xd3, 0xff, 0xf5, 0xde, 0x1d, 0xf9, 0x33, 0xea, 0xb1, 0xd7, 0x27, 0x2b, 0x1f, 0x17, 0xe7, 
0x3f, 0x19, 0x88, 0x25, 0x0d, 0xc1, 0xf6, 0x6e, 0x2a, 0xd1, 0xfe, 0xfe, 0x38, 0x18, 0x22, 0x02, 0x37, 0xdc, 
0x81, 0x1e, 0x03, 0xd6, 0xf4, 0x61, 0x1c, 0xb1, 0x1c, 0x23, 0xf0, 0x28, 0xed, 0xcb, 0x3c, 0xd6, 0xdf, 0xe7, 
0xe6, 0x0d, 0xfc, 0xd1, 0xf3, 0xdb, 0xe8, 0x2e, 0x4f, 0x0b, 0x07, 0x1a, 0x09, 0x80, 0xf8, 0xf4, 0xde, 0xea, 
0xf6, 0xb9, 0x0b, 0xe8, 0x35, 0x36, 0x13, 0x0e, 0x0e, 0xd2, 0x22, 0xc0, 0xfe, 0xeb, 0xdf, 0x08, 0x18, 0xbb, 
0xef, 0xf9, 0xf2, 0x45, 0x32, 0xee, 0x0b, 0x0d, 0xce, 0x63, 0x42, 0xe9, 0xe3, 0xde, 0xf8, 0x0b, 0x1a, 0x16, 
0xf9, 0xe1, 0x0a, 0xf7, 0x1d, 0x1e, 0xd9, 0x65, 0x2b, 0xdd, 0xff, 0x6b, 0x0b, 0xe7, 0x3a, 0xfc, 0xb0, 0xd1, 
0xd1, 0x0b, 0x15, 0x17, 0xd5, 0x7e, 0x21, 0x16, 0xde, 0xd5, 0x06, 0xec, 0x1f, 0x14, 0x0b, 0xe1, 0xff, 0xfb, 
0x16, 0x22, 0xfc, 0xfe, 0xd3, 0x03, 0x25, 0xdb, 0xe2, 0x1d, 0x14, 0xec, 0x0f, 0xdd, 0x53, 0x11, 0x19, 0xee, 
0x0b, 0x00, 0x06, 0xfb, 0x10, 0xdf, 0x09, 0x06, 0x16, 0x12, 0x54, 0xd9, 0xfb, 0x4c, 0xf1, 0x17, 0x07, 0xd8, 
0xfc, 0x03, 0x26, 0xcd, 0xee, 0xe4, 0x0a, 0x36, 0x19, 0xdc, 0x4c, 0x12, 0xd8, 0xec, 0x00, 0x00, 0x00, 0x00, 
0x00, 0x00, 0x00, 0x00, 0x00, 0x00, 0x00, 0x00, 0x00, 0x00, 0x00, 0x00, 0x00, 0x00, 0x00, 0x00, 0x00, 0x00, 
0x00, 0x00, 0x00, 0x00, 0x00, 0x00, 0x00, 0x00, 0x00, 0x00, 0x00, 0x00, 0x00, 0x00, 0x00, 0x00, 0x00, 0x00, 
0x00, 0x00, 0x00, 0x00, 0x00, 0x00, 0x00, 0x00, 0x00, 0x00, 0x00, 0x00, 0x00, 0x00, 0x00, 0x00, 0x00, 0x00, 
0x00, 0x00, 0x00, 0x00, 0x00, 0x00, 0x00, 0x00, 0x00, 0x00, 0x00, 0x00, 0x00, 0x00, 0x00, 0x00, 0x00, 0x00, 
0x00, 0x00, 0x00, 0x00, 0x00, 0x00, 0x00, 0x00, 0x00, 0x00, 0x00, 0x00, 0x00, 0x00, 0x00, 0x00, 0x00, 0x00, 
0x00, 0x00, 0x00, 0x00, 0x00, 0x00, 0x00, 0x00, 0x00, 0x00, 0x00, 0x00, 0x00, 0x00, 0x00, 0x00, 0x00, 0x00, 
0x00, 0x00, 0x00, 0x00, 0x00, 0x00, 0x00, 0x00, 0x00, 0x00, 0x00, 0x00, 0x00, 0x00, 0x00, 0x00, 0x00, 0x00, 
0x00, 0x00, 0x00, 0x00, 0x00, 0x00, 0x00, 0x00, 0x00, 0x00, 0x00, 0x00, 0x00, 0x00, 0x32, 0x09, 0x23, 0xf2, 
0x0a, 0x0c, 0x2c, 0x10, 0xee, 0xf0, 0xfc, 0x0f, 0xc4, 0x21, 0xd6, 0xc0, 0x30, 0x24, 0xda, 0xec, 0xf9, 0x04, 
0x58, 0x2a, 0xf6, 0xdc, 0xff, 0xfd, 0xef, 0xdf, 0xda, 0xd2, 0xff, 0x29, 0xfb, 0x0a, 0xfc, 0x19, 0x37, 0x24, 
0xe2, 0xde, 0xfc, 0xec, 0x86, 0x39, 0xdb, 0xf7, 0xf8, 0xe4, 0xfb, 0x13, 0xff, 0x40, 0x00, 0x20, 0xff, 0x12, 
0xe0, 0xee, 0x21, 0x04, 0x2c, 0xfa, 0x50, 0xd0, 0x00, 0x03, 0xbf, 0x58, 0x19, 0x0b, 0xec, 0x05, 0xf3, 0xed, 
0x11, 0xe6, 0x0c, 0x3e, 0x02, 0xd3, 0x2e, 0x09, 0x05, 0x35, 0x14, 0xf3, 0xf6, 0xf2, 0xee, 0xef, 0x12, 0xff, 
0x19, 0x36, 0x10, 0x3a, 0x1b, 0xf7, 0x28, 0xd7, 0x1a, 0x3d, 0x18, 0x0b, 0x03, 0xf3, 0x2b, 0x89, 0xf9, 0xd0, 
0xf7, 0x2d, 0x34, 0xfa, 0xe3, 0xfa, 0x29, 0xfe, 0x06, 0x3d, 0xdc, 0x00, 0xc9, 0xe4, 0x2b, 0x1d, 0xd4, 0x2c, 
0x28, 0xf2, 0x0f, 0xec, 0x2b, 0xd2, 0x0b, 0x3f, 0xe3, 0xd9, 0x1c, 0x80, 0x16, 0xd8, 0xe9, 0xf9, 0x17, 0x05, 
0x16, 0xe9, 0xe9, 0xdc, 0x02, 0x1d, 0xf9, 0xc2, 0x4a, 0x10, 0x17, 0x0f, 0xd9, 0x01, 0x1d, 0xfa, 0x16, 0x0f, 
0xc2, 0xb9, 0x06, 0x16, 0xe1, 0xf4, 0x05, 0x2f, 0x17, 0x1a, 0xdc, 0xef, 0x1c, 0xf2, 0x17, 0xe5, 0xca, 0xc1, 
0x07, 0x07, 0xf1, 0xce, 0x32, 0x1b, 0x1d, 0x23, 0xf1, 0x04, 0xf9, 0xd7, 0xf4, 0x11, 0x05, 0x0c, 0x10, 0x21, 
0xe2, 0x05, 0x02, 0x17, 0xf3, 0xe3, 0x14, 0x01, 0xef, 0xce, 0x11, 0x44, 0x0d, 0xf7, 0x2a, 0x0b, 0xe3, 0x39, 
0x11, 0x32, 0x05, 0xe6, 0x06, 0x21, 0xe8, 0xe0, 0x08, 0x14, 0x04, 0x19, 0x0c, 0xfd, 0xd2, 0x3c, 0xdf, 0x18, 
0x0d, 0xe5, 0xef, 0x14, 0x10, 0x22, 0xf0, 0xfb, 0x1c, 0xec, 0xec, 0x1f, 0xf8, 0xf0, 0xbe, 0x58, 0xea, 0xfd, 
0x00, 0xe2, 0xf6, 0x14, 0x04, 0xf7, 0x24, 0x03, 0xf2, 0xfe, 0xfb, 0x0d, 0x1e, 0x0e, 0xe4, 0x1e, 0xd3, 0x08, 
0x2f, 0x32, 0xf1, 0xff, 0x33, 0x34, 0xec, 0xdc, 0xed, 0x06, 0x80, 0x4e, 0xeb, 0x03, 0x00, 0x00, 0x00, 0x00, 
0x00, 0x00, 0x00, 0x00, 0x00, 0x00, 0x00, 0x00, 0x00, 0x00, 0x00, 0x00, 0x00, 0x00, 0x00, 0x00, 0x00, 0x00, 
0x00, 0x00, 0x00, 0x00, 0x00, 0x00, 0x00, 0x00, 0x00, 0x00, 0x00, 0x00, 0x00, 0x00, 0x00, 0x00, 0x00, 0x00, 
0x00, 0x00, 0x00, 0x00, 0x00, 0x00, 0x00, 0x00, 0x00, 0x00, 0x00, 0x00, 0x00, 0x00, 0x00, 0x00, 0x00, 0x00, 
0x00, 0x00, 0x00, 0x00, 0x00, 0x00, 0x00, 0x00, 0x00, 0x00, 0x00, 0x00, 0x00, 0x00, 0x00, 0x00, 0x00, 0x00, 
0x00, 0x00, 0x00, 0x00, 0x00, 0x00, 0x00, 0x00, 0x00, 0x00, 0x00, 0x00, 0x00, 0x00, 0x00, 0x00, 0x00, 0x00, 
0x00, 0x00, 0x00, 0x00, 0x00, 0x00, 0x00, 0x00, 0x00, 0x00, 0x00, 0x00, 0x00, 0x00, 0x00, 0x00, 0x00, 0x00, 
0x00, 0x00, 0x00, 0x00, 0x00, 0x00, 0x00, 0x00, 0x00, 0x00, 0x00, 0x00, 0x00, 0x00, 0x00, 0x00, 0x00, 0x00, 
0x00, 0x00, 0x00, 0x00, 0x00, 0x00, 0x00, 0x00, 0x00, 0x00, 0x00, 0x00, 0x00, 0x00, 0x00, 0x00, 0x00, 0x00, 
0x00, 0x00, 0x00, 0x00, 0x00, 0x00, 0x00, 0x00, 0x00, 0x00, 0x00, 0x00, 0x00, 0x00, 0x00, 0x00, 0x00, 0x00, 
0x00, 0x00, 0x00, 0x00, 0x00, 0x00, 0x00, 0x00, 0x00, 0x00, 0x00, 0x00, 0x00, 0x00, 0x00, 0x00, 0x00, 0x00, 
0x00, 0x00, 0x00, 0x00, 0x00, 0x00, 0x00, 0x00, 0x00, 0x00, 0x00, 0x00, 0x00, 0x00, 0x00, 0x00, 0x00, 0x00, 
0x00, 0x00, 0x00, 0x00, 0x00, 0x00, 0x00, 0x00, 0x00, 0x00, 0x00, 0x00, 0x00, 0x00, 0x00, 0x00, 0x00, 0x00, 
0x00, 0x00, 0x00, 0x00, 0x00, 0x00, 0x00, 0x00, 0x00, 0x00, 0x00, 0x00, 0x00, 0x00, 0x00, 0x00, 0x00, 0x00, 
0x00, 0x00, 0x00, 0x00, 0x00, 0x00, 0x00, 0x00, 0x00, 0x00, 0x00, 0x00, 0x00, 0x00, 0x00, 0x00, 0x00, 0x00, 
0x00, 0x00, 0x00, 0x00, 0x00, 0x00, 0x00, 0x00, 0x00, 0x00, 0x00, 0x00, 0x00, 0x00, 0x00, 0x00, 0x00, 0x00, 
0x00, 0x00, 0x00, 0x00, 0x00, 0x00, 0x00, 0x00, 0x00, 0x00, 0x00, 0x00, 0x00, 0x00, 0x00, 0x00, 0x00, 0x00, 
0x00, 0x00, 0x00, 0x00, 0x00, 0x00, 0x00, 0x00, 0x00, 0x00, 0x00, 0x00, 0x00, 0x00, 0x00, 0x00, 0x00, 0x00, 
0x00, 0x00, 0x00, 0x00, 0x00, 0x00, 0x00, 0x00, 0x00, 0x00, 0x00, 0x00, 0x00, 0x00, 0x00, 0x00, 0x00, 0x00, 
0x00, 0x00, 0x00, 0x00, 0x00, 0x00, 0x00, 0x00, 0x00, 0x00, 0x00, 0x00, 0x00, 0x00, 0x00, 0x00, 0x00, 0x00, 
0x00, 0x00, 0x00, 0x00, 0x00, 0x00, 0x00, 0x00, 0x00, 0x00, 0x00, 0x00, 0x00, 0x00, 0x00, 0x00, 0x00, 0x00, 
0x00, 0x00, 0x00, 0x00, 0x00, 0x00, 0x00, 0x00, 0x00, 0x00, 0x00, 0x00, 0x00, 0x00, 0x00, 0x00, 0x00, 0x00, 
0x00, 0x00, 0x00, 0x00, 0x00, 0x00, 0x00, 0x00, 0x00, 0x00, 0x00, 0x00, 0x00, 0x00, 0x00, 0x00, 0x00, 0x00, 
0x00, 0x00, 0x00, 0x00, 0x00, 0x00, 0x00, 0x00, 0x00, 0x00, 0x00, 0x00, 0x00, 0x00, 0x00, 0x00, 0x00, 0x00, 
0x00, 0x00, 0x00, 0x00, 0x00, 0x00, 0x00, 0x00, 0x00, 0x00, 0x00, 0x00, 0x00, 0x00, 0x00, 0x00, 0x00, 0x00, 
0x00, 0x00, 0x00, 0x00, 0x00, 0x00, 0x00, 0x00, 0x00, 0x00, 0x00, 0x00, 0x00, 0x00, 0x00, 0x00, 0x00, 0x00, 
0x00, 0x00, 0x00, 0x00, 0x00, 0x00, 0x00, 0x00, 0x00, 0x00, 0x00, 0x00, 0x00, 0x00, 0x00, 0x00, 0x00, 0x00, 
0x00, 0x00, 0x00, 0x00, 0x00, 0x00, 0x00, 0x00, 0x00, 0x00, 0x00, 0x00, 0x00, 0x00, 0x00, 0x00, 0x00, 0x00, 
0x00, 0x00, 0x00, 0x00, 0x00, 0x00, 0x00, 0x00, 0x00, 0x00, 0x00, 0x00, 0x00, 0x00, 0x00, 0x00, 0x00, 0x00, 
0x00, 0x00, 0x00, 0x00, 0x00, 0x00, 0x00, 0x00, 0x00, 0x00, 0x00, 0x00, 0x00, 0x00, 0x00, 0x00, 0x00, 0x00, 
0x00, 0x00, 0x00, 0x00, 0x00, 0x00, 0x00, 0x00, 0x00, 0x00, 0x00, 0x00, 0x00, 0x00, 0x00, 0x00, 0x00, 0x00, 
0x00, 0x00, 0x00, 0x00, 0x00, 0x00, 0x00, 0x00, 0x00, 0x00, 0x00, 0x00, 0x00, 0x00, 0x00, 0x00, 0x00, 0x00, 
0x00, 0x00, 0x00, 0x00, 0x00, 0x00, 0x00, 0x00, 0x00, 0x00, 0x00, 0x00, 0x00, 0x00, 0x02, 0xce, 0x20, 0xcc, 
0x1f, 0x03, 0xe3, 0xd6, 0xdc, 0x14, 0xfc, 0xdf, 0x44, 0xfb, 0xd7, 0xe7, 0x13, 0xf1, 0x1d, 0x08, 0xfd, 0xeb, 
0xee, 0xf3, 0x34, 0x00, 0xff, 0x2d, 0x1d, 0x0a, 0xd0, 0xdb, 0xeb, 0xcc, 0x1e, 0x23, 0xf8, 0x25, 0xf2, 0x05, 
0xfd, 0xf8, 0xd7, 0x4d, 0x80, 0x28, 0x0b, 0xe8, 0xf8, 0x35, 0x26, 0xe6, 0x12, 0xc7, 0xf7, 0xf0, 0xf3, 0x1b, 
0x0c, 0xf8, 0x0a, 0x15, 0x1b, 0xf6, 0xeb, 0x51, 0x27, 0x25, 0x43, 0x0c, 0x22, 0x03, 0x2b, 0x0d, 0xc2, 0x0a, 
0x1b, 0x10, 0x05, 0x2a, 0xbe, 0x2e, 0x21, 0x4d, 0x15, 0xe0, 0x28, 0x0c, 0xf5, 0xed, 0xf3, 0x0a, 0xa8, 0x18, 
0x01, 0xed, 0xfd, 0xf2, 0x22, 0xb8, 0x0d, 0x16, 0xd1, 0xe3, 0xfb, 0xe2, 0xe3, 0x0c, 0x16, 0x17, 0xc4, 0xd8, 
0x1a, 0x15, 0xe1, 0x01, 0x2c, 0x0b, 0xf7, 0xf3, 0x2d, 0x00, 0x0e, 0xfb, 0x2b, 0x08, 0xe9, 0x16, 0xf2, 0x1f, 
0x06, 0x2a, 0x11, 0x10, 0x1c, 0x38, 0x18, 0xe6, 0xf4, 0xc0, 0xd1, 0xe4, 0xfe, 0xc9, 0x4d, 0x21, 0xa3, 0x13, 
0xe4, 0x05, 0xfc, 0xc0, 0xbb, 0x93, 0x24, 0x47, 0xf8, 0xfd, 0xd1, 0x1e, 0x80, 0xab, 0x3b, 0x58, 0x83, 0xe0, 
0x47, 0x33, 0xd1, 0x33, 0x3e, 0xef, 0xfc, 0x0b, 0x3b, 0x50, 0x38, 0x0f, 0xa7, 0x1b, 0xc6, 0xff, 0xda, 0x14, 
0xa4, 0x03, 0x4b, 0x5f, 0xb9, 0x02, 0xce, 0x06, 0xbe, 0x05, 0x4e, 0xea, 0x11, 0xcd, 0xea, 0xff, 0x2d, 0xc3, 
0x18, 0xf4, 0xf2, 0xe9, 0x0e, 0xc6, 0xe7, 0x0e, 0x17, 0xf3, 0x42, 0x4b, 0xd7, 0xeb, 0x3f, 0xf1, 0x8b, 0xbd, 
0x10, 0xee, 0x27, 0x44, 0xec, 0x09, 0x28, 0xf2, 0x1a, 0xd1, 0xde, 0x1b, 0x27, 0x10, 0x06, 0xe7, 0xc8, 0xf5, 
0xfd, 0xe3, 0xea, 0x05, 0xec, 0x2c, 0xe5, 0xf1, 0x09, 0x40, 0xe2, 0x6f, 0x08, 0x01, 0xc3, 0xeb, 0x05, 0xac, 
0x5d, 0x40, 0x14, 0x60, 0xa3, 0x82, 0x20, 0xf3, 0xf8, 0x14, 0x5d, 0xf2, 0x21, 0x3a, 0x2b, 0x37, 0xc2, 0x08, 
0xea, 0x18, 0xd5, 0xf4, 0x0b, 0x2f, 0xe8, 0xb0, 0x01, 0xda, 0xd6, 0xfe, 0xd8, 0xd0, 0x00, 0x00, 0x00, 0x00, 
0x00, 0x00, 0x00, 0x00, 0x00, 0x00, 0x00, 0x00, 0x00, 0x00, 0x00, 0x00, 0x00, 0x00, 0x00, 0x00, 0x00, 0x00, 
0x00, 0x00, 0x00, 0x00, 0x00, 0x00, 0x00, 0x00, 0x00, 0x00, 0x00, 0x00, 0x00, 0x00, 0x00, 0x00, 0x00, 0x00, 
0x00, 0x00, 0x00, 0x00, 0x00, 0x00, 0x00, 0x00, 0x00, 0x00, 0x00, 0x00, 0x00, 0x00, 0x00, 0x00, 0x00, 0x00, 
0x00, 0x00, 0x00, 0x00, 0x00, 0x00, 0x00, 0x00, 0x00, 0x00, 0x00, 0x00, 0x00, 0x00, 0x00, 0x00, 0x00, 0x00, 
0x00, 0x00, 0x00, 0x00, 0x00, 0x00, 0x00, 0x00, 0x00, 0x00, 0x00, 0x00, 0x00, 0x00, 0x00, 0x00, 0x00, 0x00, 
0x00, 0x00, 0x00, 0x00, 0x00, 0x00, 0x00, 0x00, 0x00, 0x00, 0x00, 0x00, 0x00, 0x00, 0x00, 0x00, 0x00, 0x00, 
0x00, 0x00, 0x00, 0x00, 0x00, 0x00, 0x00, 0x00, 0x00, 0x00, 0x00, 0x00, 0x00, 0x00, 0x00, 0x00, 0x00, 0x00, 
0x00, 0x00, 0x00, 0x00, 0x00, 0x00, 0x00, 0x00, 0x00, 0x00, 0x00, 0x00, 0x00, 0x00, 0x00, 0x00, 0x00, 0x00, 
0x00, 0x00, 0x00, 0x00, 0x00, 0x00, 0x00, 0x00, 0x00, 0x00, 0x00, 0x00, 0x00, 0x00, 0x00, 0x00, 0x00, 0x00, 
0x00, 0x00, 0x00, 0x00, 0x00, 0x00, 0x00, 0x00, 0x00, 0x00, 0x00, 0x00, 0x00, 0x00, 0x00, 0x00, 0x00, 0x00, 
0x00, 0x00, 0x00, 0x00, 0x00, 0x00, 0x00, 0x00, 0x00, 0x00, 0x00, 0x00, 0x00, 0x00, 0x00, 0x00, 0x00, 0x00, 
0x00, 0x00, 0x00, 0x00, 0x00, 0x00, 0x00, 0x00, 0x00, 0x00, 0x00, 0x00, 0x00, 0x00, 0x00, 0x00, 0x00, 0x00, 
0x00, 0x00, 0x00, 0x00, 0x00, 0x00, 0x00, 0x00, 0x00, 0x00, 0x00, 0x00, 0x00, 0x00, 0x00, 0x00, 0x00, 0x00, 
0x00, 0x00, 0x00, 0x00, 0x00, 0x00, 0x00, 0x00, 0x00, 0x00, 0x00, 0x00, 0x00, 0x00, 0x00, 0x00, 0x00, 0x00, 
0x00, 0x00, 0x00, 0x00, 0x00, 0x00, 0x00, 0x00, 0x00, 0x00, 0x00, 0x00, 0x00, 0x00, 0x00, 0x00, 0x00, 0x00, 
0x00, 0x00, 0x00, 0x00, 0x00, 0x00, 0x00, 0x00, 0x00, 0x00, 0x00, 0x00, 0x00, 0x00, 0x26, 0x21, 0xfc, 0x25, 
0xec, 0x01, 0x24, 0x25, 0xe5, 0xff, 0x1d, 0x34, 0xb1, 0xf7, 0xf0, 0x03, 0xfd, 0x0e, 0x33, 0x3d, 0xf7, 0xfc, 
0x0e, 0x60, 0xcf, 0x14, 0xe9, 0xe5, 0xf5, 0xcf, 0x1d, 0xf5, 0x05, 0x2c, 0xe2, 0x46, 0xf9, 0x0f, 0x0d, 0x5b, 
0xde, 0xd9, 0x11, 0x3e, 0xc8, 0xf8, 0xd5, 0x0e, 0x18, 0xbd, 0xdd, 0x15, 0xf0, 0xeb, 0xf5, 0xf4, 0x00, 0xc0, 
0x1a, 0x1a, 0xe5, 0xdc, 0xf3, 0x24, 0xe5, 0xe6, 0xf9, 0x12, 0xdc, 0xa8, 0xea, 0x00, 0x19, 0x18, 0x7f, 0xd5, 
0x0e, 0xb3, 0xfc, 0x1b, 0x33, 0xb8, 0xf3, 0x08, 0xea, 0xea, 0xe8, 0x20, 0x05, 0x23, 0x2a, 0xe9, 0xd9, 0xe2, 
0xd1, 0x27, 0x14, 0xce, 0xd7, 0x24, 0xf3, 0x09, 0xe3, 0xea, 0xe6, 0x05, 0x05, 0x07, 0xd9, 0x28, 0xfd, 0x0f, 
0x26, 0x23, 0x0a, 0x2a, 0xe9, 0xfe, 0xd3, 0xd7, 0xff, 0x0d, 0xf9, 0xd0, 0xe1, 0xf5, 0x0e, 0x00, 0x18, 0xcc, 
0xf7, 0x2a, 0xee, 0x04, 0xdc, 0xf2, 0xe5, 0xf9, 0x02, 0xf1, 0xc2, 0x2c, 0xde, 0x0d, 0x00, 0x00, 0x00, 0x00, 
0x00, 0x00, 0x00, 0x00, 0x00, 0x00, 0x00, 0x00, 0x00, 0x00, 0x00, 0x00, 0x00, 0x00, 0x00, 0x00, 0x00, 0x00, 
0x00, 0x00, 0x00, 0x00, 0x00, 0x00, 0x00, 0x00, 0x00, 0x00, 0x00, 0x00, 0x00, 0x00, 0x00, 0x00, 0x00, 0x00, 
0x00, 0x00, 0x00, 0x00, 0x00, 0x00, 0x00, 0x00, 0x00, 0x00, 0x00, 0x00, 0x00, 0x00, 0x00, 0x00, 0x00, 0x00, 
0x00, 0x00, 0x00, 0x00, 0x00, 0x00, 0x00, 0x00, 0x00, 0x00, 0x00, 0x00, 0x00, 0x00, 0x00, 0x00, 0x00, 0x00, 
0x00, 0x00, 0x00, 0x00, 0x00, 0x00, 0x00, 0x00, 0x00, 0x00, 0x00, 0x00, 0x00, 0x00, 0x00, 0x00, 0x00, 0x00, 
0x00, 0x00, 0x00, 0x00, 0x00, 0x00, 0x00, 0x00, 0x00, 0x00, 0x00, 0x00, 0x00, 0x00, 0x00, 0x00, 0x00, 0x00, 
0x00, 0x00, 0x00, 0x00, 0x00, 0x00, 0x00, 0x00, 0x00, 0x00, 0x00, 0x00, 0x00, 0x00, 0x00, 0x00, 0x00, 0x00, 
0x00, 0x00, 0x00, 0x00, 0x00, 0x00, 0x00, 0x00, 0x00, 0x00, 0x00, 0x00, 0x00, 0x00, 0xc3, 0x1f, 0x0b, 0xef, 
0x13, 0xea, 0xfd, 0xd3, 0x17, 0x1f, 0xf9, 0xe6, 0xe4, 0x35, 0xe9, 0xe5, 0xee, 0x30, 0xd9, 0xfb, 0x1a, 0xee, 
0xe7, 0xe4, 0x1e, 0x11, 0xd5, 0xf6, 0xf1, 0x40, 0xe9, 0x04, 0xe4, 0x1e, 0xec, 0xe0, 0x14, 0xe3, 0x00, 0xeb, 
0x0f, 0x02, 0x05, 0xdc, 0xfe, 0x33, 0x18, 0xf3, 0xe3, 0x0c, 0x0b, 0xf3, 0x16, 0xf2, 0x14, 0xf9, 0xff, 0x06, 
0xe5, 0x02, 0x04, 0x1e, 0xf4, 0xca, 0x08, 0xf9, 0xee, 0xf5, 0x1d, 0xf5, 0x00, 0x19, 0xf5, 0xe8, 0x80, 0x0c, 
0x14, 0xfc, 0xe8, 0xd5, 0xe6, 0x04, 0xfe, 0xee, 0x15, 0xf5, 0x15, 0x0b, 0xf5, 0xda, 0xd6, 0x0d, 0x26, 0x12, 
0x20, 0xde, 0xfd, 0xff, 0x14, 0xed, 0x1e, 0x03, 0x1c, 0xfe, 0x0f, 0x11, 0x05, 0x22, 0xf7, 0xd6, 0xed, 0xd4, 
0xf1, 0xdf, 0xec, 0xea, 0x27, 0x0a, 0x25, 0x2c, 0x09, 0x1a, 0xdc, 0x25, 0x17, 0xab, 0xf6, 0xcf, 0xfc, 0x06, 
0xf4, 0xee, 0x1e, 0x07, 0x17, 0x1a, 0x03, 0x0d, 0xf9, 0x23, 0x19, 0xce, 0x12, 0xec, 0x00, 0x00, 0x00, 0x00, 
0x00, 0x00, 0x00, 0x00, 0x00, 0x00, 0x00, 0x00, 0x00, 0x00, 0x00, 0x00, 0x00, 0x00, 0x00, 0x00, 0x00, 0x00, 
0x00, 0x00, 0x00, 0x00, 0x00, 0x00, 0x00, 0x00, 0x00, 0x00, 0x00, 0x00, 0x00, 0x00, 0x00, 0x00, 0x00, 0x00, 
0x00, 0x00, 0x00, 0x00, 0x00, 0x00, 0x00, 0x00, 0x00, 0x00, 0x00, 0x00, 0x00, 0x00, 0x00, 0x00, 0x00, 0x00, 
0x00, 0x00, 0x00, 0x00, 0x00, 0x00, 0x00, 0x00, 0x00, 0x00, 0x00, 0x00, 0x00, 0x00, 0x00, 0x00, 0x00, 0x00, 
0x00, 0x00, 0x00, 0x00, 0x00, 0x00, 0x00, 0x00, 0x00, 0x00, 0x00, 0x00, 0x00, 0x00, 0x00, 0x00, 0x00, 0x00, 
0x00, 0x00, 0x00, 0x00, 0x00, 0x00, 0x00, 0x00, 0x00, 0x00, 0x00, 0x00, 0x00, 0x00, 0x00, 0x00, 0x00, 0x00, 
0x00, 0x00, 0x00, 0x00, 0x00, 0x00, 0x00, 0x00, 0x00, 0x00, 0x00, 0x00, 0x00, 0x00, 0x00, 0x00, 0x00, 0x00, 
0x00, 0x00, 0x00, 0x00, 0x00, 0x00, 0x00, 0x00, 0x00, 0x00, 0x00, 0x00, 0x00, 0x00, 0x00, 0x00, 0x00, 0x00, 
0x00, 0x00, 0x00, 0x00, 0x00, 0x00, 0x00, 0x00, 0x00, 0x00, 0x00, 0x00, 0x00, 0x00, 0x00, 0x00, 0x00, 0x00, 
0x00, 0x00, 0x00, 0x00, 0x00, 0x00, 0x00, 0x00, 0x00, 0x00, 0x00, 0x00, 0x00, 0x00, 0x00, 0x00, 0x00, 0x00, 
0x00, 0x00, 0x00, 0x00, 0x00, 0x00, 0x00, 0x00, 0x00, 0x00, 0x00, 0x00, 0x00, 0x00, 0x00, 0x00, 0x00, 0x00, 
0x00, 0x00, 0x00, 0x00, 0x00, 0x00, 0x00, 0x00, 0x00, 0x00, 0x00, 0x00, 0x00, 0x00, 0x00, 0x00, 0x00, 0x00, 
0x00, 0x00, 0x00, 0x00, 0x00, 0x00, 0x00, 0x00, 0x00, 0x00, 0x00, 0x00, 0x00, 0x00, 0x00, 0x00, 0x00, 0x00, 
0x00, 0x00, 0x00, 0x00, 0x00, 0x00, 0x00, 0x00, 0x00, 0x00, 0x00, 0x00, 0x00, 0x00, 0x00, 0x00, 0x00, 0x00, 
0x00, 0x00, 0x00, 0x00, 0x00, 0x00, 0x00, 0x00, 0x00, 0x00, 0x00, 0x00, 0x00, 0x00, 0x00, 0x00, 0x00, 0x00, 
0x00, 0x00, 0x00, 0x00, 0x00, 0x00, 0x00, 0x00, 0x00, 0x00, 0x00, 0x00, 0x00, 0x00, 0xf0, 0x04, 0xbd, 0x44, 
0xe6, 0x1c, 0xfe, 0xf2, 0xea, 0x11, 0x11, 0xf9, 0xbb, 0x1c, 0x1d, 0xc4, 0xee, 0x43, 0xce, 0x0d, 0x08, 0xee, 
0x01, 0xf0, 0xf3, 0xf9, 0xf9, 0x0d, 0x16, 0xff, 0x33, 0xe5, 0xf4, 0x06, 0x9c, 0x04, 0x30, 0x04, 0xf1, 0xe4, 
0xdb, 0x03, 0x06, 0xc9, 0x2c, 0xf8, 0x27, 0x81, 0xf0, 0xf0, 0xda, 0x26, 0x18, 0x0a, 0x05, 0xf5, 0x0a, 0x26, 
0xfd, 0x02, 0xe1, 0xf2, 0x2b, 0xfa, 0x00, 0x26, 0x29, 0xfd, 0x29, 0xd4, 0xf3, 0x01, 0x15, 0x10, 0xea, 0x14, 
0x14, 0xeb, 0x15, 0x2a, 0x0b, 0x12, 0x07, 0xf0, 0x0b, 0xec, 0xee, 0xfc, 0x07, 0x1a, 0xed, 0x04, 0x30, 0xf2, 
0xf8, 0xef, 0xf0, 0x15, 0x08, 0x0f, 0xef, 0xf9, 0x2b, 0x06, 0x03, 0xd2, 0x0e, 0xc0, 0xe2, 0xf0, 0x1c, 0xff, 
0xfe, 0x1d, 0x23, 0xc7, 0x0e, 0x11, 0x17, 0xf9, 0x0d, 0x03, 0x06, 0xf4, 0x0b, 0x09, 0x19, 0x0a, 0x1e, 0xfa, 
0xf6, 0xa4, 0xff, 0xf8, 0x02, 0xfb, 0x0b, 0x23, 0x01, 0xe7, 0x1e, 0xf8, 0x30, 0xed, 0x00, 0x00, 0x00, 0x00, 
0x00, 0x00, 0x00, 0x00, 0x00, 0x00, 0x00, 0x00, 0x00, 0x00, 0x00, 0x00, 0x00, 0x00, 0x00, 0x00, 0x00, 0x00, 
0x00, 0x00, 0x00, 0x00, 0x00, 0x00, 0x00, 0x00, 0x00, 0x00, 0x00, 0x00, 0x00, 0x00, 0x00, 0x00, 0x00, 0x00, 
0x00, 0x00, 0x00, 0x00, 0x00, 0x00, 0x00, 0x00, 0x00, 0x00, 0x00, 0x00, 0x00, 0x00, 0x00, 0x00, 0x00, 0x00, 
0x00, 0x00, 0x00, 0x00, 0x00, 0x00, 0x00, 0x00, 0x00, 0x00, 0x00, 0x00, 0x00, 0x00, 0x00, 0x00, 0x00, 0x00, 
0x00, 0x00, 0x00, 0x00, 0x00, 0x00, 0x00, 0x00, 0x00, 0x00, 0x00, 0x00, 0x00, 0x00, 0x00, 0x00, 0x00, 0x00, 
0x00, 0x00, 0x00, 0x00, 0x00, 0x00, 0x00, 0x00, 0x00, 0x00, 0x00, 0x00, 0x00, 0x00, 0x00, 0x00, 0x00, 0x00, 
0x00, 0x00, 0x00, 0x00, 0x00, 0x00, 0x00, 0x00, 0x00, 0x00, 0x00, 0x00, 0x00, 0x00, 0x00, 0x00, 0x00, 0x00, 
0x00, 0x00, 0x00, 0x00, 0x00, 0x00, 0x00, 0x00, 0x00, 0x00, 0x00, 0x00, 0x00, 0x00, 0xe2, 0x02, 0x08, 0xfa, 
0xf2, 0xd6, 0xd1, 0x1a, 0x18, 0xdc, 0x0e, 0xee, 0x5b, 0xe9, 0x63, 0x31, 0xe6, 0xb3, 0x5b, 0x15, 0xb8, 0xff, 
0xe7, 0xe5, 0x1e, 0x31, 0xe8, 0x0c, 0x2e, 0x33, 0x23, 0x7f, 0xf8, 0xd4, 0x3c, 0x17, 0xdb, 0xd2, 0xd8, 0xc7, 
0x27, 0x55, 0x14, 0xe0, 0x4c, 0xfa, 0xfa, 0x19, 0xeb, 0x2b, 0x0c, 0xe6, 0x11, 0xee, 0xe3, 0x03, 0xeb, 0xfb, 
0xf3, 0xe2, 0xf5, 0xdb, 0xb6, 0xa8, 0x0a, 0x2d, 0x94, 0xf2, 0x54, 0x4b, 0xc5, 0xb1, 0xe1, 0xbe, 0xe9, 0x0e, 
0xf6, 0x0e, 0xcd, 0xc2, 0xdc, 0x43, 0xc6, 0xf5, 0x26, 0xfb, 0xea, 0xca, 0xe4, 0xe5, 0xf7, 0xce, 0xfc, 0xdf, 
0x0f, 0x97, 0x06, 0xf5, 0x18, 0x09, 0xd1, 0xd8, 0x28, 0x1b, 0x27, 0x27, 0x00, 0x00, 0x38, 0xa4, 0x2d, 0xde, 
0x11, 0x2f, 0x14, 0xf9, 0xeb, 0xfe, 0x30, 0x1a, 0x11, 0x09, 0xed, 0xe4, 0xdd, 0xdb, 0x2c, 0x42, 0xf0, 0xfc, 
0x36, 0xfe, 0xd0, 0xda, 0x19, 0x05, 0x18, 0xfc, 0xfa, 0xfa, 0x39, 0xa0, 0x22, 0xda, 0x00, 0x00, 0x00, 0x00, 
0x00, 0x00, 0x00, 0x00, 0x00, 0x00, 0x00, 0x00, 0x00, 0x00, 0x00, 0x00, 0x00, 0x00, 0x00, 0x00, 0x00, 0x00, 
0x00, 0x00, 0x00, 0x00, 0x00, 0x00, 0x00, 0x00, 0x00, 0x00, 0x00, 0x00, 0x00, 0x00, 0x00, 0x00, 0x00, 0x00, 
0x00, 0x00, 0x00, 0x00, 0x00, 0x00, 0x00, 0x00, 0x00, 0x00, 0x00, 0x00, 0x00, 0x00, 0x00, 0x00, 0x00, 0x00, 
0x00, 0x00, 0x00, 0x00, 0x00, 0x00, 0x00, 0x00, 0x00, 0x00, 0x00, 0x00, 0x00, 0x00, 0x00, 0x00, 0x00, 0x00, 
0x00, 0x00, 0x00, 0x00, 0x00, 0x00, 0x00, 0x00, 0x00, 0x00, 0x00, 0x00, 0x00, 0x00, 0x00, 0x00, 0x00, 0x00, 
0x00, 0x00, 0x00, 0x00, 0x00, 0x00, 0x00, 0x00, 0x00, 0x00, 0x00, 0x00, 0x00, 0x00, 0x00, 0x00, 0x00, 0x00, 
0x00, 0x00, 0x00, 0x00, 0x00, 0x00, 0x00, 0x00, 0x00, 0x00, 0x00, 0x00, 0x00, 0x00, 0x00, 0x00, 0x00, 0x00, 
0x00, 0x00, 0x00, 0x00, 0x00, 0x00, 0x00, 0x00, 0x00, 0x00, 0x00, 0x00, 0x00, 0x00, 0xca, 0x31, 0x14, 0xf9, 
0x21, 0xea, 0xfb, 0xd6, 0x0e, 0x15, 0xd9, 0xf4, 0xf2, 0x39, 0xe6, 0xcb, 0xe0, 0x38, 0xd8, 0x03, 0x2c, 0xf7, 
0xdb, 0xda, 0x16, 0x26, 0x9e, 0xff, 0xf1, 0x42, 0xe5, 0xd3, 0xd7, 0x29, 0xf6, 0xf2, 0x20, 0xe6, 0xfd, 0xdb, 
0x0d, 0x26, 0xd7, 0xe5, 0xfc, 0x3a, 0x20, 0xd0, 0xea, 0x13, 0x16, 0xe9, 0x21, 0xf2, 0x0c, 0xee, 0x06, 0xf7, 
0xd0, 0x10, 0x10, 0x0e, 0xe4, 0xaa, 0xfb, 0x05, 0xde, 0xec, 0x36, 0xec, 0xf7, 0xfd, 0xfc, 0x04, 0x80, 0x14, 
0x10, 0xfd, 0xe0, 0xa3, 0xee, 0x0c, 0xf0, 0xe0, 0x24, 0xed, 0x13, 0xf5, 0xf7, 0x08, 0xc2, 0x0f, 0x16, 0x05, 
0x21, 0xb1, 0x0f, 0x00, 0x1a, 0xd5, 0x27, 0x00, 0x14, 0xf9, 0x0f, 0xfc, 0xe0, 0x29, 0x11, 0xac, 0xda, 0xa5, 
0x02, 0xed, 0xdc, 0xd4, 0x3c, 0x0a, 0x16, 0x1a, 0x12, 0x29, 0xa8, 0x2c, 0x1d, 0x86, 0xea, 0x96, 0x05, 0x03, 
0xe1, 0xd4, 0x29, 0x02, 0x15, 0x0c, 0x10, 0x2f, 0xd8, 0x29, 0x1c, 0xa3, 0x1a, 0xb9, 0x0e, 0xfa, 0x16, 0x0e, 
0xfe, 0xf1, 0xe1, 0xd4, 0x1a, 0x1d, 0xe5, 0xa2, 0x36, 0x19, 0x17, 0xe8, 0x2c, 0x09, 0xf8, 0x02, 0xfa, 0xea, 
0xdf, 0x81, 0x1a, 0xf4, 0xe7, 0xfa, 0xf9, 0x07, 0x02, 0x0d, 0x13, 0xef, 0x09, 0x20, 0x09, 0x03, 0xf1, 0x99, 
0x17, 0x03, 0xda, 0x99, 0x45, 0x1c, 0x12, 0xeb, 0xd5, 0x04, 0x03, 0xfc, 0x12, 0x0a, 0xf9, 0x2c, 0x05, 0x1e, 
0xf8, 0x23, 0x01, 0xfa, 0x17, 0xfb, 0xdc, 0x1a, 0x18, 0xee, 0x06, 0xf6, 0x09, 0x0a, 0x03, 0xea, 0x11, 0x51, 
0x09, 0xfd, 0x06, 0x1e, 0xe9, 0x06, 0x06, 0x0b, 0x1d, 0x0a, 0x0a, 0x07, 0x09, 0x03, 0xfe, 0x2a, 0x10, 0x06, 
0xfa, 0xec, 0xe0, 0x0f, 0xe6, 0xdf, 0xf6, 0x04, 0xfd, 0x36, 0x15, 0xfc, 0x05, 0x06, 0xbd, 0x0b, 0xf5, 0xe5, 
0xfa, 0x21, 0xe3, 0xba, 0xe8, 0xf8, 0xff, 0x23, 0x13, 0xef, 0xf2, 0x22, 0xe2, 0x0b, 0xe2, 0x1d, 0xfd, 0xf3, 
0x03, 0xf3, 0xef, 0x05, 0x09, 0x1e, 0x14, 0xdf, 0x05, 0xef, 0x95, 0x17, 0xf5, 0xf5, 0xad, 0xef, 0x42, 0xe0, 
0x0f, 0xd2, 0x04, 0x02, 0x21, 0x59, 0xf7, 0xb3, 0xfa, 0x05, 0x0b, 0xe5, 0x21, 0x3a, 0xdb, 0x0f, 0x34, 0xe9, 
0xde, 0xd0, 0x3b, 0x06, 0xe3, 0x1a, 0x01, 0x3b, 0xe0, 0x16, 0xcf, 0xfd, 0x17, 0xb5, 0x0b, 0xd4, 0x06, 0xd4, 
0x26, 0x17, 0xf0, 0xac, 0x06, 0x1a, 0x3d, 0xef, 0xe1, 0x11, 0xf6, 0xf7, 0x02, 0xf4, 0x0e, 0x12, 0xf8, 0x1b, 
0xe2, 0xe9, 0x16, 0x3c, 0x0d, 0xe8, 0x30, 0xf6, 0xe5, 0x01, 0x20, 0xef, 0x09, 0x13, 0xc3, 0xc0, 0x88, 0x32, 
0x14, 0xe7, 0xd3, 0xd3, 0xd8, 0x05, 0x19, 0x05, 0x08, 0x07, 0x12, 0xeb, 0xed, 0xab, 0xc8, 0x24, 0x22, 0x3e, 
0x35, 0xeb, 0x1b, 0x0e, 0x33, 0xe8, 0x0c, 0xf3, 0x1f, 0x02, 0x04, 0xef, 0x20, 0x0f, 0xe7, 0xf9, 0xef, 0x24, 
0x9a, 0xb3, 0xea, 0xc0, 0x1f, 0x1f, 0x4f, 0x41, 0xfe, 0x14, 0xe2, 0x29, 0x20, 0x80, 0x02, 0xd6, 0xf7, 0x1c, 
0xf7, 0xef, 0x10, 0x04, 0x26, 0x1c, 0xff, 0x2a, 0x13, 0x09, 0xed, 0xfc, 0x32, 0x12, 0xe2, 0xfa, 0xff, 0xff, 
0x04, 0x00, 0x00, 0x00, 0x48, 0x00, 0x00, 0x00, 0x03, 0x1a, 0x23, 0x80, 0xef, 0x2c, 0xf0, 0x57, 0xfa, 0x1d, 
0x80, 0xa5, 0xf9, 0xf8, 0xdb, 0xe1, 0x04, 0x16, 0xcf, 0x9c, 0xb2, 0xd0, 0xeb, 0x43, 0x18, 0xd5, 0xe8, 0x06, 
0xdc, 0xd9, 0xe6, 0xf9, 0x80, 0x81, 0x75, 0xfd, 0x12, 0x7f, 0x54, 0x0e, 0x08, 0xd1, 0xf0, 0xed, 0x4b, 0xb5, 
0x7f, 0x27, 0x10, 0x11, 0xda, 0xb1, 0xaa, 0xcf, 0xf8, 0x2b, 0xaf, 0xc0, 0x1e, 0xaf, 0x15, 0xc1, 0x4c, 0x08, 
0x05, 0x08, 0x17, 0x95, 0x7f, 0x63, 0x5c, 0x7f, 0x36, 0xfb, 0xff, 0xff, 0x04, 0x00, 0x00, 0x00, 0x40, 0x00, 
0x00, 0x00, 0x76, 0x04, 0x00, 0x00, 0xc1, 0xfa, 0xff, 0xff, 0xcd, 0xfe, 0xff, 0xff, 0x42, 0x00, 0x00, 0x00, 
0x02, 0x00, 0x00, 0x00, 0x47, 0x00, 0x00, 0x00, 0x03, 0x02, 0x00, 0x00, 0x91, 0x00, 0x00, 0x00, 0x34, 0xfd, 
0xff, 0xff, 0x59, 0x03, 0x00, 0x00, 0xea, 0xfc, 0xff, 0xff, 0xa5, 0xff, 0xff, 0xff, 0x9b, 0xff, 0xff, 0xff, 
0x4b, 0x00, 0x00, 0x00, 0x5f, 0x00, 0x00, 0x00, 0x4f, 0x01, 0x00, 0x00, 0x82, 0xfb, 0xff, 0xff, 0x04, 0x00, 
0x00, 0x00, 0x40, 0x00, 0x00, 0x00, 0x88, 0x28, 0x00, 0x00, 0x2f, 0x08, 0x00, 0x00, 0x68, 0x36, 0x00, 0x00, 
0xfe, 0xf4, 0xff, 0xff, 0xfa, 0x38, 0x00, 0x00, 0xb0, 0x07, 0x00, 0x00, 0xb9, 0xf3, 0xff, 0xff, 0x71, 0x04, 
0x00, 0x00, 0x59, 0x1c, 0x00, 0x00, 0x68, 0x05, 0x00, 0x00, 0x93, 0x24, 0x00, 0x00, 0xc9, 0xe9, 0xff, 0xff, 
0x54, 0x12, 0x00, 0x00, 0x61, 0xef, 0xff, 0xff, 0x57, 0x03, 0x00, 0x00, 0xda, 0xf6, 0xff, 0xff, 0xce, 0xfb, 
0xff, 0xff, 0x04, 0x00, 0x00, 0x00, 0x48, 0x00, 0x00, 0x00, 0x1b, 0xf3, 0xea, 0xb3, 0x85, 0x0d, 0xe3, 0x15, 
0x48, 0xe5, 0xc8, 0x99, 0x8e, 0x47, 0xea, 0x27, 0x3c, 0xe1, 0xd0, 0x80, 0x7f, 0x4a, 0xfb, 0x18, 0x28, 0xf8, 
0xbe, 0xd7, 0xbf, 0x34, 0x02, 0x35, 0x7c, 0x80, 0x80, 0xfd, 0x89, 0x7f, 0x80, 0x7f, 0x73, 0x88, 0xa7, 0x1a, 
0x7e, 0x54, 0xfe, 0x54, 0x2c, 0xef, 0xca, 0x1a, 0xc4, 0x32, 0xe5, 0x1c, 0x7f, 0xab, 0x8d, 0x2e, 0xb5, 0x4f, 
0xb8, 0x68, 0x7c, 0xaf, 0xb6, 0x5d, 0x52, 0x18, 0xed, 0x53, 0x22, 0xfc, 0xff, 0xff, 0x04, 0x00, 0x00, 0x00, 
0x40, 0x00, 0x00, 0x00, 0x78, 0x00, 0x00, 0x00, 0xda, 0x19, 0x00, 0x00, 0x4a, 0xfe, 0xff, 0xff, 0xd7, 0x00, 
0x00, 0x00, 0x1b, 0xf8, 0xff, 0xff, 0xc1, 0x10, 0x00, 0x00, 0x2e, 0xfd, 0xff, 0xff, 0xd8, 0xfc, 0xff, 0xff, 
0x21, 0x02, 0x00, 0x00, 0xb8, 0x12, 0x00, 0x00, 0xe2, 0x20, 0x00, 0x00, 0xd5, 0xfd, 0xff, 0xff, 0xe8, 0x0a, 
0x00, 0x00, 0xb5, 0x03, 0x00, 0x00, 0x82, 0x04, 0x00, 0x00, 0xd1, 0x02, 0x00, 0x00, 0x6e, 0xfc, 0xff, 0xff, 
0x04, 0x00, 0x00, 0x00, 0xc0, 0x00, 0x00, 0x00, 0x00, 0x00, 0x00, 0x00, 0x75, 0xf0, 0xff, 0xff, 0x32, 0xe7, 
0xff, 0xff, 0x5e, 0x7c, 0x00, 0x00, 0x15, 0x10, 0x00, 0x00, 0xac, 0x04, 0x00, 0x00, 0x02, 0xd1, 0xff, 0xff, 
0x78, 0xdf, 0xff, 0xff, 0x00, 0x00, 0x00, 0x00, 0x00, 0x00, 0x00, 0x00, 0xfc, 0x24, 0x00, 0x00, 0xb9, 0x68, 
0x00, 0x00, 0x00, 0x00, 0x00, 0x00, 0x5c, 0x00, 0x00, 0x00, 0x8a, 0x48, 0x00, 0x00, 0x00, 0x00, 0x00, 0x00, 
0xc7, 0xcf, 0xff, 0xff, 0x88, 0xe7, 0xff, 0xff, 0x00, 0x00, 0x00, 0x00, 0x00, 0x00, 0x00, 0x00, 0x00, 0x00, 
0x00, 0x00, 0x00, 0x00, 0x00, 0x00, 0x00, 0x00, 0x00, 0x00, 0x0c, 0x5b, 0x00, 0x00, 0xfc, 0xf4, 0xff, 0xff, 
0x00, 0x00, 0x00, 0x00, 0xb4, 0x01, 0x00, 0x00, 0x51, 0xfd, 0xff, 0xff, 0x00, 0x00, 0x00, 0x00, 0x00, 0x00, 
0x00, 0x00, 0x00, 0x00, 0x00, 0x00, 0x00, 0x00, 0x00, 0x00, 0x2d, 0x00, 0x00, 0x00, 0x03, 0x08, 0x00, 0x00, 
0x00, 0x00, 0x00, 0x00, 0x00, 0x00, 0x00, 0x00, 0xc4, 0x15, 0x00, 0x00, 0x00, 0x00, 0x00, 0x00, 0x2d, 0xcd, 
0x00, 0x00, 0x00, 0x00, 0x00, 0x00, 0x18, 0x67, 0x33, 0x03, 0xe8, 0x03, 0x00, 0x00, 0x00, 0x00, 0x00, 0x00, 
0xa0, 0x07, 0x00, 0x00, 0x00, 0x00, 0x00, 0x00, 0x19, 0x85, 0x03, 0x00, 0xff, 0x12, 0x00, 0x00, 0x61, 0x7f, 
0x00, 0x00, 0x3a, 0xfd, 0xff, 0xff, 0x04, 0x00, 0x00, 0x00, 0x60, 0x00, 0x00, 0x00, 0x00, 0xee, 0xda, 0x43, 
0x1c, 0x22, 0xeb, 0x27, 0x00, 0x00, 0x23, 0x25, 0x00, 0x24, 0x2c, 0x00, 0x20, 0x26, 0x00, 0x00, 0x00, 0x00, 
0x00, 0x23, 0xff, 0x00, 0x24, 0x2d, 0x00, 0x00, 0x00, 0x00, 0x28, 0xf3, 0x00, 0x00, 0xfd, 0x00, 0x2a, 0x00, 
0x05, 0x23, 0x00, 0xd9, 0x00, 0x0f, 0x2b, 0x7f, 0x00, 0x69, 0x7a, 0x9f, 0xb4, 0xa2, 0x5c, 0x9a, 0x00, 0x00, 
0xa6, 0xa2, 0x00, 0xa2, 0xc2, 0x00, 0xa5, 0xa7, 0x00, 0x00, 0x00, 0x00, 0x00, 0x9f, 0x6d, 0x00, 0xa6, 0x98, 
0x00, 0x00, 0x00, 0x00, 0xa0, 0x5a, 0x00, 0x00, 0x73, 0x00, 0xf7, 0x00, 0x00, 0xad, 0x00, 0x7f, 0x00, 0xff, 
0x97, 0xfd, 0xa6, 0xfd, 0xff, 0xff, 0x04, 0x00, 0x00, 0x00, 0x20, 0x00, 0x00, 0x00, 0xde, 0x03, 0x00, 0x00, 
0x76, 0x00, 0x00, 0x00, 0xb3, 0x01, 0x00, 0x00, 0x8d, 0x44, 0x00, 0x00, 0x87, 0x0b, 0x00, 0x00, 0xde, 0x02, 
0x00, 0x00, 0x6d, 0x01, 0x00, 0x00, 0xc6, 0x0d, 0x00, 0x00, 0xd2, 0xfd, 0xff, 0xff, 0x04, 0x00, 0x00, 0x00, 
0x90, 0x00, 0x00, 0x00, 0x15, 0xcd, 0xff, 0xf7, 0x1c, 0xe8, 0xef, 0xd9, 0x1c, 0xfa, 0x14, 0x02, 0xf1, 0x0d, 
0x14, 0x06, 0x08, 0x23, 0xdf, 0xf2, 0x20, 0x00, 0x2f, 0x3c, 0x04, 0x3b, 0x26, 0x7f, 0x8c, 0x78, 0x2b, 0xea, 
0x05, 0xee, 0x13, 0x04, 0xc9, 0x7f, 0x74, 0xd2, 0x1e, 0xe2, 0xf1, 0x8b, 0xf1, 0x4d, 0x14, 0xfc, 0x19, 0x24, 
0xf2, 0xd5, 0x15, 0xfa, 0x0c, 0xa2, 0x56, 0x12, 0x04, 0x01, 0x14, 0x00, 0x25, 0x06, 0x80, 0x7f, 0xba, 0x7f, 
0x78, 0x0f, 0xca, 0x7f, 0x8c, 0x80, 0x78, 0x60, 0x7f, 0x80, 0x7f, 0x77, 0xf7, 0xd1, 0x7f, 0xd6, 0x80, 0xd2, 
0xcc, 0xaf, 0x7f, 0x04, 0x7f, 0x84, 0xe7, 0xd0, 0x10, 0x81, 0x03, 0xf0, 0xef, 0xf6, 0x25, 0x17, 0x32, 0xfb, 
0xe1, 0xf7, 0xc9, 0x04, 0xf9, 0xe7, 0xfb, 0x01, 0xf9, 0x14, 0xe4, 0xf2, 0x2c, 0xe0, 0x80, 0x03, 0x11, 0x30, 
0x3e, 0x04, 0xf1, 0x14, 0xf8, 0xf2, 0x17, 0xec, 0x21, 0xf5, 0x9f, 0xc0, 0xf0, 0xfa, 0xfb, 0x08, 0x27, 0x06, 
0x38, 0xdc, 0x21, 0xf7, 0x6e, 0xfe, 0xff, 0xff, 0x04, 0x00, 0x00, 0x00, 0x48, 0x00, 0x00, 0x00, 0x12, 0x10, 
0x45, 0xce, 0x2e, 0x42, 0xfe, 0x3a, 0x28, 0x28, 0x63, 0x80, 0x4a, 0x60, 0x08, 0x5b, 0x23, 0x17, 0x1f, 0xab, 
0x51, 0x1b, 0x0d, 0x29, 0x35, 0x32, 0x51, 0xe7, 0x53, 0x6f, 0x32, 0x51, 0x7f, 0x7f, 0x7f, 0xc7, 0x7c, 0x7f, 
0x75, 0x7f, 0x6a, 0x50, 0x59, 0xd5, 0x7f, 0x70, 0x49, 0x39, 0x21, 0x2d, 0x16, 0xed, 0x30, 0x1b, 0x3e, 0x21, 
0x55, 0x70, 0x5a, 0xb9, 0x43, 0x68, 0x7f, 0x2b, 0x3f, 0x43, 0x54, 0xd6, 0x3a, 0x62, 0x44, 0x01, 0xc2, 0xfe, 
0xff, 0xff, 0x04, 0x00, 0x00, 0x00, 0x40, 0x00, 0x00, 0x00, 0x53, 0x00, 0x00, 0x00, 0xa4, 0x00, 0x00, 0x00, 
0x32, 0xfa, 0xff, 0xff, 0x58, 0xff, 0xff, 0xff, 0x8d, 0xfa, 0xff, 0xff, 0x15, 0x0b, 0x00, 0x00, 0xd1, 0xfc, 
0xff, 0xff, 0xeb, 0xff, 0xff, 0xff, 0x08, 0x1b, 0x00, 0x00, 0xb3, 0x43, 0x00, 0x00, 0x0c, 0xf4, 0xff, 0xff, 
0xa5, 0x3d, 0x00, 0x00, 0x68, 0xbc, 0xff, 0xff, 0xc8, 0x03, 0x00, 0x00, 0x60, 0xfe, 0xff, 0xff, 0x05, 0x01, 
0x00, 0x00, 0x20, 0xfb, 0xff, 0xff, 0x52, 0xff, 0xff, 0xff, 0x02, 0x00, 0x00, 0x00, 0x00, 0x00, 0x00, 0x19, 
0x5e, 0xff, 0xff, 0xff, 0x03, 0x00, 0x00, 0x00, 0x00, 0x00, 0x00, 0x03, 0x6a, 0xff, 0xff, 0xff, 0x03, 0x00, 
0x00, 0x00, 0x00, 0x00, 0x00, 0x03, 0x76, 0xff, 0xff, 0xff, 0x03, 0x00, 0x00, 0x00, 0x00, 0x00, 0x00, 0x04, 
0x82, 0xff, 0xff, 0xff, 0x03, 0x00, 0x00, 0x00, 0x00, 0x00, 0x00, 0x04, 0x8e, 0xff, 0xff, 0xff, 0x03, 0x00, 
0x00, 0x00, 0x00, 0x00, 0x00, 0x03, 0x9a, 0xff, 0xff, 0xff, 0x03, 0x00, 0x00, 0x00, 0x00, 0x00, 0x00, 0x04, 
0xa6, 0xff, 0xff, 0xff, 0x02, 0x00, 0x00, 0x00, 0x00, 0x00, 0x00, 0x22, 0xb2, 0xff, 0xff, 0xff, 0x03, 0x00, 
0x00, 0x00, 0x00, 0x00, 0x00, 0x04, 0xbe, 0xff, 0xff, 0xff, 0x03, 0x00, 0x00, 0x00, 0x00, 0x00, 0x00, 0x04, 
0xca, 0xff, 0xff, 0xff, 0x02, 0x00, 0x00, 0x00, 0x00, 0x00, 0x00, 0x22, 0xd6, 0xff, 0xff, 0xff, 0x03, 0x00, 
0x00, 0x00, 0x00, 0x00, 0x00, 0x03, 0xf6, 0xff, 0xff, 0xff, 0x03, 0x00, 0x00, 0x00, 0x00, 0x04, 0x0a, 0x00, 
0x0a, 0x00, 0x09, 0x00, 0x00, 0x00, 0x04, 0x00, 0x0a, 0x00, 0x00, 0x00, 0x03, 0x00, 0x00, 0x00, 0x00, 0x03, 
0x0a, 0x00, 0x0c, 0x00, 0x0b, 0x00, 0x00, 0x00, 0x04, 0x00, 0x0a, 0x00, 0x00, 0x00, 0x02, 0x00, 0x00, 0x00, 
0x00, 0x00, 0x00, 0x22, 0x7a, 0xfc, 0xff, 0xff, 0x2c, 0x00, 0x00, 0x00, 0x00, 0x00, 0x00, 0x09, 0x0c, 0x00, 
0x00, 0x00, 0x10, 0x00, 0x00, 0x00, 0x0e, 0x00, 0x00, 0x00, 0x01, 0x00, 0x00, 0x00, 0x1e, 0x00, 0x00, 0x00, 
0x01, 0x00, 0x00, 0x00, 0x15, 0x00, 0x00, 0x00, 0x00, 0x00, 0x06, 0x00, 0x08, 0x00, 0x04, 0x00, 0x06, 0x00, 
0x00, 0x00, 0x00, 0x00, 0x80, 0x3f, 0xb2, 0xfc, 0xff, 0xff, 0x38, 0x00, 0x00, 0x00, 0x00, 0x00, 0x00, 0x01, 
0x0c, 0x00, 0x00, 0x00, 0x10, 0x00, 0x00, 0x00, 0x0d, 0x00, 0x00, 0x00, 0x01, 0x00, 0x00, 0x00, 0x15, 0x00, 
0x00, 0x00, 0x03, 0x00, 0x00, 0x00, 0x0e, 0x00, 0x00, 0x00, 0x09, 0x00, 0x00, 0x00, 0x26, 0x00, 0x00, 0x00, 
0x00, 0x00, 0x0a, 0x00, 0x10, 0x00, 0x0f, 0x00, 0x08, 0x00, 0x04, 0x00, 0x0a, 0x00, 0x00, 0x00, 0x01, 0x00, 
0x00, 0x00, 0x01, 0x00, 0x00, 0x00, 0x00, 0x00, 0x00, 0x01, 0xfe, 0xfc, 0xff, 0xff, 0x38, 0x00, 0x00, 0x00, 
0x00, 0x00, 0x00, 0x01, 0x0c, 0x00, 0x00, 0x00, 0x10, 0x00, 0x00, 0x00, 0x0c, 0x00, 0x00, 0x00, 0x01, 0x00, 
0x00, 0x00, 0x0e, 0x00, 0x00, 0x00, 0x03, 0x00, 0x00, 0x00, 0x20, 0x00, 0x00, 0x00, 0x14, 0x00, 0x00, 0x00, 
0x0b, 0x00, 0x00, 0x00, 0x0c, 0x00, 0x10, 0x00, 0x00, 0x00, 0x0c, 0x00, 0x08, 0x00, 0x07, 0x00, 0x0c, 0x00, 
0x00, 0x00, 0x00, 0x00, 0x00, 0x03, 0x01, 0x00, 0x00, 0x00, 0x01, 0x00, 0x00, 0x00, 0x4a, 0xfd, 0xff, 0xff, 
0x2c, 0x00, 0x00, 0x00, 0x00, 0x00, 0x00, 0x02, 0x0c, 0x00, 0x00, 0x00, 0x10, 0x00, 0x00, 0x00, 0x0b, 0x00, 
0x00, 0x00, 0x01, 0x00, 0x00, 0x00, 0x20, 0x00, 0x00, 0x00, 0x03, 0x00, 0x00, 0x00, 0x01, 0x00, 0x00, 0x00, 
0x24, 0x00, 0x00, 0x00, 0x00, 0x00, 0x00, 0x00, 0x9e, 0xfd, 0xff, 0xff, 0x00, 0x00, 0x00, 0x01, 0x01, 0x00, 
0x00, 0x00, 0x01, 0x00, 0x00, 0x00, 0x01, 0x00, 0x00, 0x00, 0x8e, 0xfd, 0xff, 0xff, 0x2c, 0x00, 0x00, 0x00, 
0x00, 0x00, 0x00, 0x02, 0x0c, 0x00, 0x00, 0x00, 0x10, 0x00, 0x00, 0x00, 0x0a, 0x00, 0x00, 0x00, 0x01, 0x00, 
0x00, 0x00, 0x01, 0x00, 0x00, 0x00, 0x03, 0x00, 0x00, 0x00, 0x02, 0x00, 0x00, 0x00, 0x1f, 0x00, 0x00, 0x00, 
0x0c, 0x00, 0x00, 0x00, 0xe2, 0xfd, 0xff, 0xff, 0x00, 0x00, 0x00, 0x01, 0x01, 0x00, 0x00, 0x00, 0x01, 0x00, 
0x00, 0x00, 0x01, 0x00, 0x00, 0x00, 0xd2, 0xfd, 0xff, 0xff, 0x2c, 0x00, 0x00, 0x00, 0x00, 0x00, 0x00, 0x01, 
0x0c, 0x00, 0x00, 0x00, 0x10, 0x00, 0x00, 0x00, 0x09, 0x00, 0x00, 0x00, 0x01, 0x00, 0x00, 0x00, 0x02, 0x00, 
0x00, 0x00, 0x03, 0x00, 0x00, 0x00, 0x12, 0x00, 0x00, 0x00, 0x25, 0x00, 0x00, 0x00, 0x0f, 0x00, 0x00, 0x00, 
0x78, 0xfe, 0xff, 0xff, 0x00, 0x00, 0x00, 0x01, 0x01, 0x00, 0x00, 0x00, 0x01, 0x00, 0x00, 0x00, 0x00, 0x00, 
0x00, 0x01, 0x16, 0xfe, 0xff, 0xff, 0x2c, 0x00, 0x00, 0x00, 0x00, 0x00, 0x00, 0x02, 0x0c, 0x00, 0x00, 0x00, 
0x10, 0x00, 0x00, 0x00, 0x08, 0x00, 0x00, 0x00, 0x01, 0x00, 0x00, 0x00, 0x12, 0x00, 0x00, 0x00, 0x03, 0x00, 
0x00, 0x00, 0x1b, 0x00, 0x00, 0x00, 0x0d, 0x00, 0x00, 0x00, 0x1a, 0x00, 0x00, 0x00, 0x42, 0xff, 0xff, 0xff, 
0x00, 0x00, 0x00, 0x01, 0x01, 0x00, 0x00, 0x00, 0x02, 0x00, 0x00, 0x00, 0x02, 0x00, 0x00, 0x00, 0x00, 0x00, 
0x00, 0x01, 0x5e, 0xfe, 0xff, 0xff, 0x28, 0x00, 0x00, 0x00, 0x00, 0x00, 0x00, 0x16, 0x0c, 0x00, 0x00, 0x00, 
0x10, 0x00, 0x00, 0x00, 0x07, 0x00, 0x00, 0x00, 0x01, 0x00, 0x00, 0x00, 0x1b, 0x00, 0x00, 0x00, 0x02, 0x00, 
0x00, 0x00, 0x08, 0x00, 0x00, 0x00, 0x1d, 0x00, 0x00, 0x00, 0xf8, 0xfd, 0xff, 0xff, 0x8e, 0xfe, 0xff, 0xff, 
0x2c, 0x00, 0x00, 0x00, 0x00, 0x00, 0x00, 0x02, 0x0c, 0x00, 0x00, 0x00, 0x10, 0x00, 0x00, 0x00, 0x06, 0x00, 
0x00, 0x00, 0x01, 0x00, 0x00, 0x00, 0x08, 0x00, 0x00, 0x00, 0x03, 0x00, 0x00, 0x00, 0x05, 0x00, 0x00, 0x00, 
0x13, 0x00, 0x00, 0x00, 0x1c, 0x00, 0x00, 0x00, 0xe2, 0xfe, 0xff, 0xff, 0x00, 0x00, 0x00, 0x01, 0x01, 0x00, 
0x00, 0x00, 0x01, 0x00, 0x00, 0x00, 0x01, 0x00, 0x00, 0x00, 0xd2, 0xfe, 0xff, 0xff, 0x3c, 0x00, 0x00, 0x00, 
0x00, 0x00, 0x00, 0x02, 0x0c, 0x00, 0x00, 0x00, 0x10, 0x00, 0x00, 0x00, 0x05, 0x00, 0x00, 0x00, 0x01, 0x00, 
0x00, 0x00, 0x05, 0x00, 0x00, 0x00, 0x03, 0x00, 0x00, 0x00, 0x11, 0x00, 0x00, 0x00, 0x04, 0x00, 0x00, 0x00, 
0x27, 0x00, 0x00, 0x00, 0x00, 0x00, 0x0e, 0x00, 0x18, 0x00, 0x17, 0x00, 0x10, 0x00, 0x0c, 0x00, 0x08, 0x00, 
0x07, 0x00, 0x0e, 0x00, 0x00, 0x00, 0x00, 0x00, 0x00, 0x01, 0x01, 0x00, 0x00, 0x00, 0x02, 0x00, 0x00, 0x00, 
0x02, 0x00, 0x00, 0x00, 0x00, 0x00, 0x00, 0x01, 0x2a, 0xff, 0xff, 0xff, 0x28, 0x00, 0x00, 0x00, 0x00, 0x00, 
0x00, 0x16, 0x0c, 0x00, 0x00, 0x00, 0x10, 0x00, 0x00, 0x00, 0x04, 0x00, 0x00, 0x00, 0x01, 0x00, 0x00, 0x00, 
0x11, 0x00, 0x00, 0x00, 0x02, 0x00, 0x00, 0x00, 0x17, 0x00, 0x00, 0x00, 0x16, 0x00, 0x00, 0x00, 0xc4, 0xfe, 
0xff, 0xff, 0x5a, 0xff, 0xff, 0xff, 0x38, 0x00, 0x00, 0x00, 0x00, 0x00, 0x00, 0x01, 0x0c, 0x00, 0x00, 0x00, 
0x10, 0x00, 0x00, 0x00, 0x03, 0x00, 0x00, 0x00, 0x01, 0x00, 0x00, 0x00, 0x17, 0x00, 0x00, 0x00, 0x03, 0x00, 
0x00, 0x00, 0x0a, 0x00, 0x00, 0x00, 0x23, 0x00, 0x00, 0x00, 0x07, 0x00, 0x00, 0x00, 0x0c, 0x00, 0x14, 0x00, 
0x13, 0x00, 0x0c, 0x00, 0x08, 0x00, 0x07, 0x00, 0x0c, 0x00, 0x00, 0x00, 0x00, 0x00, 0x00, 0x01, 0x01, 0x00, 
0x00, 0x00, 0x01, 0x00, 0x00, 0x00, 0x00, 0x00, 0x00, 0x01, 0xaa, 0xff, 0xff, 0xff, 0x3c, 0x00, 0x00, 0x00, 
0x00, 0x00, 0x00, 0x02, 0x0c, 0x00, 0x00, 0x00, 0x10, 0x00, 0x00, 0x00, 0x02, 0x00, 0x00, 0x00, 0x01, 0x00, 
0x00, 0x00, 0x0a, 0x00, 0x00, 0x00, 0x03, 0x00, 0x00, 0x00, 0x03, 0x00, 0x00, 0x00, 0x06, 0x00, 0x00, 0x00, 
0x10, 0x00, 0x00, 0x00, 0x00, 0x00, 0x0e, 0x00, 0x16, 0x00, 0x00, 0x00, 0x10, 0x00, 0x0c, 0x00, 0x08, 0x00, 
0x07, 0x00, 0x0e, 0x00, 0x00, 0x00, 0x00, 0x00, 0x00, 0x01, 0x01, 0x00, 0x00, 0x00, 0x01, 0x00, 0x00, 0x00, 
0x01, 0x00, 0x00, 0x00, 0x00, 0x00, 0x0e, 0x00, 0x18, 0x00, 0x14, 0x00, 0x10, 0x00, 0x0c, 0x00, 0x0b, 0x00, 
0x04, 0x00, 0x0e, 0x00, 0x00, 0x00, 0x38, 0x00, 0x00, 0x00, 0x00, 0x00, 0x00, 0x01, 0x0c, 0x00, 0x00, 0x00, 
0x10, 0x00, 0x00, 0x00, 0x01, 0x00, 0x00, 0x00, 0x01, 0x00, 0x00, 0x00, 0x03, 0x00, 0x00, 0x00, 0x03, 0x00, 
0x00, 0x00, 0x28, 0x00, 0x00, 0x00, 0x22, 0x00, 0x00, 0x00, 0x21, 0x00, 0x00, 0x00, 0x0c, 0x00, 0x12, 0x00, 
0x11, 0x00, 0x0c, 0x00, 0x08, 0x00, 0x07, 0x00, 0x0c, 0x00, 0x00, 0x00, 0x00, 0x00, 0x00, 0x03, 0x02, 0x00, 
0x00, 0x00, 0x02, 0x00, 0x00, 0x00, 0x00, 0x01, 0x0e, 0x00, 0x14, 0x00, 0x00, 0x00, 0x10, 0x00, 0x0c, 0x00, 
0x0b, 0x00, 0x04, 0x00, 0x0e, 0x00, 0x00, 0x00, 0x28, 0x00, 0x00, 0x00, 0x00, 0x00, 0x00, 0x16, 0x08, 0x00, 
0x00, 0x00, 0x0c, 0x00, 0x00, 0x00, 0x01, 0x00, 0x00, 0x00, 0x28, 0x00, 0x00, 0x00, 0x02, 0x00, 0x00, 0x00, 
0x18, 0x00, 0x00, 0x00, 0x19, 0x00, 0x00, 0x00, 0x04, 0x00, 0x04, 0x00, 0x04, 0x00, 0x00, 0x00, 0xf6, 0xe3, 
0xff, 0xff, 0x10, 0x00, 0x00, 0x00, 0x00, 0x00, 0x00, 0x09, 0x28, 0x00, 0x00, 0x00, 0x38, 0x00, 0x00, 0x00, 
0x74, 0xe3, 0xff, 0xff, 0x08, 0x00, 0x00, 0x00, 0x10, 0x00, 0x00, 0x00, 0x01, 0x00, 0x00, 0x00, 0x80, 0xff, 
0xff, 0xff, 0xff, 0xff, 0xff, 0xff, 0x01, 0x00, 0x00, 0x00, 0xff, 0xff, 0x00, 0x3c, 0x04, 0x00, 0x00, 0x00, 
0x01, 0x00, 0x00, 0x00, 0x62, 0x00, 0x00, 0x00, 0x62, 0x00, 0x00, 0x00, 0x03, 0x00, 0x00, 0x00, 0x25, 0x00, 
0x00, 0x00, 0x69, 0x6e, 0x70, 0x75, 0x74, 0x2e, 0x34, 0x5f, 0x74, 0x65, 0x5f, 0x74, 0x72, 0x61, 0x6e, 0x73, 
0x66, 0x6f, 0x72, 0x6d, 0x5f, 0x31, 0x5f, 0x74, 0x65, 0x5f, 0x74, 0x72, 0x61, 0x6e, 0x73, 0x66, 0x6f, 0x72, 
0x6d, 0x5f, 0x32, 0x00, 0x00, 0x00, 0xfa, 0xe3, 0xff, 0xff, 0x14, 0x00, 0x00, 0x00, 0x00, 0x00, 0x00, 0x02, 
0x80, 0x00, 0x00, 0x00, 0x84, 0x00, 0x00, 0x00, 0x19, 0x00, 0x00, 0x00, 0xec, 0xe3, 0xff, 0xff, 0x08, 0x00, 
0x00, 0x00, 0x48, 0x00, 0x00, 0x00, 0x08, 0x00, 0x00, 0x00, 0x00, 0x00, 0x00, 0x00, 0x00, 0x00, 0x00, 0x00, 
0x00, 0x00, 0x00, 0x00, 0x00, 0x00, 0x00, 0x00, 0x00, 0x00, 0x00, 0x00, 0x00, 0x00, 0x00, 0x00, 0x00, 0x00, 
0x00, 0x00, 0x00, 0x00, 0x00, 0x00, 0x00, 0x00, 0x00, 0x00, 0x00, 0x00, 0x00, 0x00, 0x00, 0x00, 0x00, 0x00, 
0x00, 0x00, 0x00, 0x00, 0x00, 0x00, 0x00, 0x00, 0x00, 0x00, 0x00, 0x00, 0x00, 0x00, 0x00, 0x00, 0x00, 0x00, 
0x00, 0x00, 0x08, 0x00, 0x00, 0x00, 0xa5, 0xcd, 0x25, 0x38, 0x31, 0x5e, 0x55, 0x38, 0x8a, 0xd0, 0x15, 0x38, 
0xc6, 0x8f, 0xb6, 0x37, 0xc8, 0x92, 0xd0, 0x37, 0xbf, 0xe8, 0xc5, 0x38, 0x6d, 0x92, 0xb7, 0x38, 0xeb, 0x15, 
0x13, 0x39, 0x01, 0x00, 0x00, 0x00, 0x08, 0x00, 0x00, 0x00, 0x0f, 0x00, 0x00, 0x00, 0x69, 0x6e, 0x70, 0x75, 
0x74, 0x2e, 0x31, 0x30, 0x5f, 0x61, 0x74, 0x74, 0x72, 0x5f, 0x31, 0x00, 0xa2, 0xe4, 0xff, 0xff, 0x14, 0x00, 
0x00, 0x00, 0x00, 0x00, 0x00, 0x02, 0x3c, 0x00, 0x00, 0x00, 0x40, 0x00, 0x00, 0x00, 0x18, 0x00, 0x00, 0x00, 
0x94, 0xe4, 0xff, 0xff, 0x08, 0x00, 0x00, 0x00, 0x1c, 0x00, 0x00, 0x00, 0x02, 0x00, 0x00, 0x00, 0x00, 0x00, 
0x00, 0x00, 0x00, 0x00, 0x00, 0x00, 0x00, 0x00, 0x00, 0x00, 0x00, 0x00, 0x00, 0x00, 0x00, 0x00, 0x00, 0x00, 
0x02, 0x00, 0x00, 0x00, 0xda, 0xed, 0x6f, 0x39, 0x97, 0xbb, 0xf9, 0x38, 0x01, 0x00, 0x00, 0x00, 0x02, 0x00, 
0x00, 0x00, 0x0b, 0x00, 0x00, 0x00, 0x58, 0x71, 0x2e, 0x34, 0x5f, 0x61, 0x74, 0x74, 0x72, 0x5f, 0x31, 0x00, 
0x02, 0xe5, 0xff, 0xff, 0x14, 0x00, 0x00, 0x00, 0x00, 0x00, 0x00, 0x09, 0xe0, 0x00, 0x00, 0x00, 0xf0, 0x00, 
0x00, 0x00, 0x17, 0x00, 0x00, 0x00, 0xf4, 0xe4, 0xff, 0xff, 0x08, 0x00, 0x00, 0x00, 0x88, 0x00, 0x00, 0x00, 
0x10, 0x00, 0x00, 0x00, 0x00, 0x00, 0x00, 0x00, 0x00, 0x00, 0x00, 0x00, 0x00, 0x00, 0x00, 0x00, 0x00, 0x00, 
0x00, 0x00, 0x00, 0x00, 0x00, 0x00, 0x00, 0x00, 0x00, 0x00, 0x00, 0x00, 0x00, 0x00, 0x00, 0x00, 0x00, 0x00, 
0x00, 0x00, 0x00, 0x00, 0x00, 0x00, 0x00, 0x00, 0x00, 0x00, 0x00, 0x00, 0x00, 0x00, 0x00, 0x00, 0x00, 0x00, 
0x00, 0x00, 0x00, 0x00, 0x00, 0x00, 0x00, 0x00, 0x00, 0x00, 0x00, 0x00, 0x00, 0x00, 0x00, 0x00, 0x00, 0x00, 
0x00, 0x00, 0x00, 0x00, 0x00, 0x00, 0x00, 0x00, 0x00, 0x00, 0x00, 0x00, 0x00, 0x00, 0x00, 0x00, 0x00, 0x00, 
0x00, 0x00, 0x00, 0x00, 0x00, 0x00, 0x00, 0x00, 0x00, 0x00, 0x00, 0x00, 0x00, 0x00, 0x00, 0x00, 0x00, 0x00, 
0x00, 0x00, 0x00, 0x00, 0x00, 0x00, 0x00, 0x00, 0x00, 0x00, 0x00, 0x00, 0x00, 0x00, 0x00, 0x00, 0x00, 0x00, 
0x00, 0x00, 0x00, 0x00, 0x00, 0x00, 0x10, 0x00, 0x00, 0x00, 0x33, 0x2d, 0x0c, 0x3b, 0xb6, 0x32, 0x90, 0x3b, 
0x3a, 0x63, 0xaa, 0x3a, 0xb4, 0x73, 0x4d, 0x3b, 0x43, 0x61, 0xf9, 0x3a, 0x15, 0x2a, 0x8a, 0x3b, 0x69, 0xb4, 
0x0e, 0x3b, 0xc9, 0x7d, 0x92, 0x3b, 0x3c, 0x6e, 0xa1, 0x3b, 0x2a, 0x82, 0x38, 0x3b, 0x06, 0x3f, 0x01, 0x3b, 
0x9d, 0x26, 0x54, 0x3b, 0x4b, 0xf7, 0x3f, 0x3b, 0x61, 0x98, 0x26, 0x3b, 0xb7, 0x1a, 0xf2, 0x3a, 0x7e, 0x3a, 
0x8a, 0x3b, 0x04, 0x00, 0x00, 0x00, 0x10, 0x00, 0x00, 0x00, 0x01, 0x00, 0x00, 0x00, 0x01, 0x00, 0x00, 0x00, 
0x08, 0x00, 0x00, 0x00, 0x0c, 0x00, 0x00, 0x00, 0x66, 0x75, 0x73, 0x65, 0x5f, 0x61, 0x74, 0x74, 0x72, 0x5f, 
0x31, 0x32, 0x00, 0x00, 0x00, 0x00, 0x16, 0xe6, 0xff, 0xff, 0x14, 0x00, 0x00, 0x00, 0x00, 0x00, 0x00, 0x09, 
0xe8, 0x00, 0x00, 0x00, 0xf8, 0x00, 0x00, 0x00, 0x16, 0x00, 0x00, 0x00, 0x1a, 0xe8, 0xff, 0xff, 0x03, 0x00, 
0x00, 0x00, 0x08, 0x00, 0x00, 0x00, 0x8c, 0x00, 0x00, 0x00, 0x10, 0x00, 0x00, 0x00, 0x00, 0x00, 0x00, 0x00, 
0x00, 0x00, 0x00, 0x00, 0x00, 0x00, 0x00, 0x00, 0x00, 0x00, 0x00, 0x00, 0x00, 0x00, 0x00, 0x00, 0x00, 0x00, 
0x00, 0x00, 0x00, 0x00, 0x00, 0x00, 0x00, 0x00, 0x00, 0x00, 0x00, 0x00, 0x00, 0x00, 0x00, 0x00, 0x00, 0x00, 
0x00, 0x00, 0x00, 0x00, 0x00, 0x00, 0x00, 0x00, 0x00, 0x00, 0x00, 0x00, 0x00, 0x00, 0x00, 0x00, 0x00, 0x00, 
0x00, 0x00, 0x00, 0x00, 0x00, 0x00, 0x00, 0x00, 0x00, 0x00, 0x00, 0x00, 0x00, 0x00, 0x00, 0x00, 0x00, 0x00, 
0x00, 0x00, 0x00, 0x00, 0x00, 0x00, 0x00, 0x00, 0x00, 0x00, 0x00, 0x00, 0x00, 0x00, 0x00, 0x00, 0x00, 0x00, 
0x00, 0x00, 0x00, 0x00, 0x00, 0x00, 0x00, 0x00, 0x00, 0x00, 0x00, 0x00, 0x00, 0x00, 0x00, 0x00, 0x00, 0x00, 
0x00, 0x00, 0x00, 0x00, 0x00, 0x00, 0x00, 0x00, 0x00, 0x00, 0x00, 0x00, 0x00, 0x00, 0x00, 0x00, 0x00, 0x00, 
0x00, 0x00, 0x10, 0x00, 0x00, 0x00, 0x9c, 0xeb, 0x75, 0x3b, 0x5a, 0x7b, 0x9c, 0x3b, 0xff, 0x55, 0x04, 0x3c, 
0x57, 0x7b, 0xb9, 0x3b, 0x2f, 0xb7, 0xdd, 0x3b, 0xb5, 0x64, 0xf8, 0x3c, 0x92, 0xd0, 0x0b, 0x3c, 0xc7, 0x8d, 
0x6c, 0x3c, 0xaf, 0x92, 0xa1, 0x3b, 0x15, 0x2a, 0xa2, 0x3b, 0x91, 0x41, 0x27, 0x3d, 0x85, 0xde, 0x94, 0x3b, 
0xc8, 0x29, 0xe3, 0x3b, 0x04, 0x68, 0x51, 0x3c, 0x32, 0x88, 0x2f, 0x3c, 0x63, 0x25, 0xe2, 0x3b, 0x04, 0x00, 
0x00, 0x00, 0x01, 0x00, 0x00, 0x00, 0x03, 0x00, 0x00, 0x00, 0x03, 0x00, 0x00, 0x00, 0x10, 0x00, 0x00, 0x00, 
0x0c, 0x00, 0x00, 0x00, 0x66, 0x75, 0x73, 0x65, 0x5f, 0x61, 0x74, 0x74, 0x72, 0x5f, 0x31, 0x34, 0x00, 0x00, 
0x00, 0x00, 0x32, 0xe7, 0xff, 0xff, 0x14, 0x00, 0x00, 0x00, 0x00, 0x00, 0x00, 0x09, 0x80, 0x00, 0x00, 0x00, 
0x90, 0x00, 0x00, 0x00, 0x15, 0x00, 0x00, 0x00, 0x24, 0xe7, 0xff, 0xff, 0x08, 0x00, 0x00, 0x00, 0x48, 0x00, 
0x00, 0x00, 0x08, 0x00, 0x00, 0x00, 0x00, 0x00, 0x00, 0x00, 0x00, 0x00, 0x00, 0x00, 0x00, 0x00, 0x00, 0x00, 
0x00, 0x00, 0x00, 0x00, 0x00, 0x00, 0x00, 0x00, 0x00, 0x00, 0x00, 0x00, 0x00, 0x00, 0x00, 0x00, 0x00, 0x00, 
0x00, 0x00, 0x00, 0x00, 0x00, 0x00, 0x00, 0x00, 0x00, 0x00, 0x00, 0x00, 0x00, 0x00, 0x00, 0x00, 0x00, 0x00, 
0x00, 0x00, 0x00, 0x00, 0x00, 0x00, 0x00, 0x00, 0x00, 0x00, 0x00, 0x00, 0x00, 0x00, 0x00, 0x00, 0x08, 0x00, 
0x00, 0x00, 0xa6, 0x04, 0x90, 0x3b, 0x55, 0x87, 0x83, 0x3b, 0x89, 0x55, 0x4e, 0x3b, 0x6e, 0x5b, 0xde, 0x39, 
0x48, 0xf9, 0x27, 0x3b, 0x32, 0x05, 0x0f, 0x3c, 0x7c, 0x5c, 0x63, 0x3b, 0xb2, 0x08, 0xea, 0x3a, 0x04, 0x00, 
0x00, 0x00, 0x08, 0x00, 0x00, 0x00, 0x01, 0x00, 0x00, 0x00, 0x01, 0x00, 0x00, 0x00, 0x10, 0x00, 0x00, 0x00, 
0x0b, 0x00, 0x00, 0x00, 0x66, 0x75, 0x73, 0x65, 0x5f, 0x61, 0x74, 0x74, 0x72, 0x5f, 0x38, 0x00, 0xe2, 0xe7, 
0xff, 0xff, 0x14, 0x00, 0x00, 0x00, 0x00, 0x00, 0x00, 0x09, 0xe0, 0x00, 0x00, 0x00, 0xf0, 0x00, 0x00, 0x00, 
0x14, 0x00, 0x00, 0x00, 0xd4, 0xe7, 0xff, 0xff, 0x08, 0x00, 0x00, 0x00, 0x88, 0x00, 0x00, 0x00, 0x10, 0x00, 
0x00, 0x00, 0x00, 0x00, 0x00, 0x00, 0x00, 0x00, 0x00, 0x00, 0x00, 0x00, 0x00, 0x00, 0x00, 0x00, 0x00, 0x00, 
0x00, 0x00, 0x00, 0x00, 0x00, 0x00, 0x00, 0x00, 0x00, 0x00, 0x00, 0x00, 0x00, 0x00, 0x00, 0x00, 0x00, 0x00, 
0x00, 0x00, 0x00, 0x00, 0x00, 0x00, 0x00, 0x00, 0x00, 0x00, 0x00, 0x00, 0x00, 0x00, 0x00, 0x00, 0x00, 0x00, 
0x00, 0x00, 0x00, 0x00, 0x00, 0x00, 0x00, 0x00, 0x00, 0x00, 0x00, 0x00, 0x00, 0x00, 0x00, 0x00, 0x00, 0x00, 
0x00, 0x00, 0x00, 0x00, 0x00, 0x00, 0x00, 0x00, 0x00, 0x00, 0x00, 0x00, 0x00, 0x00, 0x00, 0x00, 0x00, 0x00, 
0x00, 0x00, 0x00, 0x00, 0x00, 0x00, 0x00, 0x00, 0x00, 0x00, 0x00, 0x00, 0x00, 0x00, 0x00, 0x00, 0x00, 0x00, 
0x00, 0x00, 0x00, 0x00, 0x00, 0x00, 0x00, 0x00, 0x00, 0x00, 0x00, 0x00, 0x00, 0x00, 0x00, 0x00, 0x00, 0x00, 
0x00, 0x00, 0x00, 0x00, 0x10, 0x00, 0x00, 0x00, 0x72, 0x05, 0x3f, 0x3b, 0xd9, 0x3a, 0x20, 0x3b, 0x64, 0xc7, 
0xa0, 0x3b, 0xc6, 0x8b, 0xab, 0x3b, 0xbd, 0xcf, 0x12, 0x3b, 0xc5, 0x6b, 0xd5, 0x3a, 0x94, 0x2e, 0x2d, 0x3a, 
0x81, 0x1d, 0xbd, 0x3b, 0x15, 0x86, 0xa1, 0x3a, 0xe1, 0xf7, 0xc2, 0x3a, 0x38, 0xae, 0x42, 0x3a, 0x0e, 0xfe, 
0x17, 0x3b, 0x10, 0xd4, 0x6a, 0x3b, 0x61, 0xcb, 0x8e, 0x3a, 0xf5, 0x07, 0x25, 0x3c, 0xee, 0xc5, 0x4e, 0x3c, 
0x04, 0x00, 0x00, 0x00, 0x10, 0x00, 0x00, 0x00, 0x03, 0x00, 0x00, 0x00, 0x03, 0x00, 0x00, 0x00, 0x03, 0x00, 
0x00, 0x00, 0x0b, 0x00, 0x00, 0x00, 0x66, 0x75, 0x73, 0x65, 0x5f, 0x61, 0x74, 0x74, 0x72, 0x5f, 0x36, 0x00, 
0xf2, 0xe8, 0xff, 0xff, 0x14, 0x00, 0x00, 0x00, 0x00, 0x00, 0x00, 0x02, 0xe0, 0x00, 0x00, 0x00, 0xe4, 0x00, 
0x00, 0x00, 0x13, 0x00, 0x00, 0x00, 0xe4, 0xe8, 0xff, 0xff, 0x08, 0x00, 0x00, 0x00, 0x88, 0x00, 0x00, 0x00, 
0x10, 0x00, 0x00, 0x00, 0x00, 0x00, 0x00, 0x00, 0x00, 0x00, 0x00, 0x00, 0x00, 0x00, 0x00, 0x00, 0x00, 0x00, 
0x00, 0x00, 0x00, 0x00, 0x00, 0x00, 0x00, 0x00, 0x00, 0x00, 0x00, 0x00, 0x00, 0x00, 0x00, 0x00, 0x00, 0x00, 
0x00, 0x00, 0x00, 0x00, 0x00, 0x00, 0x00, 0x00, 0x00, 0x00, 0x00, 0x00, 0x00, 0x00, 0x00, 0x00, 0x00, 0x00, 
0x00, 0x00, 0x00, 0x00, 0x00, 0x00, 0x00, 0x00, 0x00, 0x00, 0x00, 0x00, 0x00, 0x00, 0x00, 0x00, 0x00, 0x00, 
0x00, 0x00, 0x00, 0x00, 0x00, 0x00, 0x00, 0x00, 0x00, 0x00, 0x00, 0x00, 0x00, 0x00, 0x00, 0x00, 0x00, 0x00, 
0x00, 0x00, 0x00, 0x00, 0x00, 0x00, 0x00, 0x00, 0x00, 0x00, 0x00, 0x00, 0x00, 0x00, 0x00, 0x00, 0x00, 0x00, 
0x00, 0x00, 0x00, 0x00, 0x00, 0x00, 0x00, 0x00, 0x00, 0x00, 0x00, 0x00, 0x00, 0x00, 0x00, 0x00, 0x00, 0x00, 
0x00, 0x00, 0x00, 0x00, 0x00, 0x00, 0x10, 0x00, 0x00, 0x00, 0x7b, 0x83, 0xc0, 0x37, 0x4d, 0x7b, 0xa1, 0x37, 
0xf2, 0x08, 0x22, 0x38, 0xdc, 0xe2, 0x2c, 0x38, 0x5b, 0xf5, 0x93, 0x37, 0x9b, 0x16, 0x57, 0x37, 0xf0, 0x88, 
0xae, 0x36, 0xbb, 0x97, 0x3e, 0x38, 0x20, 0xc9, 0x22, 0x37, 0xcf, 0x7d, 0x44, 0x37, 0x93, 0x33, 0xc4, 0x36, 
0x09, 0x2e, 0x99, 0x37, 0xb6, 0xa9, 0xec, 0x37, 0xf7, 0xe8, 0x0f, 0x37, 0x04, 0x52, 0xa6, 0x38, 0x78, 0x63, 
0xd0, 0x38, 0x01, 0x00, 0x00, 0x00, 0x10, 0x00, 0x00, 0x00, 0x0a, 0x00, 0x00, 0x00, 0x31, 0x37, 0x31, 0x5f, 
0x61, 0x74, 0x74, 0x72, 0x5f, 0x31, 0x00, 0x00, 0x66, 0xea, 0xff, 0xff, 0x10, 0x00, 0x00, 0x00, 0x00, 0x00, 
0x00, 0x09, 0x2c, 0x00, 0x00, 0x00, 0x3c, 0x00, 0x00, 0x00, 0xe4, 0xe9, 0xff, 0xff, 0x08, 0x00, 0x00, 0x00, 
0x14, 0x00, 0x00, 0x00, 0x01, 0x00, 0x00, 0x00, 0x80, 0xff, 0xff, 0xff, 0xff, 0xff, 0xff, 0xff, 0x00, 0x00, 
0x00, 0x00, 0x01, 0x00, 0x00, 0x00, 0xb2, 0x04, 0xf7, 0x3b, 0x04, 0x00, 0x00, 0x00, 0x01, 0x00, 0x00, 0x00, 
0x0c, 0x00, 0x00, 0x00, 0x0c, 0x00, 0x00, 0x00, 0x10, 0x00, 0x00, 0x00, 0x14, 0x00, 0x00, 0x00, 0x69, 0x6e, 
0x70, 0x75, 0x74, 0x2e, 0x31, 0x5f, 0x74, 0x65, 0x5f, 0x74, 0x72, 0x61, 0x6e, 0x73, 0x66, 0x6f, 0x72, 0x6d, 
0x00, 0x00, 0x00, 0x00, 0x5e, 0xea, 0xff, 0xff, 0x14, 0x00, 0x00, 0x00, 0x00, 0x00, 0x00, 0x09, 0xe4, 0x00, 
0x00, 0x00, 0xf4, 0x00, 0x00, 0x00, 0x12, 0x00, 0x00, 0x00, 0x62, 0xec, 0xff, 0xff, 0x03, 0x00, 0x00, 0x00, 
0x08, 0x00, 0x00, 0x00, 0x88, 0x00, 0x00, 0x00, 0x10, 0x00, 0x00, 0x00, 0x00, 0x00, 0x00, 0x00, 0x00, 0x00, 
0x00, 0x00, 0x00, 0x00, 0x00, 0x00, 0x00, 0x00, 0x00, 0x00, 0x00, 0x00, 0x00, 0x00, 0x00, 0x00, 0x00, 0x00, 
0x00, 0x00, 0x00, 0x00, 0x00, 0x00, 0x00, 0x00, 0x00, 0x00, 0x00, 0x00, 0x00, 0x00, 0x00, 0x00, 0x00, 0x00, 
0x00, 0x00, 0x00, 0x00, 0x00, 0x00, 0x00, 0x00, 0x00, 0x00, 0x00, 0x00, 0x00, 0x00, 0x00, 0x00, 0x00, 0x00, 
0x00, 0x00, 0x00, 0x00, 0x00, 0x00, 0x00, 0x00, 0x00, 0x00, 0x00, 0x00, 0x00, 0x00, 0x00, 0x00, 0x00, 0x00, 
0x00, 0x00, 0x00, 0x00, 0x00, 0x00, 0x00, 0x00, 0x00, 0x00, 0x00, 0x00, 0x00, 0x00, 0x00, 0x00, 0x00, 0x00, 
0x00, 0x00, 0x00, 0x00, 0x00, 0x00, 0x00, 0x00, 0x00, 0x00, 0x00, 0x00, 0x00, 0x00, 0x00, 0x00, 0x00, 0x00, 
0x00, 0x00, 0x00, 0x00, 0x00, 0x00, 0x00, 0x00, 0x00, 0x00, 0x00, 0x00, 0x00, 0x00, 0x10, 0x00, 0x00, 0x00, 
0x17, 0x6f, 0x59, 0x3c, 0x7b, 0x5e, 0x1c, 0x3c, 0xf1, 0x07, 0x83, 0x3c, 0x6c, 0xbe, 0xf7, 0x3b, 0xe9, 0x1b, 
0xe4, 0x3c, 0xe9, 0x22, 0x1d, 0x3c, 0x74, 0x14, 0xb6, 0x3b, 0xcd, 0xc7, 0x18, 0x3c, 0x86, 0x14, 0xa4, 0x3c, 
0x58, 0xd0, 0x9a, 0x3b, 0xc4, 0x3d, 0x8c, 0x3b, 0x68, 0xe6, 0x60, 0x3b, 0xe8, 0xc1, 0xf4, 0x3b, 0x20, 0xfc, 
0xd1, 0x3b, 0xc1, 0x2b, 0x97, 0x3b, 0xd6, 0xf7, 0xbc, 0x3b, 0x04, 0x00, 0x00, 0x00, 0x01, 0x00, 0x00, 0x00, 
0x03, 0x00, 0x00, 0x00, 0x03, 0x00, 0x00, 0x00, 0x10, 0x00, 0x00, 0x00, 0x0c, 0x00, 0x00, 0x00, 0x66, 0x75, 
0x73, 0x65, 0x5f, 0x61, 0x74, 0x74, 0x72, 0x5f, 0x31, 0x33, 0x00, 0x00, 0x00, 0x00, 0xe6, 0xeb, 0xff, 0xff, 
0x10, 0x00, 0x00, 0x00, 0x00, 0x00, 0x00, 0x09, 0x2c, 0x00, 0x00, 0x00, 0x3c, 0x00, 0x00, 0x00, 0x64, 0xeb, 
0xff, 0xff, 0x08, 0x00, 0x00, 0x00, 0x14, 0x00, 0x00, 0x00, 0x01, 0x00, 0x00, 0x00, 0x80, 0xff, 0xff, 0xff, 
0xff, 0xff, 0xff, 0xff, 0x00, 0x00, 0x00, 0x00, 0x01, 0x00, 0x00, 0x00, 0x00, 0x00, 0x80, 0x3b, 0x04, 0x00, 
0x00, 0x00, 0x01, 0x00, 0x00, 0x00, 0x0c, 0x00, 0x00, 0x00, 0x0c, 0x00, 0x00, 0x00, 0x02, 0x00, 0x00, 0x00, 
0x10, 0x00, 0x00, 0x00, 0x66, 0x75, 0x73, 0x65, 0x5f, 0x74, 0x72, 0x61, 0x6e, 0x73, 0x66, 0x6f, 0x72, 0x6d, 
0x5f, 0x31, 0x00, 0x00, 0x00, 0x00, 0xd8, 0xfc, 0xff, 0xff, 0x00, 0x00, 0x00, 0x02, 0x0c, 0x00, 0x00, 0x00, 
0x14, 0x00, 0x00, 0x00, 0x11, 0x00, 0x00, 0x00, 0x02, 0x00, 0x00, 0x00, 0x04, 0x00, 0x00, 0x00, 0x02, 0x00, 
0x00, 0x00, 0x21, 0x00, 0x00, 0x00, 0x69, 0x6e, 0x70, 0x75, 0x74, 0x2e, 0x31, 0x34, 0x5f, 0x74, 0x65, 0x5f, 
0x74, 0x72, 0x61, 0x6e, 0x73, 0x66, 0x6f, 0x72, 0x6d, 0x5f, 0x31, 0x5f, 0x74, 0x65, 0x5f, 0x61, 0x74, 0x74, 
0x72, 0x5f, 0x32, 0x00, 0x00, 0x00, 0x22, 0xec, 0xff, 0xff, 0x14, 0x00, 0x00, 0x00, 0x00, 0x00, 0x00, 0x02, 
0x84, 0x00, 0x00, 0x00, 0x88, 0x00, 0x00, 0x00, 0x10, 0x00, 0x00, 0x00, 0x14, 0xec, 0xff, 0xff, 0x08, 0x00, 
0x00, 0x00, 0x4c, 0x00, 0x00, 0x00, 0x08, 0x00, 0x00, 0x00, 0x00, 0x00, 0x00, 0x00, 0x00, 0x00, 0x00, 0x00, 
0x00, 0x00, 0x00, 0x00, 0x00, 0x00, 0x00, 0x00, 0x00, 0x00, 0x00, 0x00, 0x00, 0x00, 0x00, 0x00, 0x00, 0x00, 
0x00, 0x00, 0x00, 0x00, 0x00, 0x00, 0x00, 0x00, 0x00, 0x00, 0x00, 0x00, 0x00, 0x00, 0x00, 0x00, 0x00, 0x00, 
0x00, 0x00, 0x00, 0x00, 0x00, 0x00, 0x00, 0x00, 0x00, 0x00, 0x00, 0x00, 0x00, 0x00, 0x00, 0x00, 0x00, 0x00, 
0x00, 0x00, 0x00, 0x00, 0x00, 0x00, 0x08, 0x00, 0x00, 0x00, 0xf7, 0xc8, 0x03, 0x39, 0xa3, 0xa3, 0xa4, 0x38, 
0x05, 0x15, 0x23, 0x39, 0xba, 0x92, 0xf2, 0x37, 0x86, 0x2b, 0xdb, 0x38, 0x4e, 0xad, 0x66, 0x39, 0xd6, 0x79, 
0xff, 0x37, 0xfd, 0x24, 0x2b, 0x38, 0x01, 0x00, 0x00, 0x00, 0x08, 0x00, 0x00, 0x00, 0x0f, 0x00, 0x00, 0x00, 
0x69, 0x6e, 0x70, 0x75, 0x74, 0x2e, 0x31, 0x32, 0x5f, 0x61, 0x74, 0x74, 0x72, 0x5f, 0x31, 0x00, 0x3e, 0xed, 
0xff, 0xff, 0x10, 0x00, 0x00, 0x00, 0x00, 0x00, 0x00, 0x09, 0x28, 0x00, 0x00, 0x00, 0x38, 0x00, 0x00, 0x00, 
0xbc, 0xec, 0xff, 0xff, 0x08, 0x00, 0x00, 0x00, 0x10, 0x00, 0x00, 0x00, 0x01, 0x00, 0x00, 0x00, 0x80, 0xff, 
0xff, 0xff, 0xff, 0xff, 0xff, 0xff, 0x01, 0x00, 0x00, 0x00, 0xf8, 0x34, 0x3a, 0x3c, 0x04, 0x00, 0x00, 0x00, 
0x01, 0x00, 0x00, 0x00, 0x1a, 0x00, 0x00, 0x00, 0x1a, 0x00, 0x00, 0x00, 0x08, 0x00, 0x00, 0x00, 0x26, 0x00, 
0x00, 0x00, 0x69, 0x6e, 0x70, 0x75, 0x74, 0x2e, 0x31, 0x34, 0x5f, 0x74, 0x65, 0x5f, 0x74, 0x72, 0x61, 0x6e, 
0x73, 0x66, 0x6f, 0x72, 0x6d, 0x5f, 0x31, 0x5f, 0x74, 0x65, 0x5f, 0x74, 0x72, 0x61, 0x6e, 0x73, 0x66, 0x6f, 
0x72, 0x6d, 0x5f, 0x32, 0x00, 0x00, 0x42, 0xed, 0xff, 0xff, 0x14, 0x00, 0x00, 0x00, 0x00, 0x00, 0x00, 0x02, 
0x84, 0x00, 0x00, 0x00, 0x88, 0x00, 0x00, 0x00, 0x0f, 0x00, 0x00, 0x00, 0x34, 0xed, 0xff, 0xff, 0x08, 0x00, 
0x00, 0x00, 0x4c, 0x00, 0x00, 0x00, 0x08, 0x00, 0x00, 0x00, 0x00, 0x00, 0x00, 0x00, 0x00, 0x00, 0x00, 0x00, 
0x00, 0x00, 0x00, 0x00, 0x00, 0x00, 0x00, 0x00, 0x00, 0x00, 0x00, 0x00, 0x00, 0x00, 0x00, 0x00, 0x00, 0x00, 
0x00, 0x00, 0x00, 0x00, 0x00, 0x00, 0x00, 0x00, 0x00, 0x00, 0x00, 0x00, 0x00, 0x00, 0x00, 0x00, 0x00, 0x00, 
0x00, 0x00, 0x00, 0x00, 0x00, 0x00, 0x00, 0x00, 0x00, 0x00, 0x00, 0x00, 0x00, 0x00, 0x00, 0x00, 0x00, 0x00, 
0x00, 0x00, 0x00, 0x00, 0x00, 0x00, 0x08, 0x00, 0x00, 0x00, 0xe3, 0x10, 0x4c, 0x38, 0xeb, 0x44, 0x20, 0x38, 
0xcf, 0x13, 0x96, 0x38, 0xb7, 0x17, 0x1b, 0x39, 0x56, 0x28, 0xe0, 0x38, 0x62, 0x3f, 0x27, 0x38, 0x9e, 0xf0, 
0x6b, 0x38, 0xf7, 0xf8, 0x31, 0x38, 0x01, 0x00, 0x00, 0x00, 0x08, 0x00, 0x00, 0x00, 0x0f, 0x00, 0x00, 0x00, 
0x69, 0x6e, 0x70, 0x75, 0x74, 0x2e, 0x31, 0x34, 0x5f, 0x61, 0x74, 0x74, 0x72, 0x5f, 0x31, 0x00, 0xec, 0xfe, 
0xff, 0xff, 0x00, 0x00, 0x00, 0x02, 0x0c, 0x00, 0x00, 0x00, 0x14, 0x00, 0x00, 0x00, 0x0e, 0x00, 0x00, 0x00, 
0x02, 0x00, 0x00, 0x00, 0x04, 0x00, 0x00, 0x00, 0x02, 0x00, 0x00, 0x00, 0x20, 0x00, 0x00, 0x00, 0x69, 0x6e, 
0x70, 0x75, 0x74, 0x2e, 0x34, 0x5f, 0x74, 0x65, 0x5f, 0x74, 0x72, 0x61, 0x6e, 0x73, 0x66, 0x6f, 0x72, 0x6d, 
0x5f, 0x31, 0x5f, 0x74, 0x65, 0x5f, 0x61, 0x74, 0x74, 0x72, 0x5f, 0x32, 0x00, 0x00, 0x00, 0x00, 0xa6, 0xee, 
0xff, 0xff, 0x10, 0x00, 0x00, 0x00, 0x00, 0x00, 0x00, 0x09, 0x2c, 0x00, 0x00, 0x00, 0x3c, 0x00, 0x00, 0x00, 
0x24, 0xee, 0xff, 0xff, 0x08, 0x00, 0x00, 0x00, 0x14, 0x00, 0x00, 0x00, 0x01, 0x00, 0x00, 0x00, 0x80, 0xff, 
0xff, 0xff, 0xff, 0xff, 0xff, 0xff, 0x00, 0x00, 0x00, 0x00, 0x01, 0x00, 0x00, 0x00, 0xff, 0xff, 0x00, 0x3c, 
0x04, 0x00, 0x00, 0x00, 0x01, 0x00, 0x00, 0x00, 0x60, 0x00, 0x00, 0x00, 0x60, 0x00, 0x00, 0x00, 0x03, 0x00, 
0x00, 0x00, 0x14, 0x00, 0x00, 0x00, 0x69, 0x6e, 0x70, 0x75, 0x74, 0x2e, 0x34, 0x5f, 0x74, 0x65, 0x5f, 0x74, 
0x72, 0x61, 0x6e, 0x73, 0x66, 0x6f, 0x72, 0x6d, 0x00, 0x00, 0x00, 0x00, 0x0e, 0xef, 0xff, 0xff, 0x10, 0x00, 
0x00, 0x00, 0x00, 0x00, 0x00, 0x09, 0x28, 0x00, 0x00, 0x00, 0x38, 0x00, 0x00, 0x00, 0x8c, 0xee, 0xff, 0xff, 
0x08, 0x00, 0x00, 0x00, 0x10, 0x00, 0x00, 0x00, 0x01, 0x00, 0x00, 0x00, 0x80, 0xff, 0xff, 0xff, 0xff, 0xff, 
0xff, 0xff, 0x01, 0x00, 0x00, 0x00, 0xb9, 0xa3, 0x48, 0x3c, 0x04, 0x00, 0x00, 0x00, 0x01, 0x00, 0x00, 0x00, 
0x30, 0x00, 0x00, 0x00, 0x30, 0x00, 0x00, 0x00, 0x08, 0x00, 0x00, 0x00, 0x15, 0x00, 0x00, 0x00, 0x69, 0x6e, 
0x70, 0x75, 0x74, 0x2e, 0x31, 0x30, 0x5f, 0x74, 0x65, 0x5f, 0x74, 0x72, 0x61, 0x6e, 0x73, 0x66, 0x6f, 0x72, 
0x6d, 0x00, 0x00, 0x00, 0x0c, 0x00, 0x14, 0x00, 0x08, 0x00, 0x07, 0x00, 0x10, 0x00, 0x0c, 0x00, 0x0c, 0x00, 
0x00, 0x00, 0x00, 0x00, 0x00, 0x02, 0x0c, 0x00, 0x00, 0x00, 0x14, 0x00, 0x00, 0x00, 0x0d, 0x00, 0x00, 0x00, 
0x02, 0x00, 0x00, 0x00, 0x04, 0x00, 0x00, 0x00, 0x02, 0x00, 0x00, 0x00, 0x21, 0x00, 0x00, 0x00, 0x69, 0x6e, 
0x70, 0x75, 0x74, 0x2e, 0x31, 0x30, 0x5f, 0x74, 0x65, 0x5f, 0x74, 0x72, 0x61, 0x6e, 0x73, 0x66, 0x6f, 0x72, 
0x6d, 0x5f, 0x31, 0x5f, 0x74, 0x65, 0x5f, 0x61, 0x74, 0x74, 0x72, 0x5f, 0x32, 0x00, 0x00, 0x00, 0xc6, 0xef, 
0xff, 0xff, 0x10, 0x00, 0x00, 0x00, 0x00, 0x00, 0x00, 0x09, 0x2c, 0x00, 0x00, 0x00, 0x3c, 0x00, 0x00, 0x00, 
0x44, 0xef, 0xff, 0xff, 0x08, 0x00, 0x00, 0x00, 0x14, 0x00, 0x00, 0x00, 0x01, 0x00, 0x00, 0x00, 0xb8, 0xff, 
0xff, 0xff, 0xff, 0xff, 0xff, 0xff, 0x00, 0x00, 0x00, 0x00, 0x01, 0x00, 0x00, 0x00, 0xee, 0x3f, 0x0f, 0x3e, 
0x04, 0x00, 0x00, 0x00, 0x01, 0x00, 0x00, 0x00, 0x0c, 0x00, 0x00, 0x00, 0x0c, 0x00, 0x00, 0x00, 0x02, 0x00, 
0x00, 0x00, 0x10, 0x00, 0x00, 0x00, 0x66, 0x75, 0x73, 0x65, 0x5f, 0x74, 0x72, 0x61, 0x6e, 0x73, 0x66, 0x6f, 
0x72, 0x6d, 0x5f, 0x36, 0x00, 0x00, 0x00, 0x00, 0xba, 0xef, 0xff, 0xff, 0x14, 0x00, 0x00, 0x00, 0x00, 0x00, 
0x00, 0x09, 0x60, 0x02, 0x00, 0x00, 0x70, 0x02, 0x00, 0x00, 0x0c, 0x00, 0x00, 0x00, 0xac, 0xef, 0xff, 0xff, 
0x08, 0x00, 0x00, 0x00, 0x88, 0x01, 0x00, 0x00, 0x30, 0x00, 0x00, 0x00, 0x00, 0x00, 0x00, 0x00, 0x00, 0x00, 
0x00, 0x00, 0x00, 0x00, 0x00, 0x00, 0x00, 0x00, 0x00, 0x00, 0x00, 0x00, 0x00, 0x00, 0x00, 0x00, 0x00, 0x00, 
0x00, 0x00, 0x00, 0x00, 0x00, 0x00, 0x00, 0x00, 0x00, 0x00, 0x00, 0x00, 0x00, 0x00, 0x00, 0x00, 0x00, 0x00, 
0x00, 0x00, 0x00, 0x00, 0x00, 0x00, 0x00, 0x00, 0x00, 0x00, 0x00, 0x00, 0x00, 0x00, 0x00, 0x00, 0x00, 0x00, 
0x00, 0x00, 0x00, 0x00, 0x00, 0x00, 0x00, 0x00, 0x00, 0x00, 0x00, 0x00, 0x00, 0x00, 0x00, 0x00, 0x00, 0x00, 
0x00, 0x00, 0x00, 0x00, 0x00, 0x00, 0x00, 0x00, 0x00, 0x00, 0x00, 0x00, 0x00, 0x00, 0x00, 0x00, 0x00, 0x00, 
0x00, 0x00, 0x00, 0x00, 0x00, 0x00, 0x00, 0x00, 0x00, 0x00, 0x00, 0x00, 0x00, 0x00, 0x00, 0x00, 0x00, 0x00, 
0x00, 0x00, 0x00, 0x00, 0x00, 0x00, 0x00, 0x00, 0x00, 0x00, 0x00, 0x00, 0x00, 0x00, 0x00, 0x00, 0x00, 0x00, 
0x00, 0x00, 0x00, 0x00, 0x00, 0x00, 0x00, 0x00, 0x00, 0x00, 0x00, 0x00, 0x00, 0x00, 0x00, 0x00, 0x00, 0x00, 
0x00, 0x00, 0x00, 0x00, 0x00, 0x00, 0x00, 0x00, 0x00, 0x00, 0x00, 0x00, 0x00, 0x00, 0x00, 0x00, 0x00, 0x00, 
0x00, 0x00, 0x00, 0x00, 0x00, 0x00, 0x00, 0x00, 0x00, 0x00, 0x00, 0x00, 0x00, 0x00, 0x00, 0x00, 0x00, 0x00, 
0x00, 0x00, 0x00, 0x00, 0x00, 0x00, 0x00, 0x00, 0x00, 0x00, 0x00, 0x00, 0x00, 0x00, 0x00, 0x00, 0x00, 0x00, 
0x00, 0x00, 0x00, 0x00, 0x00, 0x00, 0x00, 0x00, 0x00, 0x00, 0x00, 0x00, 0x00, 0x00, 0x00, 0x00, 0x00, 0x00, 
0x00, 0x00, 0x00, 0x00, 0x00, 0x00, 0x00, 0x00, 0x00, 0x00, 0x00, 0x00, 0x00, 0x00, 0x00, 0x00, 0x00, 0x00, 
0x00, 0x00, 0x00, 0x00, 0x00, 0x00, 0x00, 0x00, 0x00, 0x00, 0x00, 0x00, 0x00, 0x00, 0x00, 0x00, 0x00, 0x00, 
0x00, 0x00, 0x00, 0x00, 0x00, 0x00, 0x00, 0x00, 0x00, 0x00, 0x00, 0x00, 0x00, 0x00, 0x00, 0x00, 0x00, 0x00, 
0x00, 0x00, 0x00, 0x00, 0x00, 0x00, 0x00, 0x00, 0x00, 0x00, 0x00, 0x00, 0x00, 0x00, 0x00, 0x00, 0x00, 0x00, 
0x00, 0x00, 0x00, 0x00, 0x00, 0x00, 0x00, 0x00, 0x00, 0x00, 0x00, 0x00, 0x00, 0x00, 0x00, 0x00, 0x00, 0x00, 
0x00, 0x00, 0x00, 0x00, 0x00, 0x00, 0x00, 0x00, 0x00, 0x00, 0x00, 0x00, 0x00, 0x00, 0x00, 0x00, 0x00, 0x00, 
0x00, 0x00, 0x00, 0x00, 0x00, 0x00, 0x00, 0x00, 0x00, 0x00, 0x00, 0x00, 0x00, 0x00, 0x00, 0x00, 0x00, 0x00, 
0x00, 0x00, 0x00, 0x00, 0x00, 0x00, 0x00, 0x00, 0x00, 0x00, 0x00, 0x00, 0x00, 0x00, 0x00, 0x00, 0x00, 0x00, 
0x00, 0x00, 0x00, 0x00, 0x00, 0x00, 0x00, 0x00, 0x00, 0x00, 0x00, 0x00, 0x00, 0x00, 0x00, 0x00, 0x00, 0x00, 
0x30, 0x00, 0x00, 0x00, 0x00, 0x00, 0x00, 0x34, 0x39, 0x6c, 0x97, 0x3c, 0xa1, 0x90, 0xbe, 0x3c, 0xf9, 0xb4, 
0xc5, 0x3b, 0xcb, 0x3f, 0x13, 0x3c, 0xae, 0xa4, 0x2e, 0x3c, 0x9c, 0x05, 0x3c, 0x3c, 0x87, 0xc1, 0xa9, 0x3c, 
0x00, 0x00, 0x00, 0x34, 0x00, 0x00, 0x00, 0x34, 0x38, 0x36, 0x24, 0x3c, 0x80, 0x1b, 0x00, 0x3c, 0x00, 0x00, 
0x00, 0x34, 0x23, 0x81, 0x11, 0x3c, 0x0a, 0xe0, 0x0c, 0x3c, 0x00, 0x00, 0x00, 0x34, 0xd3, 0x99, 0x1a, 0x3c, 
0x54, 0xde, 0x27, 0x3c, 0x00, 0x00, 0x00, 0x34, 0x00, 0x00, 0x00, 0x34, 0x00, 0x00, 0x00, 0x34, 0x00, 0x00, 
0x00, 0x34, 0x00, 0x00, 0x00, 0x34, 0xd9, 0x09, 0x02, 0x3c, 0xa0, 0x0b, 0x3c, 0x3c, 0x00, 0x00, 0x00, 0x34, 
0x9e, 0x08, 0x19, 0x3c, 0x3c, 0xf1, 0x56, 0x3c, 0x00, 0x00, 0x00, 0x34, 0x00, 0x00, 0x00, 0x34, 0x00, 0x00, 
0x00, 0x34, 0x00, 0x00, 0x00, 0x34, 0x11, 0x43, 0x41, 0x3c, 0x06, 0x52, 0x23, 0x3c, 0x00, 0x00, 0x00, 0x34, 
0x00, 0x00, 0x00, 0x34, 0x54, 0xe5, 0x47, 0x3c, 0x00, 0x00, 0x00, 0x34, 0xfe, 0xfc, 0xa3, 0x3a, 0x00, 0x00, 
0x00, 0x34, 0x00, 0x00, 0x00, 0x34, 0xa7, 0xdf, 0x37, 0x3c, 0x00, 0x00, 0x00, 0x34, 0xa1, 0x5a, 0x70, 0x3c, 
0x00, 0x00, 0x00, 0x34, 0xf7, 0x6d, 0xca, 0x38, 0x81, 0x60, 0x93, 0x3c, 0x00, 0xea, 0xcf, 0x3b, 0x04, 0x00, 
0x00, 0x00, 0x30, 0x00, 0x00, 0x00, 0x03, 0x00, 0x00, 0x00, 0x03, 0x00, 0x00, 0x00, 0x10, 0x00, 0x00, 0x00, 
0x0c, 0x00, 0x00, 0x00, 0x66, 0x75, 0x73, 0x65, 0x5f, 0x61, 0x74, 0x74, 0x72, 0x5f, 0x31, 0x35, 0x00, 0x00, 
0x00, 0x00, 0x4e, 0xf2, 0xff, 0xff, 0x14, 0x00, 0x00, 0x00, 0x00, 0x00, 0x00, 0x09, 0x84, 0x00, 0x00, 0x00, 
0x94, 0x00, 0x00, 0x00, 0x0b, 0x00, 0x00, 0x00, 0x52, 0xf4, 0xff, 0xff, 0x03, 0x00, 0x00, 0x00, 0x08, 0x00, 
0x00, 0x00, 0x48, 0x00, 0x00, 0x00, 0x08, 0x00, 0x00, 0x00, 0x00, 0x00, 0x00, 0x00, 0x00, 0x00, 0x00, 0x00, 
0x00, 0x00, 0x00, 0x00, 0x00, 0x00, 0x00, 0x00, 0x00, 0x00, 0x00, 0x00, 0x00, 0x00, 0x00, 0x00, 0x00, 0x00, 
0x00, 0x00, 0x00, 0x00, 0x00, 0x00, 0x00, 0x00, 0x00, 0x00, 0x00, 0x00, 0x00, 0x00, 0x00, 0x00, 0x00, 0x00, 
0x00, 0x00, 0x00, 0x00, 0x00, 0x00, 0x00, 0x00, 0x00, 0x00, 0x00, 0x00, 0x00, 0x00, 0x00, 0x00, 0x00, 0x00, 
0x00, 0x00, 0x08, 0x00, 0x00, 0x00, 0x24, 0xc8, 0x32, 0x3c, 0x34, 0x5a, 0xdf, 0x3b, 0x6e, 0x3d, 0x5d, 0x3c, 
0x18, 0x8a, 0x24, 0x3b, 0x36, 0xaa, 0x14, 0x3c, 0x5c, 0x78, 0x9c, 0x3c, 0x9f, 0x4a, 0x2d, 0x3b, 0x72, 0x2d, 
0x68, 0x3b, 0x04, 0x00, 0x00, 0x00, 0x01, 0x00, 0x00, 0x00, 0x03, 0x00, 0x00, 0x00, 0x03, 0x00, 0x00, 0x00, 
0x08, 0x00, 0x00, 0x00, 0x0c, 0x00, 0x00, 0x00, 0x66, 0x75, 0x73, 0x65, 0x5f, 0x61, 0x74, 0x74, 0x72, 0x5f, 
0x31, 0x30, 0x00, 0x00, 0x00, 0x00, 0x76, 0xf3, 0xff, 0xff, 0x10, 0x00, 0x00, 0x00, 0x00, 0x00, 0x00, 0x09, 
0x2c, 0x00, 0x00, 0x00, 0x3c, 0x00, 0x00, 0x00, 0xf4, 0xf2, 0xff, 0xff, 0x08, 0x00, 0x00, 0x00, 0x14, 0x00, 
0x00, 0x00, 0x01, 0x00, 0x00, 0x00, 0x80, 0xff, 0xff, 0xff, 0xff, 0xff, 0xff, 0xff, 0x00, 0x00, 0x00, 0x00, 
0x01, 0x00, 0x00, 0x00, 0x18, 0x6a, 0xfd, 0x3b, 0x04, 0x00, 0x00, 0x00, 0x01, 0x00, 0x00, 0x00, 0x0c, 0x00, 
0x00, 0x00, 0x0c, 0x00, 0x00, 0x00, 0x08, 0x00, 0x00, 0x00, 0x15, 0x00, 0x00, 0x00, 0x69, 0x6e, 0x70, 0x75, 
0x74, 0x2e, 0x31, 0x36, 0x5f, 0x74, 0x65, 0x5f, 0x74, 0x72, 0x61, 0x6e, 0x73, 0x66, 0x6f, 0x72, 0x6d, 0x00, 
0x00, 0x00, 0xde, 0xf3, 0xff, 0xff, 0x10, 0x00, 0x00, 0x00, 0x00, 0x00, 0x00, 0x09, 0x28, 0x00, 0x00, 0x00, 
0x38, 0x00, 0x00, 0x00, 0x5c, 0xf3, 0xff, 0xff, 0x08, 0x00, 0x00, 0x00, 0x10, 0x00, 0x00, 0x00, 0x01, 0x00, 
0x00, 0x00, 0x80, 0xff, 0xff, 0xff, 0xff, 0xff, 0xff, 0xff, 0x01, 0x00, 0x00, 0x00, 0xb9, 0xa3, 0x48, 0x3c, 
0x04, 0x00, 0x00, 0x00, 0x01, 0x00, 0x00, 0x00, 0x32, 0x00, 0x00, 0x00, 0x32, 0x00, 0x00, 0x00, 0x08, 0x00, 
0x00, 0x00, 0x26, 0x00, 0x00, 0x00, 0x69, 0x6e, 0x70, 0x75, 0x74, 0x2e, 0x31, 0x30, 0x5f, 0x74, 0x65, 0x5f, 
0x74, 0x72, 0x61, 0x6e, 0x73, 0x66, 0x6f, 0x72, 0x6d, 0x5f, 0x31, 0x5f, 0x74, 0x65, 0x5f, 0x74, 0x72, 0x61, 
0x6e, 0x73, 0x66, 0x6f, 0x72, 0x6d, 0x5f, 0x32, 0x00, 0x00, 0xe2, 0xf3, 0xff, 0xff, 0x14, 0x00, 0x00, 0x00, 
0x00, 0x00, 0x00, 0x02, 0xe0, 0x00, 0x00, 0x00, 0xe4, 0x00, 0x00, 0x00, 0x0a, 0x00, 0x00, 0x00, 0xd4, 0xf3, 
0xff, 0xff, 0x08, 0x00, 0x00, 0x00, 0x88, 0x00, 0x00, 0x00, 0x10, 0x00, 0x00, 0x00, 0x00, 0x00, 0x00, 0x00, 
0x00, 0x00, 0x00, 0x00, 0x00, 0x00, 0x00, 0x00, 0x00, 0x00, 0x00, 0x00, 0x00, 0x00, 0x00, 0x00, 0x00, 0x00, 
0x00, 0x00, 0x00, 0x00, 0x00, 0x00, 0x00, 0x00, 0x00, 0x00, 0x00, 0x00, 0x00, 0x00, 0x00, 0x00, 0x00, 0x00, 
0x00, 0x00, 0x00, 0x00, 0x00, 0x00, 0x00, 0x00, 0x00, 0x00, 0x00, 0x00, 0x00, 0x00, 0x00, 0x00, 0x00, 0x00, 
0x00, 0x00, 0x00, 0x00, 0x00, 0x00, 0x00, 0x00, 0x00, 0x00, 0x00, 0x00, 0x00, 0x00, 0x00, 0x00, 0x00, 0x00, 
0x00, 0x00, 0x00, 0x00, 0x00, 0x00, 0x00, 0x00, 0x00, 0x00, 0x00, 0x00, 0x00, 0x00, 0x00, 0x00, 0x00, 0x00, 
0x00, 0x00, 0x00, 0x00, 0x00, 0x00, 0x00, 0x00, 0x00, 0x00, 0x00, 0x00, 0x00, 0x00, 0x00, 0x00, 0x00, 0x00, 
0x00, 0x00, 0x00, 0x00, 0x00, 0x00, 0x00, 0x00, 0x00, 0x00, 0x00, 0x00, 0x00, 0x00, 0x00, 0x00, 0x10, 0x00, 
0x00, 0x00, 0x61, 0xa3, 0x79, 0x39, 0x45, 0x76, 0xbb, 0x39, 0xd6, 0x4d, 0x68, 0x39, 0x37, 0x54, 0x95, 0x39, 
0x92, 0x6b, 0xe7, 0x38, 0x5f, 0xd3, 0xfd, 0x39, 0x41, 0x9f, 0x94, 0x39, 0x8c, 0x44, 0x53, 0x39, 0x1b, 0xe8, 
0x39, 0x39, 0x0f, 0x59, 0xa3, 0x39, 0xef, 0x06, 0xee, 0x38, 0x76, 0x60, 0x03, 0x39, 0x36, 0x3c, 0x78, 0x39, 
0x7d, 0xd3, 0x9b, 0x39, 0x91, 0xe3, 0xdb, 0x38, 0x4f, 0x52, 0x3b, 0x39, 0x01, 0x00, 0x00, 0x00, 0x10, 0x00, 
0x00, 0x00, 0x0e, 0x00, 0x00, 0x00, 0x69, 0x6e, 0x70, 0x75, 0x74, 0x2e, 0x36, 0x5f, 0x61, 0x74, 0x74, 0x72, 
0x5f, 0x31, 0x00, 0x00, 0xea, 0xf4, 0xff, 0xff, 0x14, 0x00, 0x00, 0x00, 0x00, 0x00, 0x00, 0x02, 0xe4, 0x00, 
0x00, 0x00, 0xe8, 0x00, 0x00, 0x00, 0x09, 0x00, 0x00, 0x00, 0xdc, 0xf4, 0xff, 0xff, 0x08, 0x00, 0x00, 0x00, 
0x8c, 0x00, 0x00, 0x00, 0x10, 0x00, 0x00, 0x00, 0x00, 0x00, 0x00, 0x00, 0x00, 0x00, 0x00, 0x00, 0x00, 0x00, 
0x00, 0x00, 0x00, 0x00, 0x00, 0x00, 0x00, 0x00, 0x00, 0x00, 0x00, 0x00, 0x00, 0x00, 0x00, 0x00, 0x00, 0x00, 
0x00, 0x00, 0x00, 0x00, 0x00, 0x00, 0x00, 0x00, 0x00, 0x00, 0x00, 0x00, 0x00, 0x00, 0x00, 0x00, 0x00, 0x00, 
0x00, 0x00, 0x00, 0x00, 0x00, 0x00, 0x00, 0x00, 0x00, 0x00, 0x00, 0x00, 0x00, 0x00, 0x00, 0x00, 0x00, 0x00, 
0x00, 0x00, 0x00, 0x00, 0x00, 0x00, 0x00, 0x00, 0x00, 0x00, 0x00, 0x00, 0x00, 0x00, 0x00, 0x00, 0x00, 0x00, 
0x00, 0x00, 0x00, 0x00, 0x00, 0x00, 0x00, 0x00, 0x00, 0x00, 0x00, 0x00, 0x00, 0x00, 0x00, 0x00, 0x00, 0x00, 
0x00, 0x00, 0x00, 0x00, 0x00, 0x00, 0x00, 0x00, 0x00, 0x00, 0x00, 0x00, 0x00, 0x00, 0x00, 0x00, 0x00, 0x00, 
0x00, 0x00, 0x00, 0x00, 0x00, 0x00, 0x00, 0x00, 0x00, 0x00, 0x00, 0x00, 0x00, 0x00, 0x10, 0x00, 0x00, 0x00, 
0xc3, 0xc2, 0x8a, 0x37, 0xe0, 0xbd, 0x0e, 0x38, 0xad, 0xaa, 0x28, 0x37, 0x7e, 0x60, 0xcb, 0x37, 0x79, 0xdc, 
0x76, 0x37, 0xd9, 0xc4, 0x08, 0x38, 0x70, 0x43, 0x8d, 0x37, 0x05, 0x03, 0x11, 0x38, 0xd8, 0xcc, 0x1f, 0x38, 
0x1b, 0xa5, 0xb6, 0x37, 0xb2, 0xe1, 0x7f, 0x37, 0x15, 0x02, 0xd2, 0x37, 0xf4, 0x06, 0xbe, 0x37, 0xa3, 0xe9, 
0xa4, 0x37, 0xbd, 0xa8, 0x6f, 0x37, 0x18, 0xd5, 0x08, 0x38, 0x01, 0x00, 0x00, 0x00, 0x10, 0x00, 0x00, 0x00, 
0x0f, 0x00, 0x00, 0x00, 0x69, 0x6e, 0x70, 0x75, 0x74, 0x2e, 0x31, 0x36, 0x5f, 0x61, 0x74, 0x74, 0x72, 0x5f, 
0x31, 0x00, 0x66, 0xf6, 0xff, 0xff, 0x10, 0x00, 0x00, 0x00, 0x00, 0x00, 0x00, 0x09, 0x28, 0x00, 0x00, 0x00, 
0x38, 0x00, 0x00, 0x00, 0xe4, 0xf5, 0xff, 0xff, 0x08, 0x00, 0x00, 0x00, 0x10, 0x00, 0x00, 0x00, 0x01, 0x00, 
0x00, 0x00, 0x80, 0xff, 0xff, 0xff, 0xff, 0xff, 0xff, 0xff, 0x01, 0x00, 0x00, 0x00, 0x46, 0x03, 0xae, 0x3c, 
0x04, 0x00, 0x00, 0x00, 0x01, 0x00, 0x00, 0x00, 0x0c, 0x00, 0x00, 0x00, 0x0c, 0x00, 0x00, 0x00, 0x30, 0x00, 
0x00, 0x00, 0x11, 0x00, 0x00, 0x00, 0x58, 0x71, 0x2e, 0x34, 0x5f, 0x74, 0x65, 0x5f, 0x74, 0x72, 0x61, 0x6e, 
0x73, 0x66, 0x6f, 0x72, 0x6d, 0x00, 0x00, 0x00, 0x56, 0xf6, 0xff, 0xff, 0x14, 0x00, 0x00, 0x00, 0x00, 0x00, 
0x00, 0x09, 0x88, 0x00, 0x00, 0x00, 0x98, 0x00, 0x00, 0x00, 0x08, 0x00, 0x00, 0x00, 0x5a, 0xf8, 0xff, 0xff, 
0x03, 0x00, 0x00, 0x00, 0x08, 0x00, 0x00, 0x00, 0x4c, 0x00, 0x00, 0x00, 0x08, 0x00, 0x00, 0x00, 0x00, 0x00, 
0x00, 0x00, 0x00, 0x00, 0x00, 0x00, 0x00, 0x00, 0x00, 0x00, 0x00, 0x00, 0x00, 0x00, 0x00, 0x00, 0x00, 0x00, 
0x00, 0x00, 0x00, 0x00, 0x00, 0x00, 0x00, 0x00, 0x00, 0x00, 0x00, 0x00, 0x00, 0x00, 0x00, 0x00, 0x00, 0x00, 
0x00, 0x00, 0x00, 0x00, 0x00, 0x00, 0x00, 0x00, 0x00, 0x00, 0x00, 0x00, 0x00, 0x00, 0x00, 0x00, 0x00, 0x00, 
0x00, 0x00, 0x00, 0x00, 0x00, 0x00, 0x00, 0x00, 0x00, 0x00, 0x00, 0x00, 0x08, 0x00, 0x00, 0x00, 0xc5, 0x46, 
0x8c, 0x3b, 0x29, 0x57, 0x5c, 0x3b, 0x1e, 0x54, 0xce, 0x3b, 0x41, 0x39, 0x55, 0x3c, 0x6a, 0x16, 0x1a, 0x3c, 
0x38, 0xef, 0x65, 0x3b, 0xd4, 0x2f, 0xa2, 0x3b, 0xe2, 0xad, 0x74, 0x3b, 0x04, 0x00, 0x00, 0x00, 0x01, 0x00, 
0x00, 0x00, 0x03, 0x00, 0x00, 0x00, 0x03, 0x00, 0x00, 0x00, 0x08, 0x00, 0x00, 0x00, 0x0c, 0x00, 0x00, 0x00, 
0x66, 0x75, 0x73, 0x65, 0x5f, 0x61, 0x74, 0x74, 0x72, 0x5f, 0x31, 0x31, 0x00, 0x00, 0x00, 0x00, 0x12, 0xf7, 
0xff, 0xff, 0x14, 0x00, 0x00, 0x00, 0x00, 0x00, 0x00, 0x02, 0xe0, 0x00, 0x00, 0x00, 0xe4, 0x00, 0x00, 0x00, 
0x07, 0x00, 0x00, 0x00, 0x04, 0xf7, 0xff, 0xff, 0x08, 0x00, 0x00, 0x00, 0x88, 0x00, 0x00, 0x00, 0x10, 0x00, 
0x00, 0x00, 0x00, 0x00, 0x00, 0x00, 0x00, 0x00, 0x00, 0x00, 0x00, 0x00, 0x00, 0x00, 0x00, 0x00, 0x00, 0x00, 
0x00, 0x00, 0x00, 0x00, 0x00, 0x00, 0x00, 0x00, 0x00, 0x00, 0x00, 0x00, 0x00, 0x00, 0x00, 0x00, 0x00, 0x00, 
0x00, 0x00, 0x00, 0x00, 0x00, 0x00, 0x00, 0x00, 0x00, 0x00, 0x00, 0x00, 0x00, 0x00, 0x00, 0x00, 0x00, 0x00, 
0x00, 0x00, 0x00, 0x00, 0x00, 0x00, 0x00, 0x00, 0x00, 0x00, 0x00, 0x00, 0x00, 0x00, 0x00, 0x00, 0x00, 0x00, 
